{"<s>":0,"<pad>":1,"</s>":2,"<unk>":3,"<mask>":4,"!":5,"\"":6,"#":7,"$":8,"%":9,"&":10,"'":11,"(":12,")":13,"*":14,"+":15,",":16,"-":17,".":18,"/":19,"0":20,"1":21,"2":22,"3":23,"4":24,"5":25,"6":26,"7":27,"8":28,"9":29,":":30,";":31,"<":32,"=":33,">":34,"?":35,"@":36,"A":37,"B":38,"C":39,"D":40,"E":41,"F":42,"G":43,"H":44,"I":45,"J":46,"K":47,"L":48,"M":49,"N":50,"O":51,"P":52,"Q":53,"R":54,"S":55,"T":56,"U":57,"V":58,"W":59,"X":60,"Y":61,"Z":62,"[":63,"\\":64,"]":65,"^":66,"_":67,"`":68,"a":69,"b":70,"c":71,"d":72,"e":73,"f":74,"g":75,"h":76,"i":77,"j":78,"k":79,"l":80,"m":81,"n":82,"o":83,"p":84,"q":85,"r":86,"s":87,"t":88,"u":89,"v":90,"w":91,"x":92,"y":93,"z":94,"{":95,"|":96,"}":97,"~":98,"¡":99,"¢":100,"£":101,"¤":102,"¥":103,"¦":104,"§":105,"¨":106,"©":107,"ª":108,"«":109,"¬":110,"®":111,"¯":112,"°":113,"±":114,"²":115,"³":116,"´":117,"µ":118,"¶":119,"·":120,"¸":121,"¹":122,"º":123,"»":124,"¼":125,"½":126,"¾":127,"¿":128,"À":129,"Á":130,"Â":131,"Ã":132,"Ä":133,"Å":134,"Æ":135,"Ç":136,"È":137,"É":138,"Ê":139,"Ë":140,"Ì":141,"Í":142,"Î":143,"Ï":144,"Ð":145,"Ñ":146,"Ò":147,"Ó":148,"Ô":149,"Õ":150,"Ö":151,"×":152,"Ø":153,"Ù":154,"Ú":155,"Û":156,"Ü":157,"Ý":158,"Þ":159,"ß":160,"à":161,"á":162,"â":163,"ã":164,"ä":165,"å":166,"æ":167,"ç":168,"è":169,"é":170,"ê":171,"ë":172,"ì":173,"í":174,"î":175,"ï":176,"ð":177,"ñ":178,"ò":179,"ó":180,"ô":181,"õ":182,"ö":183,"÷":184,"ø":185,"ù":186,"ú":187,"û":188,"ü":189,"ý":190,"þ":191,"ÿ":192,"Ā":193,"ā":194,"Ă":195,"ă":196,"Ą":197,"ą":198,"Ć":199,"ć":200,"Ĉ":201,"ĉ":202,"Ċ":203,"ċ":204,"Č":205,"č":206,"Ď":207,"ď":208,"Đ":209,"đ":210,"Ē":211,"ē":212,"Ĕ":213,"ĕ":214,"Ė":215,"ė":216,"Ę":217,"ę":218,"Ě":219,"ě":220,"Ĝ":221,"ĝ":222,"Ğ":223,"ğ":224,"Ġ":225,"ġ":226,"Ģ":227,"ģ":228,"Ĥ":229,"ĥ":230,"Ħ":231,"ħ":232,"Ĩ":233,"ĩ":234,"Ī":235,"ī":236,"Ĭ":237,"ĭ":238,"Į":239,"į":240,"İ":241,"ı":242,"Ĳ":243,"ĳ":244,"Ĵ":245,"ĵ":246,"Ķ":247,"ķ":248,"ĸ":249,"Ĺ":250,"ĺ":251,"Ļ":252,"ļ":253,"Ľ":254,"ľ":255,"Ŀ":256,"ŀ":257,"Ł":258,"ł":259,"Ń":260,"_{":261,"^{":262,"}\\":263,"ma":264,"\\[":265,"th":266,"math":267,"}(":268,"}^{":269,"\\]":270,"ra":271,"in":272,"})":273,"}_{":274,"ig":275,"le":276,"ta":277,"al":278,"{\\":279,"\\[\\":280,"me":281,",\\":282,"Ġ\\":283,"fra":284,"}}":285,"ar":286,"mathb":287,"frac":288,"_{\\":289,"ft":290,"}\\]":291,"=\\":292,"ti":293,"(\\":294,"de":295,"igh":296,"ph":297,"righ":298,"am":299,"}{":300,"eta":301,")\\":302,"^{\\":303,"cal":304,"left":305,"right":306,"ri":307,"mathcal":308,"}(\\":309,"-\\":310,"si":311,"},":312,"}}\\":313,"mathbb":314,"ot":315,"+\\":316,"lo":317,"su":318,"dot":319,"pri":320,"prime":321,".\\]":322,"to":323,"psi":324,"|\\":325,"mathbf":326,"}^{\\":327,"pha":328,"alpha":329,"leq":330,"rm":331,"},\\":332,"da":333,"amb":334,"ambda":335,"var":336,"lon":337,"mathrm":338,"na":339,"})\\":340,"lambda":341,"psilon":342,"la":343,"amma":344,"lta":345,"sum":346,"epsilon":347,"big":348,"}_{\\":349,"ga":350,"mega":351,")\\]":352,"phi":353,"te":354,"}+":355,"ng":356,"til":357,"tilde":358,"igma":359,"cdot":360,"op":361,"}=":362,"}-":363,"qu":364,"int":365,"mu":366,"time":367,"times":368,"bo":369,"xt":370,"ngle":371,"text":372,"nd":373,"ll":374,"^{-":375,"par":376,"ad":377,"}=\\":378,"beta":379,"tial":380,"partial":381,"er":382,"quad":383,"eq":384,"fty":385,"infty":386,"theta":387,"})\\]":388,"sigma":389,"at":390,"gamma":391,"tor":392,"lin":393,"era":394,"erator":395,"operator":396,"name":397,"operatorname":398,"line":399,"bar":400,"hat":401,"ho":402,"tau":403,"eg":404,"bol":405,"varepsilon":406,"delta":407,"rho":408,"end":409,"|_{":410,"beg":411,"begin":412,"wi":413,"{(":414,"bm":415,"}+\\":416,"se":417,"pi":418,"dots":419,"wide":420,",\\]":421,"xi":422,"}{\\":423,"Ġ&":424,")^{":425,"ray":426,"ell":427,"Ġ0":428,"ap":429,"}.\\]":430,")=":431,"}|":432,"ver":433,"}}{":434,")}\\":435,"geq":436,"omega":437,")=\\":438,"tri":439,"}-\\":440,"}}(":441,"ro":442,"over":443,"Omega":444,"&\\":445,"Big":446,"maths":447,"hi":448,"bla":449,"nabla":450,"frak":451,"mathfrak":452,"matri":453,"matrix":454,"varphi":455,"overline":456,"ldots":457,"sq":458,"nu":459,"rt":460,"^{*":461,"[\\":462,"sqrt":463,"Ġ1":464,"\\\\":465,"De":466,"rangle":467,"ds":468,"Delta":469,"}}^{":470,"|^{":471,"}}\\]":472,"langle":473,"li":474,"array":475,"Ġ\\[":476,"set":477,"tar":478,"otimes":479,"co":480,"}:":481,"ym":482,"}]":483,"Gamma":484,"widetilde":485,"ymbol":486,"bolds":487,"boldsymbol":488,"},\\]":489,"}^{(":490,"Ġ\\[\\":491,"{)":492,"mathsf":493,"row":494,"ĠC":495,"log":496,"pa":497,"Ġ{":498,"}^{*":499,"\\|":500,"}^{-":501,"Ġx":502,"min":503,"\\[(":504,"cdots":505,"Ġ2":506,"}\\,":507,"\\{":508,"widehat":509,"us":510,"Ġi":511,"))":512,"kap":513,"kappa":514,"\\,":515,"rc":516,"cap":517,"\\|_{":518,"tarrow":519,"qquad":520,"Phi":521,"}}(\\":522,"}\\\\":523,"lim":524,"})^{":525,"sub":526,";\\":527,"})=":528,"pmatrix":529,"}}{\\":530,"{(}\\":531,"ci":532,"or":533,").\\]":534,"zeta":535,"Lambda":536,"Ġf":537,"^{(":538,"circ":539,"Ġt":540,"}&":541,"rightarrow":542,"chi":543,"un":544,")-":545,"}}_{":546,"Ġn":547,"cu":548,"Ġ}":549,"Ġa":550,"),\\":551,"),":552,"der":553,"})=\\":554,"under":555,")+":556,"cup":557,"sla":558,"ve":559,"Ġ}\\":560,"}[":561,"}|\\":562,"Ġu":563,"}\\|":564,"{|":565,"\\{\\":566,"nt":567,"}/":568,"]\\":569,"Sigma":570,"Ġd":571,"Ġ=":572,"pro":573,"sup":574,"sim":575,"cr":576,"subar":577,"subarray":578,"}})":579,"Ġ=\\":580,")(":581,"<\\":582,"mathscr":583,"bigg":584,")}":585,":=\\":586,"re":587,"max":588,"ĠL":589,"}\\|_{":590,"{(}":591,"}\\,\\":592,"slant":593,"bmatrix":594,")}{":595,"underline":596,"ĠA":597,"box":598,"\\}\\]":599,"ĠB":600,"\\|\\":601,"ed":602,"ĠS":603,"Ġ_{":604,"neq":605,"ge":606,"Ġk":607,"di":608,")+\\":609,"bf":610,"..":611,"ĠH":612,"subset":613,"ij":614,"Ġ\\\\":615,"pm":616,")-\\":617,"cc":618,"dx":619,")^{\\":620,"),\\]":621,"prod":622,"12":623,"\\[(\\":624,"Ġc":625,"ĠT":626,"!\\":627,"id":628,"Ġ(":629,"Ġs":630,"Psi":631,"it":632,"Ġe":633,"_{*":634,"ĠX":635,"ca":636,"ck":637,"Ġp":638,"}&\\":639,"^{-\\":640,"lus":641,"\\,\\":642,"minus":643,"}},\\":644,"edge":645,".\\":646,"]\\]":647,"wedge":648,"setminus":649,"{)}\\":650,"oplus":651,"colon":652,"))\\":653,"sp":654,"ĠI":655,"_{-":656,"ses":657,"Ġv":658,"cases":659,"}}^{\\":660,"om":661,")}(":662,"ĠM":663,"leqslant":664,"})_{":665,"ĠN":666,"mbox":667,"10":668,"fo":669,"Ġ\\[=":670,"ĠV":671,"ss":672,")|":673,"rall":674,"forall":675,"ex":676,"/\\":677,"(-":678,"lit":679,"top":680,"}:=\\":681,"}}=\\":682,"}}.\\]":683,"}).\\]":684,"split":685,"})}\\":686,":\\":687,")_{":688,"\\[|":689,"vec":690,"exp":691,"Ġ\\(":692,"star":693,"Ġy":694,"}^{+":695,"ĠD":696,"mid":697,"Ġr":698,"ĠE":699,"ul":700,")\\,":701,"{[":702,"Ġm":703,"}}=":704,"}),\\":705,")}\\]":706,"ĠR":707,"_{(":708,"Ġj":709,"dt":710,"}|^{":711,"}\\}\\]":712,"sin":713,"Pi":714,"})-":715,"\\[\\|":716,"ĠF":717,"11":718,"bul":719,"Th":720,"teq":721,"seteq":722,"}}+\\":723,"Ġ\\[=\\":724,"00":725,"}}}\\":726,"Theta":727,"its":728,"limits":729,"st":730,"^{+":731,"_{+":732,"subseteq":733,"ĠP":734,"less":735,"sh":736,"lesssim":737,"ĠG":738,"{]":739,"if":740,"}\\|\\":741,"Ġ-":742,"ĠK":743,"))\\]":744,"Ġ{\\":745,"}[\\":746,"}},":747,"})+":748,"Ġb":749,"Ġg":750,"Ġh":751,"\\[\\{":752,"ps":753,")^{-":754,"hline":755,":=":756,"long":757,"pt":758,"maps":759,"};":760,"mapsto":761,"})(":762,"})^{\\":763,"}),":764,"}})\\":765,"iv":766,"\\}\\":767,"flo":768,"}}+":769,"Ġw":770,"floor":771,"}=(":772,"cos":773,"Ġz":774,")}{\\":775,"):=\\":776,"}:\\":777,"on":778,"cong":779,"}>":780,"let":781,"Ġ$":782,"ĠU":783,"})+\\":784,"bullet":785,"\\|_{\\":786,"Ġ3":787,"})-\\":788,"od":789,"longrightarrow":790,"Ġq":791,"equ":792,"ĠW":793,"equiv":794,"Ġ^{":795,"}}_{\\":796,"tfrac":797,"\\[|\\":798,"\\[\\|\\":799,"sta":800,"rel":801,"\\)":802,"}})\\]":803,"{\\|":804,"per":805,"}),\\]":806,",\\\\":807,"bin":808,"^{*}\\":809,")|\\":810,"binom":811,"}}|":812,"}},\\]":813,"}<":814,"Ġand":815,"ce":816,"stack":817,"stackrel":818,"ln":819,"...":820,"}}-":821,"=(":822,"gg":823,"{-":824,"}_{+":825,"perp":826,"}]\\":827,"dim":828,"}}}{":829,"{)}\\]":830,"{\\{":831,")/":832,"{|}\\":833,")\\\\":834,",\\,":835,"|_{\\":836,"}}-\\":837,"for":838,"&-":839,"vee":840,"vdots":841,"ĠQ":842,"};\\":843,"}(-":844,"\\[[":845,"io":846,"ĠY":847,",-":848,"}\\)":849,"iota":850,"gger":851,"dagger":852,"13":853,"ĠJ":854,"}]\\]":855,"and":856,"(-\\":857,"tr":858,"Ġ4":859,"vartheta":860,"}))\\]":861,"^{*}":862,"Ġfor":863,"Ġ(\\":864,"inf":865,"})^{-":866,"}^{*}\\":867,"16":868,"il":869,"})}{":870,"Re":871,"Ġ&\\":872,")}_{":873,"}/\\":874,"sma":875,"ch":876,"22":877,")\\,\\":878,")]":879,"not":880,")\\|_{":881,"\\}.\\]":882,"}:=":883,"small":884,"}}\\,":885,"Ġ-\\":886,"dy":887,"}<\\":888,"((":889,"varrho":890,"det":891,"{[}\\":892,"}))\\":893,"\\|^{":894,"tt":895,"^{*}(":896,"}^":897,"Ġ\\(\\":898,")|^{":899,"meq":900,"simeq":901,"}=\\{":902,"{)}":903,"},\\\\":904,"bigcup":905,"}+(":906,")}(\\":907,"}\\|_{\\":908,")(\\":909,"tria":910,"})|":911,"}\\|^{":912,"smallmatrix":913,"ĠZ":914,"}{(":915,"})}":916,"geqslant":917,"\\[{\\":918,"em":919,"21":920,"xrightarrow":921,"ba":922,")=(":923,"{{\\":924,"Ġl":925,"\\[\\{\\":926,"eqq":927,"-(":928,"coloneqq":929,"{)}^{":930,"}{|":931,">\\":932,"Ġal":933,"}}}":934,"lfloor":935,"+(":936,"Bigg":937,"rfloor":938,"}_{(":939,"+|":940,"})}\\]":941,"}^{(\\":942,"Ġin":943,"ab":944,")&":945,")},\\":946,"})\\,":947,"}}{(":948,")}=\\":949,"}\\}_{":950,"23":951,"pty":952,"14":953,"]}\\":954,"empty":955,"]^{":956,",\\,\\":957,"emptyset":958,"Ġall":959,")}^{":960,"arp":961,"]_{":962,"}}|\\":963,"Ġ}(":964,"24":965,"...,":966,"Ġo":967,"}}^{(":968,"Hom":969,"_{[":970,",(":971,"Tr":972,"}|_{":973,"15":974,"|\\]":975,"ol":976,")}=":977,"20":978,"slash":979,"back":980,"deg":981,"}.\\":982,"].\\]":983,"backslash":984,"}\\}\\":985,"):=":986,"}}\\|":987,")}.\\]":988,"Ġif":989,"}([":990,"}((":991,")_{\\":992,"Ġ+":993,"}=(\\":994,"mathtt":995,"Ġ\\[+\\":996,"}_":997,"),(":998,"**":999,"{}_{":1000,"div":1001,"})_{\\":1002,"})}{\\":1003,"}^{*}":1004,"Xi":1005,"ker":1006,"bra":1007,"{{":1008,"prox":1009,"ing":1010,"/(":1011,"}_{-":1012,"})(\\":1013,"))=":1014,"]=":1015,"}=-\\":1016,"ut":1017,"Ġ_{\\":1018,"\\!\\":1019,"(|":1020,"Ġis":1021,"Ġ^{\\":1022,"ble":1023,"}}\\\\":1024,"Im":1025,"}}\\,\\":1026,")},":1027,"}\\,.\\]":1028,"}^{*}(":1029,")>":1030,"triangle":1031,"Ġ+\\":1032,"{[}":1033,"bigl":1034,"bigr":1035,"bigoplus":1036,"))^{":1037,"Ġ5":1038,"}}^{-":1039,"xy":1040,")&\\":1041,"}}}\\]":1042,"_{-\\":1043,"approx":1044,"})\\\\":1045,"dz":1046,"{)}.\\]":1047,"^{(\\":1048,"Ġ|\\":1049,")!":1050,"Ġ}^{":1051,"}\\!\\":1052,"]=\\":1053,"arrow":1054,"Ġ10":1055,"{(\\":1056,"hoo":1057,"\\[-\\":1058,"||":1059,"\\[=":1060,"\\[=\\":1061,"hbar":1062,"}=-":1063,"\\},\\]":1064,"\\!":1065,"ĠO":1066,"25":1067,"}}{{\\":1068,"|^{\\":1069,"pre":1070,"):":1071,"mod":1072,"bular":1073,"tabular":1074,")}+\\":1075,"_{|":1076,"mp":1077,"sharp":1078,"^{*}_{":1079,"}^{-\\":1080,"|=":1081,"}}^{*":1082,"|}\\":1083,"}}[":1084,"{}^{\\":1085,"}-(":1086,"table":1087,"\\[[\\":1088,"{\\{}\\":1089,"cccc":1090,"}_{*":1091,"],":1092,"Sp":1093,"))=\\":1094,"Ġ}_{":1095,"01":1096,"32":1097,"})|\\":1098,"{|}":1099,"Ġ6":1100,"Ġ|":1101,"ec":1102,"oth":1103,"overset":1104,"{|\\":1105,"ref":1106,"}({\\":1107,"}}\\|\\":1108,"prec":1109,"che":1110,"})}^{":1111,"ow":1112,"18":1113,"}*":1114,"}\\{":1115,"},\\,":1116,"brace":1117,"}\\;":1118,"ddots":1119,"([":1120,"_{*}\\":1121,")}}\\":1122,"notin":1123,"Ġof":1124,"du":1125,"check":1126,"ast":1127,"Ġth":1128,"{=":1129,"as":1130,"})=(":1131,"ag":1132,"}}}{\\":1133,")<":1134,"],\\":1135,"\\;":1136,",&\\":1137,"varpi":1138,"}}}(":1139,"=-\\":1140,"|\\,":1141,"Ġ)\\":1142,"],\\]":1143,"Upsilon":1144,"}}&":1145,"xist":1146,")}+":1147,"ik":1148,"}^{[":1149,"own":1150,"underbrace":1151,"xx":1152,"}\\!":1153,"}$":1154,"xists":1155,"Ġ}{":1156,")}-":1157,"},...,":1158,"{\\{}":1159,"}))":1160,"17":1161,"=-":1162,"jk":1163,"\\,.\\]":1164,"ign":1165,"down":1166,"GL":1167,"en":1168,"underset":1169,"[-":1170,"sc":1171,"limsup":1172,"+|\\":1173,"tion":1174,"34":1175,"99":1176,"are":1177,"})\\|_{":1178,"=\\{":1179,"_{(\\":1180,"ip":1181,"rce":1182,"supp":1183,"})}(":1184,"}|\\]":1185,")=-\\":1186,"27":1187,"with":1188,"arg":1189,"{]}\\":1190,"}):=\\":1191,"exists":1192,"dr":1193,")})\\":1194,"\\},\\":1195,"^{*}(\\":1196,"ii":1197,"\\[-":1198,"}\\,,\\]":1199,"rceil":1200,"Righ":1201,"}]=":1202,"33":1203,"Rightarrow":1204,"ceil":1205,"lceil":1206,"Ġ\\[+":1207,"}}&\\":1208,")).\\]":1209,")},\\]":1210,"mn":1211,")}-\\":1212,"}|=":1213,"Id":1214,"}})^{":1215,")\\}\\]":1216,"}]_{":1217,"{\\|}\\":1218,"con":1219,"wise":1220,"-|":1221,"})\\,\\":1222,"&&":1223,"an":1224,"}+\\|":1225,"=(\\":1226,"19":1227,"bigcap":1228,"]}":1229,"{}^{":1230,"&\\\\":1231,"erwise":1232,"Pr":1233,"}\\;\\":1234,"dfrac":1235,")\\|":1236,"})/":1237,"downarrow":1238,")^{*":1239,"\\}}\\":1240,"ral":1241,"bold":1242,"boldmath":1243,"Ġ:=\\":1244,"!}\\":1245,"ter":1246,"sqcup":1247,"diag":1248,"squ":1249,"lef":1250,")<\\":1251,"hook":1252,"Ġ\\,\\":1253,"),\\\\":1254,"},\\,\\":1255,"textbf":1256,"45":1257,"hookrightarrow":1258,"dist":1259,"Ġ8":1260,"_{\\{":1261,"loc":1262,"Ġ[":1263,"Ġ}}\\":1264,")}_{\\":1265,"((\\":1266,"Ġ\\|":1267,";\\]":1268,"et":1269,"Ġ$\\":1270,"Ġ}(\\":1271,"({\\":1272,"{)},\\]":1273,"tin":1274,"II":1275,"{)}^{\\":1276,"leftarrow":1277,"triang":1278,")})\\]":1279,"tiny":1280,"diam":1281,")+(":1282,"vert":1283,"triangleq":1284,"es":1285,"!\\!\\":1286,"}(|":1287,"{\\|}_{":1288,"30":1289,"Ġ\\,":1290,"}|_{\\":1291,"36":1292,"rl":1293,"ert":1294,"})]":1295,"^{[":1296,"{]}\\]":1297,"dv":1298,"nk":1299,"is":1300,"{(}(":1301,"ere":1302,"}>\\":1303,"pr":1304,"tan":1305,"},(":1306,"}})=":1307,"[(":1308,")\\)":1309,"28":1310,")^{-\\":1311,"kl":1312,"Ġdx":1313,"})}.\\]":1314,"^{-(":1315,"cd":1316,"}=\\{\\":1317,"square":1318,"Vert":1319,",&":1320,"Ġon":1321,"}}\\|_{":1322,"_{*}(":1323,"Ġ7":1324,"}+\\|\\":1325,"40":1326,"limin":1327,"liminf":1328,"56":1329,"}^{+}\\":1330,"|(":1331,")=-":1332,"AB":1333,".}\\":1334,"Bigl":1335,"Bigr":1336,"leftrightarrow":1337,"}\\{\\":1338,"})&":1339,"lor":1340,"sf":1341,")}}{":1342,"dash":1343,"}})=\\":1344,"}+|":1345,"{|}_{":1346,"}^{*}(\\":1347,"}+(\\":1348,"}^{*}\\]":1349,"$\\":1350,"im":1351,"},&\\":1352,"\\{(":1353,"cl":1354,"|\\,\\":1355,"Lo":1356,"}\\}.\\]":1357,"rr":1358,"48":1359,"otherwise":1360,"}_{[":1361,"}^{+}(":1362,"(|\\":1363,")/\\":1364,"odot":1365,"^{*}\\]":1366,"Co":1367,"|}":1368,")=(\\":1369,"pan":1370,",|":1371,"26":1372,"35":1373,"}}{|":1374,"31":1375,"\\;\\":1376,"def":1377,"}(-\\":1378,"\\,,\\]":1379,")})":1380,"}}:=\\":1381,"ff":1382,"&-\\":1383,"):\\":1384,")=\\{":1385,"ac":1386,"_{|\\":1387,"sinh":1388,"}{|\\":1389,"](":1390,"igned":1391,"*\\":1392,"aligned":1393,"}||":1394,"}}[\\":1395,"}|}\\":1396,"})>":1397,")}\\,":1398,"Ġ&=\\":1399,"^{*},":1400,"cosh":1401,"Aut":1402,"37":1403,"_{*}":1404,"Ġ\\|\\":1405,"mul":1406,"]_{\\":1407,"Le":1408,"sk":1409,"Var":1410,"}&=":1411,")\\,.\\]":1412,"SL":1413,"}=[":1414,",[":1415,")\\|_{\\":1416,"50":1417,"}]=\\":1418,"here":1419,",...,":1420,"}}}(\\":1421,"100":1422,"]}\\]":1423,"varsigma":1424,"parrow":1425,")\\|\\":1426,"ni":1427,"})&\\":1428,"64":1429,"|^{-":1430,"|+":1431,"Ġ9":1432,"up":1433,"{)}=":1434,"{)}=\\":1435,"}):":1436,"vol":1437,"000":1438,"uparrow":1439,"}&-":1440,"]+":1441,"ccc":1442,")}|":1443,"{\\}}\\]":1444,"pmod":1445,"hbox":1446,"iff":1447,"]^{\\":1448,")]\\":1449,"(\\|":1450,"\\}":1451,"ic":1452,")}{(":1453,"|}{":1454,"*{":1455,"}))=":1456,")}}":1457,"\\}^{":1458,")[":1459,"_{{}_{":1460,"}}}{{\\":1461,"Ġ\\[-\\":1462,"}}(-":1463,"},-":1464,"})|^{":1465,"succ":1466,",-\\":1467,"iint":1468,"Ext":1469,",+":1470,"]}(":1471,"29":1472,"pq":1473,"bb":1474,"|-":1475,"#\\":1476,"arpo":1477,"^{+}(":1478,"}}:":1479,"}}).\\]":1480,"{\\}}.\\]":1481,"}:=\\{":1482,"Ġwith":1483,"Ġthe":1484,"))}\\":1485,").\\":1486,"lat":1487,"))-":1488,"^{*})\\":1489,"}^{+\\":1490,"rank":1491,"ix":1492,"overrightarrow":1493,"Ġ**":1494,"biggr":1495,"ralle":1496,"boxtimes":1497,"05":1498,"rallel":1499,"])\\]":1500,"{(-":1501,"parallel":1502,"]+\\":1503,"{)}\\,":1504,"}]^{":1505,"{=}}\\":1506,"sg":1507,"},{\\":1508,")),\\]":1509,"biggl":1510,"inter":1511,");":1512,"uv":1513,"})<":1514,"ct":1515,"75":1516,"_{+}(":1517,"ond":1518,"}\\,,\\":1519,"mathop":1520,"},&":1521,"Ġ=-\\":1522,"Ġor":1523,"02":1524,"Ġ}^{\\":1525,"multi":1526,"}((\\":1527,"Ġco":1528,"Spec":1529,"}))^{":1530,"\\}_{":1531,"curl":1532,",*":1533,"{\\|}":1534,"Ġto":1535,":\\,":1536,"odd":1537,")|\\]":1538,"intercal":1539,"flat":1540,"}))=\\":1541,"44":1542,"^{*}_{\\":1543,"38":1544,")\\;":1545,"ven":1546,"}),(":1547,"\\}}":1548,"+}\\":1549,"Bo":1550,")-(":1551,"upsilon":1552,"}}:\\":1553,"}}}^{":1554,"Long":1555,"96":1556,"hoose":1557,"Ġan":1558,"Gr":1559,")}\\\\":1560,"]{":1561,"choose":1562,",{\\":1563,"||\\":1564,")}^{\\":1565,"|<":1566,"span":1567,"rtimes":1568,"{]}":1569,"Left":1570,"eqref":1571,"ord":1572,"|=\\":1573,"{\\}}\\":1574,")|_{":1575,"_{+}\\":1576,"{|}^{":1577,"Ġ\\{":1578,"}})_{":1579,"Ġ{-":1580,"Sym":1581,"ring":1582,"|+\\":1583,"rad":1584,"Ġ:=":1585,"Leftrightarrow":1586,"Ad":1587,"))_{":1588,"})}=\\":1589,"])\\":1590,"})).\\]":1591,"Bbb":1592,")),\\":1593,"Bbbk":1594,".}\\]":1595,"\\%":1596,"}+|\\":1597,")]\\]":1598,"}|^{\\":1599,"}_{\\{":1600,"End":1601,"}-(\\":1602,"}/(":1603,"mo":1604,")\\|^{":1605,"ly":1606,"skip":1607,"-(\\":1608,"+(\\":1609,"Box":1610,";\\;\\":1611,"})\\}\\]":1612,"Ġ}{\\":1613,"Du":1614,"60":1615,"})}(\\":1616,"{)}+\\":1617,"^{+}_{":1618,"||_{":1619,"ji":1620,"mathring":1621,",(\\":1622,"Ġ=(":1623,"Ġ)":1624,"\\[+\\":1625,"^{+}\\":1626,"vdash":1627,"tu":1628,"no":1629,"}_{+}^{":1630,"sgn":1631,"}}}.\\]":1632,"}.":1633,"+\\|":1634,"^{*}}\\":1635,"ne":1636,"}{}^{":1637,"}\\,(":1638,"98":1639,"rk":1640,"}})^{\\":1641,"04":1642,")\\,,\\]":1643,"bigwedge":1644,"})<\\":1645,"Ġ},\\":1646,"mathit":1647,"}||_{":1648,"SO":1649,"]\\\\":1650,"=\\,\\":1651,"}^{*},\\":1652,"})=(\\":1653,"(\\|\\":1654,"\\,,\\":1655,"|.\\]":1656,"ome":1657,"othing":1658,"_{*}(\\":1659,"}_{(\\":1660,"nothing":1661,"varnothing":1662,"ts":1663,"bre":1664,"))+":1665,"he":1666,"Mod":1667,"(\\{":1668,"Ġ\\|_{":1669,"^{{}^{\\":1670,"ir":1671,"}}/":1672,"*}\\":1673,"[-\\":1674,"}&-\\":1675,"{)}_{":1676,"}(\\{":1677,"...,\\":1678,"_{{\\":1679,"}):=":1680,"}^{-}(":1681,"}}<\\":1682,"ddot":1683,"hskip":1684,"}^{-}\\":1685,"Ġ^{-":1686,"})/\\":1687,"preceq":1688,"03":1689,"gcd":1690,"\\|\\]":1691,"})+(":1692,"}(|\\":1693,",+\\":1694,"out":1695,"neg":1696,"}||\\":1697,"{-\\":1698,"))-\\":1699,"};\\]":1700,"kern":1701,"res":1702,"ze":1703,"\\[\\{(":1704,"}].\\]":1705,"}}\\}\\]":1706,"Ġ})\\":1707,"Ġ&=":1708,"col":1709,"})},\\]":1710,"}*\\":1711,"78":1712,"{$":1713,"))^{\\":1714,"diamond":1715,"breve":1716,"_{*}^{":1717,"}:=(":1718,"gr":1719,"varkappa":1720,"{}_{\\":1721,"supset":1722,"76":1723,"!\\!":1724,"Ind":1725,"dom":1726,"rcl":1727,")^{(":1728,"}):\\":1729,"lvert":1730,"\\,(":1731,"ax":1732,"]-\\":1733,"_{-}(":1734,"}}^{+":1735,"))+\\":1736,"!}":1737,"}]}\\":1738,"{)}+":1739,"rvert":1740,"-|\\":1741,"}{}_{":1742,"bmod":1743,"})}=":1744,")|=":1745,",\\;":1746,"bc":1747,"where":1748,"ev":1749,"}&=\\":1750,"}_{+}\\":1751,"lies":1752,"}}<":1753,"longmapsto":1754,"imp":1755,"}{(\\":1756,"Ġ},":1757,"49":1758,"oint":1759,"imath":1760,"}\\},\\":1761,"})\\|^{":1762,"|>":1763,"Ker":1764,"46":1765,"{(}-\\":1766,"&(":1767,"ess":1768,"}}\\,.\\]":1769,"}^{*},":1770,"Ġ:\\":1771,"^{-}(":1772,"&&\\":1773,"]-":1774,"80":1775,"lVert":1776,"\\}=\\":1777,"39":1778,"Ġ\\((":1779,")&=":1780,"))(":1781,"Ġsome":1782,"Li":1783,"rVert":1784,"})]\\":1785,"![":1786,"Ġthat":1787,")^":1788,"79":1789,"55":1790,"Res":1791,"_{-}\\":1792,"_{+}^{":1793,"{(}(\\":1794,"Ġ}_{\\":1795,"Ġ}}":1796,"Ġ}-":1797,")}|\\":1798,"Ġas":1799,"{\\|\\":1800,"ind":1801,")>\\":1802,"}}>":1803,"];":1804,")}}{\\":1805,"proj":1806,"=[":1807,"kj":1808,"06":1809,"Ġde":1810,"}\\},\\]":1811,"el":1812,"))\\,":1813,"^{*}-":1814,"implies":1815,"}})(":1816,"Ax":1817,"Ġ}+\\":1818,"{|}_{\\":1819,"}),\\\\":1820,"}](":1821,"^{*},\\":1822,",|\\":1823,"^{*})\\]":1824,"dV":1825,"})=\\{":1826,"Ġ*":1827,"lg":1828,"}^{*})\\":1829,");\\":1830,"Ġ}+":1831,"42":1832,"}=\\{(":1833,"...\\":1834,"ru":1835,"},(\\":1836,"}}{(\\":1837,"Ġ}|":1838,"gen":1839,"Ġodd":1840,"{)}(":1841,"]}{":1842,"})]\\]":1843,"]\\!":1844,"|<\\":1845,"dR":1846,"Ġ{(":1847,"brack":1848,"}}|^{":1849,"hd":1850,";\\\\":1851,"&*":1852,"{=}}":1853,"),&\\":1854,"nn":1855,"Ġ\\[-":1856,"}^{+}\\]":1857,"^{*})":1858,"88":1859,"reg":1860,"{)},\\":1861,"so":1862,")}\\,\\":1863,"dW":1864,"}],\\":1865,"\\},":1866,"dw":1867,"{]}.\\]":1868,"}|+":1869,"rs":1870,"ijk":1871,"ymp":1872,"Vol":1873,"}|+|":1874,"=\\,":1875,"}}]":1876,"43":1877,"\\},\\{":1878,"})=-\\":1879,")}}\\]":1880,"}}=(":1881,"0000":1882,"bracket":1883,"Ġdt":1884,"tw":1885,"}]_{\\":1886,"red":1887,")})^{":1888,"Ġeven":1889,"}],":1890,"Ġsu":1891,"\\{-":1892,"ls":1893,"}^{*}=\\":1894,"},-\\":1895,"}[(":1896,"}}},\\":1897,"arc":1898,"\\}=":1899,"tharpo":1900,"Ġ&+\\":1901,"wp":1902,"\\[(-":1903,"}}),\\]":1904,"Ġ\\[=-\\":1905,"}}}=\\":1906,"{\\}},\\]":1907,"})}+\\":1908,"Sh":1909,"|(\\":1910,"-\\!":1911,"),&":1912,"}\\|\\]":1913,"47":1914,"np":1915,"41":1916,":\\,\\":1917,"Ġcon":1918,"}]+":1919,"{)}^{-":1920,"})\\,.\\]":1921,"Ric":1922,"asymp":1923,":(":1924,"TV":1925,"\\[+":1926,")/(":1927,"umn":1928,"})[":1929,"bigvee":1930,"})\\|\\":1931,"Ġ)^{":1932,"\\})\\]":1933,"Ġ/":1934,"texttt":1935,"Ġany":1936,"\\[||":1937,"08":1938,")}&\\":1939,"})},\\":1940,"df":1941,"_{[\\":1942,")}{|":1943,"}|=\\":1944,"gtr":1945,"{-}\\":1946,"rn":1947,"}})}\\":1948,"ect":1949,"sign":1950,"})\\|":1951,"nolimits":1952,"}=[\\":1953,"{)}-\\":1954,"+\\|\\":1955,"95":1956,"textsc":1957,"}^{+}":1958,",\\{":1959,"Di":1960,"|+|":1961,"}}),\\":1962,"^{*}=\\":1963,")}&":1964,"pe":1965,"}}+\\|":1966,"^{+}}\\":1967,"}\\,\\]":1968,"dxdt":1969,"onu":1970,"{|}\\]":1971,"XY":1972,"tharpoonu":1973,"tharpoonup":1974,"}\\.\\]":1975,"column":1976,"KL":1977,"mode":1978,"},\\;":1979,"77":1980,"Lip":1981,")}\\|_{":1982,"}}}^{\\":1983,"},[":1984,"triangleright":1985,"}}{{":1986,"66":1987,"Ġ=-":1988,"very":1989,",}\\\\":1990,")\\!":1991,"Ġ\\[(":1992,"multicolumn":1993,"\\,|\\,":1994,"gtrsim":1995,"Ġdef":1996,"))}{":1997,"}={\\":1998,")]^{":1999,"_{+}":2000,"dm":2001,")\\}\\":2002,"{)}\\\\":2003,"}|}{":2004,"natu":2005,";\\;":2006,"72":2007,"Ġ\\[=(":2008,"ext":2009,"|}{\\":2010,")!}\\":2011,"}}}{{=}}\\":2012,"\\{|":2013,"\\|(":2014,"dxdy":2015,"})=-":2016,"natural":2017,"Ġevery":2018,"&=":2019,"},...,\\":2020,"[(\\":2021,"}))_{":2022,"}^{*}_{":2023,"}]^{\\":2024,"rightharpoonup":2025,"}}{|\\":2026,"nm":2027,"dg":2028,"wt":2029,"pth":2030,"&&\\\\":2031,"Ġ}-\\":2032,"})-(":2033,"{)}\\,\\":2034,"hom":2035,"}})^{-":2036,"=\\{\\":2037,"yy":2038,"^{*}}":2039,"supseteq":2040,"Con":2041,"BC":2042,"58":2043,"}|-":2044,"Ġ{*":2045,"tanh":2046,"\\[{}_{":2047,")),":2048,"}^{{}^{\\":2049,"}_{>":2050,"}}:=":2051,"}^{*})\\]":2052,"})),\\]":2053,")}\\|":2054,"}}]\\]":2055,"^{-}\\":2056,"Ġdi":2057,"Ġds":2058,"|)\\":2059,"}}^{*}\\":2060,"}}]\\":2061,"}}^{(\\":2062,"07":2063,"Longrightarrow":2064,"\\})\\":2065,"}!":2066,"})}+":2067,"123":2068,"SU":2069,"})|\\]":2070,"}^{*}}\\":2071,"Pic":2072,"smallsetminus":2073,"}-|":2074,"}^{+}(\\":2075,"}\\,|\\,":2076,"sl":2077,")^{|":2078,"gh":2079,"}}/\\":2080,"\\[{}^{":2081,"yz":2082,"})\\|_{\\":2083,"^{*}=":2084,"Pro":2085,"+}":2086,"Gal":2087,"}).\\":2088,"}})-":2089,"^{|":2090,"}}},\\]":2091,"})}{(":2092,"}\\,(\\":2093,"}}+\\|\\":2094,"}\\}}\\":2095,"vbox":2096,")\\}_{":2097,"^{+}":2098,"Ġ12":2099,"mathbin":2100,"bigotimes":2101,"uph":2102,"onright":2103,"arpoonright":2104,"upharpoonright":2105,"Ġre":2106,"{-}":2107,"succeq":2108,"}}^":2109,"ea":2110,"dp":2111,")}}(":2112,"68":2113,"57":2114,"))^{-":2115,"^{\\#":2116,"Ġ)}\\":2117,"sm":2118,"}])\\]":2119,"eigh":2120,"}],\\]":2121,"|\\!":2122,"54":2123,"hen":2124,"val":2125,"}}\\)":2126,")\\}.\\]":2127,"models":2128,"}:(":2129,")$":2130,"sym":2131,"=|":2132,"ction":2133,"}=(-":2134,"ise":2135,"^{*}}(":2136,"}})+\\":2137,"})|_{":2138,"}|(":2139,"],[":2140,"})\\)":2141,"tx":2142,"}{\\|":2143,"}^{*}=":2144,"}})+":2145,"{)}-":2146,"mb":2147,"})}_{":2148,"90":2149,"Longleftrightarrow":2150,"\\}}\\]":2151,"Ġ&&":2152,"})^{*}\\":2153,"^{-}_{":2154,"}}}_{":2155,"}}\\,,\\]":2156,")}[":2157,"}}}+\\":2158,"ree":2159,"}|.\\]":2160,"Ġsuch":2161,"HS":2162,"ty":2163,"+\\!":2164,"tra":2165,")))\\]":2166,"|)^{":2167,"})^{-\\":2168,"Ġwhere":2169,"by":2170,")&=\\":2171,"ki":2172,"/(\\":2173,"{,":2174,"ub":2175,"}(\\|":2176,"}|+\\":2177,"[[":2178,"tive":2179,"}=|":2180,"Ġ16":2181,"CH":2182,"cy":2183,"opt":2184,"CP":2185,"}};":2186,"97":2187,"Cov":2188,"ib":2189,"\\[((":2190,"grad":2191,"}|<":2192,"),\\,":2193,"})\\}_{":2194,"\\}\\\\":2195,"TM":2196,"}}}=":2197,"bigsqcup":2198,"([\\":2199,"}{}^{\\":2200,"}})-\\":2201,"ns":2202,")_{+":2203,"}:=(\\":2204,"xz":2205,")[\\":2206,"!(":2207,"{{(":2208,"{\\|}_{\\":2209,";.\\]":2210,"_{\\{\\":2211,"}{}{":2212,"{(}-":2213,"}=\\|":2214,"Op":2215,"](\\":2216,"}))}\\":2217,"dS":2218,"}([\\":2219,"jj":2220,"lk":2221,"67":2222,"^{*}+":2223,"}]+\\":2224,"|}\\]":2225,"ccccc":2226,"}_{+}\\]":2227,"$}\\":2228,"gets":2229,"65":2230,"Ġ}}{":2231,"){\\":2232,"SE":2233,")^{*}\\":2234,"\\[\\|(":2235,"}:=\\{\\":2236,"Ġtr":2237,"_{-}^{":2238,"|^{-\\":2239,"Ch":2240,"Ġ^{(":2241,"})^{(":2242,"\\.\\]":2243,"]}(\\":2244,"}};\\":2245,"))}{\\":2246,"rule":2247,"\\,(\\":2248,"iy":2249,"}}=(\\":2250,"}}{\\|":2251,"})\\,,\\]":2252,"Ġ})":2253,"}}\\|_{\\":2254,")}:=\\":2255,"Ġ}\\,":2256,"Ġ(-":2257,"ted":2258,"}])\\":2259,"Ġ=(\\":2260,"{(}|":2261,"dX":2262,")=\\{\\":2263,"dB":2264,"eff":2265,"conv":2266,"\\[||\\":2267,"St":2268,"}-{\\":2269,"}}.\\":2270,"kn":2271,"}},\\\\":2272,"Ġ&&&":2273,"}}=-\\":2274,"):=\\{":2275,"AC":2276,"}|>":2277,"\\{-\\":2278,"prop":2279,"_{-}":2280,")+(\\":2281,"Ġ\\(-":2282,"09":2283,"doteq":2284,")=[":2285,"Ġoth":2286,"ia":2287,"}}((":2288,"Ġdy":2289,"}}|_{":2290,"xp":2291,"head":2292,"})+(\\":2293,"^{+}_{\\":2294,"gl":2295,",\\;\\":2296,"{(}\\|":2297,"low":2298,"}^{*}-":2299,"av":2300,"\\,\\]":2301,"}\\;\\;":2302,")*":2303,"}{*":2304,"{]},\\]":2305,"Ġ11":2306,"two":2307,"}}+(":2308,"ini":2309,"52":2310,"}})_{\\":2311,"})}^{\\":2312,"In":2313,")))\\":2314,"eight":2315,"59":2316,"|-\\":2317,"^{-(\\":2318,"^{|\\":2319,"Ġ14":2320,")})_{":2321,"ue":2322,"}\\,{\\":2323,"}}{{=}}\\":2324,"dd":2325,"}),(\\":2326,"|,\\]":2327,"}]-":2328,"pace":2329,"Lie":2330,"}\\!\\!\\":2331,"dA":2332,"};\\\\":2333,"}^{*}-\\":2334,"\\[\\#":2335,"}}\\!\\":2336,"{]}^{":2337,"twohead":2338,"Ġ[\\":2339,"twoheadrightarrow":2340,")=(-":2341,"uu":2342,"))}\\]":2343,"}}))\\]":2344,"argmin":2345,"{|}\\,\\":2346,"wid":2347,"ent":2348,"rner":2349,"raise":2350,"ur":2351,":=\\{":2352,"]\\,":2353,"jl":2354,")|_{\\":2355,"}|}":2356,"^{*})^{":2357,"}^{*})^{":2358,"âĢ":2359,"70":2360,"}_{+}(":2361,"triangleleft":2362,"subsetneq":2363,"mk":2364,"_{+}(\\":2365,"[\\![":2366,"63":2367,"Ġ\\{\\":2368,"corner":2369,"}\\}":2370,")\\;\\":2371,"_{*}^{\\":2372,"}_{{\\":2373,"width":2374,"}}\\{":2375,"inj":2376,"^{**":2377,"})>\\":2378,"51":2379,"cop":2380,"fg":2381,"po":2382,"}^{-}":2383,"\\#":2384,"69":2385,"\\|=\\":2386,"yx":2387,"au":2388,"{|}\\,":2389,"))}":2390,")}\\|\\":2391,"BM":2392,"}&(":2393,"bi":2394,"cline":2395,"NR":2396,"Ġ28":2397,"\\,,":2398,"53":2399,"}+{\\":2400,"Fun":2401,"}}}}\\":2402,"}|+|\\":2403,"Ġotherwise":2404,"acu":2405,"ST":2406,"}))-":2407,"})}}\\":2408,"Alg":2409,".\\\\":2410,"ĠRe":2411,"|\\!\\":2412,"-$":2413,"$}_{":2414,")})=":2415,",\\|":2416,"=\\!":2417,")\\,,\\":2418,"ale":2419,":[":2420,"}^{|":2421,"Cl":2422,"acute":2423,"Df":2424,"Map":2425,")=|":2426,"genfrac":2427,"dk":2428,")^{+":2429,"];\\":2430,"}\\})\\]":2431,"Ġ}\\\\":2432,"}]}":2433,"}}}{(":2434,"}|^{-":2435,"}^{+}_{":2436,"bs":2437,"}}_{(":2438,"cot":2439,"Coh":2440,"|,\\":2441,"Ġ|^{":2442,"})^{*":2443,"Ġ&&\\":2444,"}^{(-":2445,"$}\\\\":2446,"}[-":2447,"multirow":2448,"}\\,\\,\\":2449,"),(\\":2450,"=\\;\\":2451,"vmatrix":2452,"CC":2453,"{(}\\|\\":2454,"{\\}}":2455,"Rep":2456,"}_{-\\":2457,"Ġdepth":2458,"Cat":2459,";(":2460,"84":2461,"}\\,|\\,\\":2462,"))\\,\\":2463,"}}=\\{":2464,"],\\\\":2465,"})),\\":2466,"km":2467,"}\\;.\\]":2468,"81":2469,"})^":2470,"}\\}_{\\":2471,"}|=|":2472,"SS":2473,"},\\;\\":2474,"kk":2475,"]^{-":2476,"nr":2477,"200":2478,"rod":2479,"*}":2480,"ys":2481,"Ġ20":2482,"86":2483,"Ġ}}(":2484,"},\\{":2485,"propto":2486,"}}),":2487,"HH":2488,"ize":2489,":=(":2490,"\\_":2491,"}(\\|\\":2492,"}^{*}+":2493,"dq":2494,"{[}(":2495,"\\[{":2496,"89":2497,"{\\{}(":2498,"Tx":2499,"))\\\\":2500,";\\,":2501,"{$-$":2502,"}))^{\\":2503,"),\\,\\":2504,"_{*},":2505,"vrule":2506,"Ġat":2507,"})}\\|":2508,"bd":2509,"ltimes":2510,"):=(":2511,"-\\!\\":2512,"Ġwidth":2513,"}|<\\":2514,"coprod":2515,"}&=&":2516,"}}}+":2517,"IJ":2518,"128":2519,"}:[":2520,"}_{*}\\":2521,"}\\,|":2522,"ran":2523,"}_{|":2524,")})=\\":2525,")|=\\":2526,"\\[(-\\":2527,"upp":2528,"+(-":2529,"},|":2530,"}))+":2531,"\\{(\\":2532,"_{+}^{\\":2533,"oly":2534,"=\\!\\":2535,")-(\\":2536,"|>\\":2537,"\\|(\\":2538,"\\,{\\":2539,")]=":2540,"$},\\\\":2541,"angle":2542,"ard":2543,"iz":2544,"})}-":2545,"Ġdiv":2546,"74":2547,"$}.\\]":2548,"}[(\\":2549,"III":2550,"{}":2551,"rhd":2552,"ĠCh":2553,"][":2554,"Ġmod":2555,");\\]":2556,"Ġ}|\\":2557,"}=|\\":2558,"Ġheight":2559,"1000":2560,"\\}}(":2561,"Ġ<":2562,"atop":2563,"fint":2564,"})}-\\":2565,"}^{\\#":2566,"bot":2567,"ĠTr":2568,")]_{":2569,"AA":2570,"llbracket":2571,"\\|_":2572,"projlim":2573,"varprojlim":2574,"Ġse":2575,"}\\|(":2576,"]=[":2577,"rd":2578,"}))+\\":2579,"^{+}(\\":2580,"|+|\\":2581,"tab":2582,"111":2583,"+\\,\\":2584,"\\}^{\\":2585,"und":2586,"{$\\":2587,"inv":2588,"}=\\|\\":2589,"\\!\\!":2590,"rrbracket":2591,"85":2592,"}]}\\]":2593,"}}{\\|\\":2594,"\\(\\":2595,"Per":2596,"}}})\\]":2597,"-}\\":2598,")}^{(":2599,"}))(":2600,"^{+}\\]":2601,"}_{\\{\\":2602,"Ġun":2603,"=\\{(":2604,"dh":2605,"}]\\!":2606,"}}},":2607,"}))-\\":2608,"\\(":2609,"]\\}\\]":2610,"\\|=":2611,"}^{-}\\]":2612,"ĠCe":2613,"Ġ=&\\":2614,"cs":2615,"lm":2616,")|\\,":2617,"]}{\\":2618,"{(}|\\":2619,"^{+},":2620,"Diff":2621,"}_{*}(":2622,"\\!-\\!":2623,"}}\\;":2624,"}||^{":2625,"})\\;":2626,"}]-\\":2627,"}}}{{=}}":2628,")\\.\\]":2629,"})|=":2630,"\\[{}^{\\":2631,"}^{\\,":2632,"BS":2633,"pp":2634,"_{+},":2635,"});\\":2636,"alg":2637,"]}_{":2638,"<|":2639,"}}))\\":2640,"plus":2641,"Ġid":2642,"}[|":2643,"}\\,:\\,":2644,"aa":2645,"ominus":2646,".&":2647,"raisebox":2648,"Ġ13":2649,"dn":2650,")}<\\":2651,")]=\\":2652,"{]}=\\":2653,"|/":2654,"}})(\\":2655,"})}\\\\":2656,"ay":2657,"_{*}\\]":2658,"colim":2659,"ject":2660,"space":2661,"}}([":2662,"![\\":2663,"Ġby":2664,"}\\,\\,":2665,"$-":2666,"}\\}=":2667,"LS":2668,"}^{+},\\":2669,"87":2670,"]}|":2671,"Supp":2672,"ach":2673,"_{<":2674,"AP":2675,"}^{+}}\\":2676,"}^{*})":2677,"+\\!\\":2678,"CF":2679,"}^{*}_{\\":2680,"}\\}=\\":2681,"{(}[":2682,")(-":2683,"Ġ}\\,\\":2684,").":2685,"}}^{*}":2686,"]:":2687,"Ġloc":2688,"})^{*}":2689,"})^{+":2690,"aq":2691,"}}\\!":2692,".,":2693,"}^{[\\":2694,"]{\\":2695,"}^{|\\":2696,"Irr":2697,"PT":2698,"}+(-":2699,"dP":2700,"&=\\":2701,"}-|\\":2702,"}^{-}(\\":2703,"}^{*}+\\":2704,"size":2705,"Ġ=\\{":2706,"}^{+},":2707,"CS":2708,"120":2709,"}&\\\\":2710,"searrow":2711,"comp":2712,"}|}\\]":2713,"Ġ}[":2714,"!}{":2715,"4527":2716,"Ġ100":2717,"})\\}\\":2718,"}:|":2719,"CN":2720,"cm":2721,"|)":2722,"arctan":2723,"DR":2724,"})-(\\":2725,"ĠGL":2726,"Int":2727,"Ġij":2728,"Ġme":2729,"boxplus":2730,"73":2731,"}}}-\\":2732,"$,":2733,"Ġ[]{":2734,"}/(\\":2735,"101":2736,"))(\\":2737,")^{*}":2738,"}|)\\":2739,"cale":2740,"cn":2741,"Ġ&-\\":2742,"Set":2743,"})}|":2744,"})_{+":2745,"fin":2746,"Ġma":2747,"aleph":2748,"+\\,":2749,"|)\\]":2750,"});":2751,"})[\\":2752,"94":2753,"*}(":2754,"}(\\{\\":2755,"_{*}}\\":2756,"}\\|=\\":2757,"Tor":2758,"}}})\\":2759,"nmid":2760,"IC":2761,"SH":2762,"]}=\\":2763,"^{*}-\\":2764,"[|":2765,"\\[\\,\\":2766,"Ġ&+":2767,"))=(":2768,"^{-}":2769,")|}\\":2770,"Stab":2771,",[\\":2772,"}}^{*}(":2773,"_{\\#":2774,"\\,|":2775,"61":2776,"dle":2777,"lr":2778,"even":2779,"Ġ<\\":2780,"Br":2781,")|^{\\":2782,"_{{}_{\\":2783,"}\\,|\\":2784,"bx":2785,"BB":2786,"\\[\\|(\\":2787,"subject":2788,"}\\;\\;\\":2789,"Ġ15":2790,"MC":2791,"}...":2792,"]},\\":2793,"}[[":2794,"Span":2795,"})}+\\|":2796,"\\,|\\,\\":2797,")}).\\]":2798,")\\,\\]":2799,"^{+}}":2800,")!\\":2801,"DF":2802,"Ġ\\[(\\":2803,"378":2804,")|}{":2805,"sing":2806,"RS":2807,"\\|.\\]":2808,"Ġdz":2809,"CA":2810,"}-\\|":2811,"}](\\":2812,"_{\\|":2813,"zz":2814,"{]}=":2815,"})},":2816,"Hess":2817,"Ġ}=\\":2818,")}=(":2819,"ment":2820,"ht":2821,"_{*})\\":2822,"}}}-":2823,")|.\\]":2824,"nc":2825,"mal":2826,"|\\\\":2827,"ie":2828,"}}=-":2829,"nh":2830,"}]=[":2831,"^{(-":2832,"}\\}}":2833,"Ġop":2834,"_{-},":2835,"Ġad":2836,"])=":2837,"_{-}(\\":2838,"}[\\|\\":2839,"_{\\,":2840,"Ġ\\[=-":2841,"_{+}\\]":2842,"^{*}\\|_{":2843,"Ġ}=":2844,"be":2845,"Ġare":2846,")}:":2847,"!}\\]":2848,"}^{*}}":2849,"MN":2850,"}},&\\":2851,"black":2852,"92":2853,"}\\},":2854,"cx":2855,"middle":2856,"Ġ\\[=(\\":2857,"}}({\\":2858,"curly":2859,"}}\\}_{":2860,"]}^{":2861,":(\\":2862,"{/":2863,"{\\|}^{":2864,"CR":2865,"||^{":2866,"}_{{}_{":2867,"CM":2868,"SP":2869,"\\{|\\":2870,"}|\\,":2871,"62":2872,"ase":2873,"scale":2874,"*_{":2875,"=}\\":2876,")}+\\|":2877,"}\\,=\\,\\":2878,"tom":2879,")}}{{\\":2880,"Ġmin":2881,"CD":2882,"kh":2883,"Ġra":2884,"BA":2885,"226":2886,"abc":2887,"}}}{{":2888,"}_{+}}\\":2889,"}\\!\\!":2890,"injlim":2891,"varinjlim":2892,"Ġ}}^{":2893,"})})\\]":2894,")^{|\\":2895,"^{*}+\\":2896,"\\{\\|":2897,")||_{":2898,"lhd":2899,",\\,\\,\\":2900,"}}{{=}}":2901,"overleftarrow":2902,"Mat":2903,"71":2904,"when":2905,"))|\\":2906,"}})}\\]":2907,"Ġeach":2908,"^{*}\\|^{":2909,"{]}+\\":2910,"\\[|(":2911,"}|}{\\":2912,"sa":2913,"|=|":2914,"}})}{":2915,"ĠâĢ":2916,"_{>":2917,"|}{|":2918,"}\\})\\":2919,"}\\#":2920,"}{}_{\\":2921,"cur":2922,"}}\\|^{":2923,")})^{\\":2924,"}=\\]":2925,"Fix":2926,"})=\\{\\":2927,"}\\,\\|":2928,"=\\;":2929,"Ġ:":2930,"mber":2931,"<+\\":2932,"Ġte":2933,"Spin":2934,"}}_":2935,"tex":2936,"Au":2937,"}|,\\":2938,"dF":2939,")|<\\":2940,"Ġbo":2941,"001":2942,"})]^{":2943,"]\\,\\":2944,")}}.\\]":2945,"||_{\\":2946,"..\\]":2947,"sion":2948,"\\[\\#\\":2949,"inite":2950,"Ġ}^{(":2951,"Biggr":2952,"}+\\]":2953,")\\},\\]":2954,"}}\\}\\":2955,"kt":2956,"_{+}}\\":2957,"Av":2958,"\\;.\\]":2959,"(\\,\\":2960,"93":2961,"sr":2962,")=\\]":2963,")&(":2964,"}&=&\\":2965,"Ġ}}{\\":2966,"ML":2967,"]},":2968,"{)}\\,.\\]":2969,"256":2970,"scalebox":2971,"HF":2972,"\\[({\\":2973,"ode":2974,"}),&\\":2975,"Ġ)-":2976,"kx":2977,"Ġmax":2978,"&*\\\\":2979,"^{*}}\\]":2980,"499":2981,"])=\\":2982,"})&=":2983,"83":2984,"^{-|":2985,")||":2986,"}]}(":2987,"}})\\,":2988,"Diam":2989,"}}\\{\\":2990,"}:(\\":2991,"}{*}{":2992,"ms":2993,"{)}_{\\":2994,"Ġ-(":2995,"nge":2996,"ĠSp":2997,":|":2998,")\\!\\":2999,"}){\\":3000,"imize":3001,"enspace":3002,"\\}+\\":3003,"Biggl":3004,"^{*}}{":3005,"Ġst":3006,"BP":3007,"^{*}}^{":3008,"=|\\":3009,"\\[\\{(\\":3010,"}{$\\":3011,")}>":3012,"...&":3013,")].\\]":3014,"mi":3015,"ull":3016,"})^{*}\\]":3017,"curlyeq":3018,"new":3019,"112":3020,"tions":3021,"Fil":3022,"ror":3023,"NS":3024,"Ġ\\|_{\\":3025,"tp":3026,"mm":3027,"hol":3028,"{[}{":3029,"SI":3030,":,":3031,"-}":3032,"]/(":3033,"|,":3034,"}:\\,":3035,"$,}\\\\":3036,"NN":3037,"Ġpa":3038,"\\}&\\":3039,"}|,|":3040,"BV":3041,"}}^{[":3042,"}\\|=":3043,"\\[\\,":3044,"452756":3045,"Ġ;\\":3046,"|^":3047,"}_{[\\":3048,"}\\,,":3049,"bu":3050,"]}=":3051,")}\\,.\\]":3052,"}[\\|":3053,"^{*})=":3054,"}],[":3055,"trace":3056,")={\\":3057,"}\\},\\{":3058,"^{!":3059,"SD":3060,"\\|+\\":3061,"91":3062,"ak":3063,"_{+}-":3064,"all":3065,"})}\\|\\":3066,"|{\\":3067,"const":3068,"the":3069,"Ġ),\\":3070,")!}":3071,"\\}\\}\\]":3072,"RF":3073,"tot":3074,"})/(":3075,"(\\{\\":3076,"})_{(":3077,"]\\)":3078,"Ġ\\|^{":3079,"sn":3080,"RT":3081,"^{*})=\\":3082,"}^{\\{":3083,"}^{-(":3084,")=|\\":3085,"tv":3086,"_{,":3087,"cri":3088,"lt":3089,"}})}":3090,"cb":3091,"suit":3092,")}<":3093,"pn":3094,"}\\|(\\":3095,"|-|":3096,"ngth":3097,"}}>\\":3098,"ĠHom":3099,"}|(\\":3100,"}}(-\\":3101,"[\\|\\":3102,"[\\|":3103,"PD":3104,"}]\\\\":3105,"{[}{]}{":3106,"Ġnot":3107,"cccccccc":3108,";\\,\\":3109,"})}_{\\":3110,"}_{*}(\\":3111,"Dv":3112,"art":3113,")}{(\\":3114,"ded":3115,"triangledown":3116,"Ġpro":3117,"Ġ>":3118,"}}}_{\\":3119,")}}(\\":3120,"MA":3121,"}|,\\]":3122,"Ġle":3123,"SC":3124,"kr":3125,"))_{\\":3126,")^{*}\\]":3127,"{)}(\\":3128,"Ġ{+":3129,"}+[":3130,"longleftrightarrow":3131,"}})\\\\":3132,")|+|":3133,"})}\\,\\":3134,"})\\}.\\]":3135,"Ġ)-\\":3136,"Ġdu":3137,"}\\;,\\]":3138,"{}^{(":3139,"}{\\|\\":3140,"iu":3141,"jmath":3142,"})}}{":3143,"Ġ18":3144,"Ġ}\\]":3145,"Ġ\\([":3146,"},\\{\\":3147,"|,|":3148,"vv":3149,"char":3150,"})})\\":3151,"Ann":3152,")|}{|":3153,"XX":3154,"vw":3155,"pd":3156,"BD":3157,"{}\\":3158,"tic":3159,"}|=|\\":3160,"&(\\":3161,"\\},\\\\":3162,")_{(":3163,"kp":3164,"nx":3165,"Proj":3166,"}}\\;\\":3167,"},[\\":3168,"}_{+}(\\":3169,"_{*},\\":3170,"af":3171,"}|}{|":3172,"}+...":3173,"}}-(":3174,"cov":3175,"\\,:\\,":3176,")}(-":3177,")}^{-":3178,"}<+\\":3179,"}}(|":3180,"can":3181,"wr":3182,"\\,\\,\\":3183,"AD":3184,"})))\\]":3185,"}&&\\\\":3186,"ĠIm":3187,";}\\\\":3188,")!}{":3189,"|}(":3190,"az":3191,"^{[\\":3192,"Ġ})^{":3193,"Diamond":3194,"}\\|_":3195,"}}}}":3196,"125":3197,"\\}=\\{":3198,"AR":3199,")\\,=\\,\\":3200,")!(":3201,"}:=\\{(":3202,"ype":3203,"}||_{\\":3204,")})-":3205,"Com":3206,"CT":3207,"{)}}{\\":3208,")}[\\":3209,"tA":3210,"xxx":3211,"SR":3212,"boxed":3213,"})}|\\":3214,"}}}\\|":3215,"phan":3216,"82":3217,"Bun":3218,"{)}}{":3219,"phantom":3220,"cyc":3221,"Ġwhen":3222,"form":3223,"}}\\,,\\":3224,"]]\\]":3225,"})}\\,":3226,"),\\;":3227,".}":3228,"sd":3229,"Ġ)+\\":3230,"mult":3231,"}})}{\\":3232,"ih":3233,"}}}|":3234,"^{-}(\\":3235,"}^{*}\\|_{":3236,"))}^{":3237,"}^{+}_{\\":3238,"226378":3239,")}|^{":3240,")\\;.\\]":3241,"ave":3242,",\\|\\":3243,"Ġnon":3244,"/|":3245,"}^{+})\\]":3246,")}\\}\\]":3247,"ple":3248,"},\\|\\":3249,"Ġ}\\|":3250,"}}|_{\\":3251,"^{*}}(\\":3252,"})|_{\\":3253,"db":3254,"Ġ{-\\":3255,"_{+},\\":3256,"nj":3257,"Sq":3258,"110":3259,")}}^{":3260,"rb":3261,")}{|\\":3262,"|}.\\]":3263,"}))}\\]":3264,"gx":3265,"fd":3266,"....":3267,"Ġ17":3268,"yp":3269,"Der":3270,"ae":3271,"Div":3272,"_{-}^{\\":3273,"BG":3274,"tz":3275,"}-\\{":3276,"TC":3277,"{:":3278,"}^{+}=\\":3279,"\\}\\,.\\]":3280,"igarrow":3281,"rightsqu":3282,"rightsquigarrow":3283,")}/":3284,"Ġ24":3285,"lrcorner":3286,"Ran":3287,"ks":3288,"{]}_{":3289,"])":3290,"+[":3291,"]:\\":3292,"rx":3293,"Ġ}}(\\":3294,"}),\\,":3295,"}}}\\,":3296,"#\\{":3297,"SM":3298,"\\!+\\!":3299,"$.}\\]":3300,")}]":3301,"ew":3302,"ux":3303,",}\\":3304,"LR":3305,"_{(-":3306,"))>":3307,"Ġ}^{-":3308,"\\,\\,":3309,"varGamma":3310,"}|)\\]":3311,"}|-\\":3312,"minimize":3313,")}_{(":3314,"}_{|\\":3315,")]^{\\":3316,"Dom":3317,"})),":3318,"].\\":3319,"BL":3320,"ice":3321,"Exp":3322,"}_{-}\\":3323,"))\\|_{":3324,"Ġex":3325,"nearrow":3326,"=[\\":3327,"\\[((\\":3328,"})}+\\|\\":3329,":\\;":3330,"raph":3331,"},|\\":3332,"}^{+}}":3333,"dY":3334,"^{\\{":3335,".+\\":3336,"Ġ\\!\\":3337,"lity":3338,"Ġch":3339,"-\\|":3340,"-\\,":3341,"}_{-}(":3342,"ity":3343,"}_{+})\\]":3344,"Fr":3345,"}!\\":3346,"dc":3347,"LM":3348,"rom":3349,"$},\\]":3350,"Ġ\\[+(":3351,"\\,,\\\\":3352,"Sub":3353,"poly":3354,"\\,|\\":3355,"}}}\\,\\":3356,"Ġ)=\\":3357,"dl":3358,"Ġ)^{\\":3359,"!}(":3360,"}\\|.\\]":3361,"}},&":3362,")}+\\|\\":3363,")||\\":3364,"}]}{":3365,"}_{+},\\":3366,"Ġ)+":3367,"})]=":3368,"}\\,:\\,\\":3369,"Ġ)=":3370,"}][":3371,"tal":3372,"^{-},":3373,"Vdash":3374,")}:\\":3375,"}^{-},":3376,")}\\}_{":3377,"PSL":3378,"\\),":3379,"}[|\\":3380,"{[\\":3381,"_{{":3382,"}},\\,\\":3383,"})\\!":3384,"}-\\|\\":3385,"}}||":3386,"}}|\\]":3387,"})]_{":3388,"}^{*}.\\]":3389,"MP":3390,"}^{+})\\":3391,"500":3392,"DG":3393,"-\\,\\":3394,"Ġ)(":3395,"erm":3396,"Ġout":3397,"Log":3398,"iq":3399,"\\}_{\\":3400,"Da":3401,"})=(-":3402,"tit":3403,"scri":3404,"Ġdist":3405,"br":3406,"]/":3407,"Ġset":3408,"ilb":3409,")&=&":3410,"BMO":3411,"act":3412,"frame":3413,")|+":3414,"}}]_{":3415,"\\}+":3416,"_{-}\\]":3417,"})_{*}\\":3418,"}))^{-":3419,"Ġab":3420,"{]}\\\\":3421,")}),\\":3422,"Ġ^{-\\":3423,"Ġtime":3424,"^{+},\\":3425,"Ġ\\#":3426,"erf":3427,"ml":3428,"{[}(\\":3429,"512":3430,"}),&":3431,"AX":3432,"Po":3433,"))|":3434,"Ġnu":3435,"kly":3436,"^{-}_{\\":3437,"FS":3438,"*}(\\":3439,"ation":3440,"app":3441,"}}=\\{\\":3442,"},\\|":3443,"Ġsa":3444,"rot":3445,"textit":3446,"PGL":3447,"eakly":3448,"}|>\\":3449,"preccurlyeq":3450,"...\\]":3451,"depth":3452,"DM":3453,")})-\\":3454,"^{\\,":3455,":=(\\":3456,"overbrace":3457,"Pf":3458,"}|-|":3459,"Ġint":3460,"Ġ&-":3461,")|+\\":3462,"}}\\!\\!\\":3463,"}^{\\,\\":3464,"ob":3465,"TX":3466,"Ġonly":3467,"Ġ;":3468,"cf":3469,"<-":3470,"sw":3471,"]}\\|":3472,"]})\\]":3473,"Sing":3474,"lj":3475,"Fro":3476,"]})\\":3477,"}^{*}}(":3478,"+{\\":3479,"NC":3480,"Bu":3481,"aw":3482,"jn":3483,"{]}+":3484,"Ġ)}{":3485,"cp":3486,"Ġ\\!":3487,"_{+}+":3488,"}\\,\\,\\,":3489,"dashrightarrow":3490,"RP":3491,"}|\\,\\":3492,"]}.\\]":3493,"\\[[(":3494,"^{-}}\\":3495,"}|)^{":3496,"}}}\\\\":3497,"[|\\":3498,"}}^{*}\\]":3499,"]:=\\":3500,"010":3501,"}_{<":3502,"}},\\,":3503,"ces":3504,"bt":3505,"))}.\\]":3506,"-(-":3507,"}))}{":3508,"DP":3509,"+}(":3510,"^{*}.\\]":3511,"{)}}\\":3512,"rg":3513,"asu":3514,"else":3515,"varOmega":3516,"Rm":3517,"))/":3518,"<(":3519,"Diag":3520,")|>":3521,"LP":3522,")})(":3523,"\\|^{\\":3524,"Tf":3525,"}))\\\\":3526,"Ae":3527,"sx":3528,"SA":3529,"Ġ19":3530,")})^{-":3531,"075":3532,"}_{*}^{":3533,"}\\,=\\,":3534,"}\\!-\\!":3535,"]\\,.\\]":3536,"\\,,\\,":3537,"orm":3538,"_{-}}\\":3539,"des":3540,")!}{(":3541,"IV":3542,"}|/":3543,")\\|\\]":3544,"ef":3545,"-[":3546,"lement":3547,"}\\,,\\\\":3548,"MSE":3549,"]).\\]":3550,"}}((\\":3551,"Ġpo":3552,"\\,\\|":3553,"=(-":3554,"osc":3555,"CE":3556,")}),\\]":3557,"^{+})\\":3558,"err":3559,"})\\,,\\":3560,"|\\{":3561,"{)},":3562,"}^{-},\\":3563,"NT":3564,"144":3565,"qt":3566,"{+}":3567,"}_{+}}":3568,"iT":3569,"{]}^{\\":3570,"}\\}}\\]":3571,"\\;\\;\\":3572,"Ce":3573,"})]=\\":3574,"Ġ\\}\\":3575,"curve":3576,"cccccc":3577,"}!}\\":3578,"LT":3579,")=\\{(":3580,"ĠDe":3581,"}=-(":3582,")}}=\\":3583,"!)^{":3584,"Ġexists":3585,"Ġsupp":3586,"PS":3587,"&&&\\\\":3588,"xleftarrow":3589,"):=(\\":3590,"PA":3591,"Ġxy":3592,"longleftarrow":3593,"}\\}=\\{":3594,"rea":3595,"}),\\,\\":3596,"!}{(":3597,"({":3598,"ĠCt":3599,"qx":3600,"ĠII":3601,"md":3602,")=[\\":3603,"Ai":3604,"sec":3605,"\\|}\\":3606,"*}\\]":3607,"={\\":3608,"}*_{":3609,"mathrel":3610,"BK":3611,"_{*}-":3612,"=\\|":3613,"\\[=(":3614,"Ob":3615,"qr":3616,"ep":3617,"Jac":3618,"}}}{|":3619,"Ġ\\;":3620,"ĠCo":3621,"}\\|+\\":3622,"vi":3623,"}\\,\\|\\":3624,"})}{|":3625,"sed":3626,"aff":3627,"Ġ30":3628,"unction":3629,"^{-}\\]":3630,"_{+})\\":3631,"Ġcomp":3632,"_{[-":3633,"}}_{-":3634,"Ġhas":3635,"]+[":3636,"Ġ32":3637,"]}|\\":3638,"Ġ\\(-\\":3639,"}}}{{=":3640,"codim":3641,"Hilb":3642,"$}.\\":3643,"})}<\\":3644,"=:":3645,"bility":3646,"pk":3647,",.":3648,";-":3649,"}^{*}\\\\":3650,"cho":3651,"+}\\]":3652,"}\\),":3653,"Ġ\\;\\":3654,"))<\\":3655,":=\\,\\":3656,"lem":3657,"}}]=":3658,"jm":3659,"CB":3660,"}(\\,\\":3661,"-{\\":3662,"}_{+}":3663,")}:=":3664,"}}}|\\":3665,"disc":3666,"_{\\|\\":3667,"spec":3668,"ijkl":3669,"}\\!+\\!":3670,"}}^{*}(\\":3671,"rf":3672,"}}\\.\\]":3673,"});\\]":3674,"teg":3675,"}\\,.\\":3676,"}^{+}-":3677,"varPhi":3678,"mt":3679,".,\\]":3680,"\\,=\\,":3681,"ĠSL":3682,"_{*})\\]":3683,"arccos":3684,"Ct":3685,"_{-},\\":3686,"td":3687,")|<":3688,"iii":3689,"Ġ}\\|_{":3690,"}}+(\\":3691,"xyz":3692,"*(":3693,"}=:":3694,"free":3695,"]}^{\\":3696,")}\\)":3697,"Ġ}\\|\\":3698,"}},(":3699,"GF":3700,"Ġ21":3701,")|\\,\\":3702,"framebox":3703,"rop":3704,"nl":3705,"^{*})^{\\":3706,"arrowright":3707,"124":3708,"})\\;\\":3709,"!\\!/":3710,")|=|":3711,"})))\\":3712,"\\|\\|":3713,"}}^{+}\\":3714,"Ġtimes":3715,"rown":3716,"cont":3717,"\\[|\\{":3718,"arge":3719,"=}":3720,"Ġ25":3721,"Ġdv":3722,"error":3723,"Reg":3724,"=\\]":3725,")))":3726,"fi":3727,"]<\\":3728,"]&\\":3729,"&=&":3730,"132":3731,"rong":3732,"most":3733,"^{+}-":3734,"Ġ))\\":3735,"mr":3736,"Ġ}}_{":3737,"\\[|(\\":3738,"coh":3739,"Np":3740,"FP":3741,"}))}":3742,"*{\\":3743,"Vect":3744,"}^{*}}\\]":3745,"}))}{\\":3746,"-\\{":3747,"..,":3748,"stant":3749,"cz":3750,"ĠSO":3751,"tf":3752,"DA":3753,"Cor":3754,"TS":3755,"1234":3756,"})=[":3757,"\\[[-":3758,"_{\\{|":3759,"_{*}^{-":3760,"}([-":3761,"ddagger":3762,"$}}\\":3763,"!|\\!":3764,"):=\\{\\":3765,"frown":3766,"Ġdr":3767,"uplus":3768,"\\[=-\\":3769,"Shv":3770,"$}\\]":3771,"}:\\,\\":3772,"um":3773,")\\,(":3774,"tisf":3775,"Ġfrom":3776,"LL":3777,"})\\.\\]":3778,")}\\|_{\\":3779,"Ġ\\[<":3780,"TT":3781,"ous":3782,"Ex":3783,"{)}\\,,\\]":3784,"GH":3785,"}:\\\\":3786,"ld":3787,"})(-":3788,"Ġreg":3789,"[\\,\\":3790,"dL":3791,")+|":3792,"Ġsp":3793,"\\,.\\":3794,")\\,|\\,":3795,"dH":3796,"xu":3797,"!\\!\\!\\!\\":3798,"\\})=":3799,"}}+|":3800,"Ġ&=&\\":3801,"\\!\\!\\":3802,"ĠâĢĵ":3803,".&.&":3804,"\\[<":3805,"_{*}=\\":3806,"{|}.\\]":3807,"Ġ\\[\\|":3808,"}\\{(":3809,"}}^{-\\":3810,"Tu":3811,"},...":3812,"TP":3813,")],\\]":3814,"Ġpoint":3815,"Pa":3816,"{)}.\\":3817,"Ġdiag":3818,"Ġ)}":3819,"Ġterm":3820,"IP":3821,"|)^{\\":3822,"}]^{-":3823,")&-":3824,")=\\|":3825,"SNR":3826,"Cr":3827,")})+\\":3828,"NL":3829,"choice":3830,"}}\\,\\]":3831,"011":3832,"script":3833,"est":3834,"_{*}}":3835,"dM":3836,"\\,,\\,\\":3837,"))<":3838,"ary":3839,"BR":3840,"\\[-(":3841,"MF":3842,"vu":3843,"Ġ$(":3844,"Ġ23":3845,"ke":3846,")}},\\":3847,"}^{*}}{":3848,"^{\\,\\":3849,"}}&-\\":3850,"coth":3851,"}\\|}\\":3852,"card":3853,"Ġuni":3854,")}=-\\":3855,"yc":3856,")}\\,,\\]":3857,"sy":3858,"Ġsub":3859,"^{{\\":3860,"go":3861,"able":3862,"})\\,\\]":3863,"&*&*":3864,"mathchoice":3865,";,\\]":3866,"}_{*}":3867,"tors":3868,"(\\,":3869,"\\)}":3870,",\\{\\":3871,"134":3872,"}).":3873,"Ġ),":3874,"ĠCr":3875,"WF":3876,")](":3877,"fr":3878,"kd":3879,"qp":3880,"},+":3881,"234":3882,"DL":3883,"Ġ=(-":3884,"{/}\\":3885,"Ġit":3886,"AS":3887,"UV":3888,"}_{+},":3889,"px":3890,"(-(":3891,"xe":3892,"Ġ\\[\\|\\":3893,"rig":3894,"ĠMe":3895,"})}}":3896,"vir":3897,"}^{+}=":3898,"400":3899,"}\\|\\|":3900,"{*":3901,"hk":3902,"IS":3903,"cone":3904,"sv":3905,"ee":3906,")|+|\\":3907,"}$}.\\]":3908,"\\{\\|\\":3909,"}}=\\|":3910,"^{*}&":3911,"794":3912,"})].\\]":3913,"}]=[\\":3914,"^{*}:":3915,"^{*})^{-":3916,"}\\,,\\,":3917,"nq":3918,")},\\\\":3919,"]}_{\\":3920,"_{+,":3921,"}^{-}_{":3922,"Ġ+(":3923,"):=-\\":3924,"}:=-\\":3925,"resp":3926,"|=|\\":3927,"})}}{\\":3928,"$},\\":3929,"cen":3930,"mj":3931,"_{*}+":3932,"]\\|_{":3933,"restri":3934,"\\|+":3935,"Dg":3936,"))&\\":3937,"nT":3938,"^{*}\\\\":3939,"argmax":3940,"}}=[":3941,"At":3942,"}\\!\\!\\!\\":3943,"uw":3944,"{\\}},\\":3945,"1111":3946,"\\{\\,":3947,")}]\\]":3948,"]}}\\":3949,"ĠThe":3950,"Ġ=[":3951,"Ġ22":3952,"((-":3953,"}}(|\\":3954,"LE":3955,"}{-":3956,")|}{\\":3957,"\\}.\\":3958,"_{!":3959,"zx":3960,"}:=[":3961,"}+...+":3962,"\\!\\!\\!\\":3963,"MM":3964,"}=&\\":3965,"_{-})\\":3966,"\\}-\\":3967,"160":3968,"}^{*})=\\":3969,"Ġ50":3970,"Ġ/\\":3971,")};":3972,"{$-$}}\\":3973,"Ġ}\\{":3974,"$}}":3975,"\\))":3976,"Area":3977,"Ġcont":3978,"Ġorder":3979,"Ġbe":3980,"ai":3981,"dex":3982,"PU":3983,")})+":3984,"^{*}:\\":3985,"uc":3986,"ĠId":3987,"RE":3988,"llll":3989,"\\}\\)":3990,"Ġlo":3991,"ular":3992,"}):=\\{":3993,"Ġ40":3994,"\\;,\\]":3995,"inc":3996,"Prob":3997,"PC":3998,"|}}\\":3999,"Dash":4000,")}},\\]":4001,"vDash":4002,"})&=\\":4003,"+}^{":4004,"|)^{-":4005,"Ġ)_{":4006,"LC":4007,"}-[":4008,"}]]\\]":4009,"gn":4010,"lcm":4011,"{|}+\\":4012,")((":4013,"Ġik":4014,"{[}|":4015,"300":4016,"unded":4017,"}[\\![":4018,"ate":4019,"_{*,":4020,"dxd":4021,"}^{*})=":4022,"{]}-\\":4023,"dN":4024,"{]}(":4025,"\\}|\\":4026,"ther":4027,"dis":4028,"HC":4029,"ence":4030,"}}||\\":4031,"\\#\\":4032,"}}}\\|\\":4033,"{(}\\,\\":4034,"ka":4035,"}&(\\":4036,"coker":4037,"]/\\":4038,"Fl":4039,"bability":4040,"}\\|+":4041,"])^{":4042,"}]+[":4043,",\\,\\,\\,\\":4044,"{[}-\\":4045,"}^{**":4046,")|-":4047,"*}^{":4048,"rame":4049,"\\,=\\,\\":4050,"Ġfunction":4051,"Mor":4052,"}]}{\\":4053,"}))_{\\":4054,"Ġcom":4055,"[\\,":4056,"mix":4057,"))|^{":4058,"_{+}}":4059,"\\,:\\,\\":4060,"\\|<\\":4061,"Ent":4062,")&=&\\":4063,"DT":4064,"}=\\{(\\":4065,"Ġsta":4066,"dashv":4067,")};\\":4068,"'{":4069,"KK":4070,"bl":4071,"Ġ=\\{\\":4072,"}})|\\":4073,"Top":4074,":=\\{\\":4075,"sep":4076,"Frob":4077,"108":4078,"):(":4079,")}]\\":4080,"})^{*}(":4081,"}}*":4082,"PL":4083,"hg":4084,"such":4085,"])}\\":4086,"})={\\":4087,"tn":4088,"pl":4089,"Bl":4090,"Ġ\\(\\{":4091,"circle":4092,"zI":4093,"spt":4094,")}}{(":4095,"}}}}{":4096,"restriction":4097,"mx":4098,"dQ":4099,"_{+}=\\":4100,")\\,=\\,":4101,"})|=\\":4102,"121":4103,"cv":4104,"ama":4105,"!}.\\]":4106,"#}\\":4107,"js":4108,"\\|,\\]":4109,"ĠCN":4110,"_{*})":4111,"mc":4112,"}|,":4113,"}\\|<\\":4114,"ww":4115,"dG":4116,")}\\|^{":4117,"[{\\":4118,"nb":4119,"}\\!=\\!":4120,")\\;,\\]":4121,"Ab":4122,")}}=":4123,"Ġfinite":4124,"side":4125,"GW":4126,"Ġ})}\\":4127,"Ġper":4128,"}({":4129,"{]}\\,":4130,"scriptsize":4131,"adj":4132,".(":4133,"emma":4134,"}=:\\":4135,"})}}\\]":4136,"^{+})\\]":4137,"Sel":4138,"rp":4139,"}\\#\\":4140,"MT":4141,"}\\,_{":4142,"DE":4143,"105":4144,"Conf":4145,"})\\|\\]":4146,"}\\,,\\,\\":4147,"Nm":4148,"``":4149,"dxds":4150,"{\\{}-\\":4151,"}}^{+}(":4152,"}}}}\\]":4153,"olu":4154,"}^{+}-\\":4155,"of":4156,"Ġequ":4157,"$.}\\":4158,"DD":4159,"}{[":4160,"\\}}(\\":4161,"RR":4162,"kq":4163,"lex":4164,"length":4165,"Leb":4166,"ero":4167,"dvol":4168,"Ġ]\\":4169,"]|\\":4170,"Ġ&.":4171,"Ġprime":4172,"}^{+}+":4173,"Ġsym":4174,"}\\|\\|\\":4175,"SG":4176,"Ġdis":4177,",:":4178,"pf":4179,"Out":4180,"Ġnumber":4181,"Qu":4182,"[\\![\\":4183,",*}\\":4184,"zw":4185,"Ġno":4186,"gp":4187,"}\\,\\,\\,\\":4188,"Ġâ":4189,"amalg":4190,"ine":4191,"inu":4192,"135":4193,")})}\\":4194,"AT":4195,")}.\\":4196,"den":4197,"]}\\|\\":4198,"\\}}|":4199,"]]\\":4200,"}\\|+\\|":4201,"{[}\\|\\":4202,"}:|\\":4203,".\\,":4204,"}})\\,\\":4205,"}^{-}=\\":4206,"curvearrowright":4207,"}\\}\\\\":4208,"Ġ\\[|":4209,"Ġ27":4210,"Ġthere":4211,"}^{-}}\\":4212,"Ġthen":4213,"^{*})-":4214,"ry":4215,"}})/":4216,"RM":4217,"}^{{\\":4218,"}}*\\":4219,",\\,\\,":4220,"Cap":4221,"PP":4222,"CL":4223,"ĠIn":4224,"Ġ\\[[":4225,")]_{\\":4226,"}^{*}&":4227,"\\}-":4228,"),-":4229,"Cn":4230,"Ġ)}{\\":4231,"RB":4232,"Ġpar":4233,"Ġnt":4234,"vt":4235,"PQ":4236,"avg":4237,"rac":4238,")*\\":4239,"}))\\,":4240,"}):=(":4241,")<+\\":4242,"ime":4243,"Ġtype":4244,"{[}\\|":4245,"}^{-})\\":4246,"499794":4247,"aR":4248,"formly":4249,"Sch":4250,"dT":4251,"]\\,,\\]":4252,"^{-})\\":4253,"}|)":4254,"lb":4255,")}=(\\":4256,"Ġ||":4257,"Ġâľ":4258,"Cone":4259,")_{-":4260,"122":4261,"ĠAut":4262,"lower":4263,"})=\\]":4264,"}}]=\\":4265,"]}+\\":4266,"_{+})\\]":4267,"HP":4268,"}_{+}^{\\":4269,")&-\\":4270,"),\\;\\":4271,"}$}\\\\":4272,"Ġsatisf":4273,"SW":4274,"Ġeff":4275,"NE":4276,"]&":4277,"~{}":4278,"rongly":4279,"Ġ\\[=:":4280,"+\\]":4281,")):":4282,"Ġ&&&\\":4283,"}};\\]":4284,"}-(-":4285,"Min":4286,"240":4287,"GP":4288,"]}+":4289,"}|^":4290,"RL":4291,")!}\\]":4292,":\\!":4293,"})}&\\":4294,")/(\\":4295,"Ġ\\[=(-":4296,"}^{*},\\]":4297,"}])=":4298,"}})\\|_{":4299,"Cu":4300,"OP":4301,"cond":4302,"Ġso":4303,"_{*}}(":4304,"192":4305,"Ġext":4306,"{(}{\\":4307,"Ġ))":4308,"}]=-":4309,"gy":4310,"}\\!=\\!\\":4311,"qs":4312,"HK":4313,"}])=\\":4314,"{)}\\|":4315,"DS":4316,"}))(\\":4317,"pen":4318,"}}}[":4319,"}})=(":4320,"^{*}).\\]":4321,")|,\\]":4322,"}}\\}.\\]":4323,"{\\{}(\\":4324,",...":4325,"pu":4326,")^{-(":4327,"Ġprobability":4328,"map":4329,"tg":4330,"}^{*})^{\\":4331,"{]}\\,\\":4332,"}&&":4333,"MS":4334,"there":4335,"Ġla":4336,"{]},\\":4337,"\\})=\\":4338,"}&&\\":4339,"Ġdeg":4340,"dE":4341,"Perf":4342,"tX":4343,"init":4344,"ĠCon":4345,"rep":4346,"\\|_{(":4347,"Iso":4348,"_{*}=":4349,"linear":4350,"Max":4351,"-}(":4352,"Cx":4353,"{|}=":4354,"}}_{+":4355,"\\[([":4356,"rameter":4357,"obs":4358,"orb":4359,">-":4360,"xa":4361,"gs":4362,"),(-":4363,"ies":4364,"NA":4365,"eak":4366,")]+":4367,"blacksquare":4368,")}+(":4369,"^{*})+\\":4370,"|\\!|\\!":4371,"LD":4372,"\\[{}_{\\":4373,"bigm":4374,"Ġda":4375,"FF":4376,"RA":4377,"_{+}-\\":4378,"}]/":4379,"\\,\\|\\":4380,"}}{[":4381,"{(}\\{":4382,"add":4383,"180":4384,"}^{(+":4385,"Ġ}|^{":4386,")\\}":4387,"}\\|^{\\":4388,"&&&&\\\\":4389,",\\;\\;\\":4390,")}}+\\":4391,"bq":4392,"rightrightarrow":4393,"{|}=\\":4394,"rightrightarrows":4395,"Ġ>\\":4396,")^{(\\":4397,"\\|,\\":4398,"CK":4399,")|=|\\":4400,"}^{*}}{\\":4401,"|_{[":4402,")))=":4403,"Ġtra":4404,"})}{(\\":4405,"Ġ&=-\\":4406,"})\\},\\]":4407,"012":4408,"rit":4409,"Bx":4410,"-}^{":4411,"iso":4412,"CV":4413,"fl":4414,"Ġ36":4415,"^{+}+":4416,"kT":4417,"-\\|\\":4418,"sqcap":4419,",*}(":4420,"cut":4421,"LB":4422,"ny":4423,"sto":4424,"{\\#":4425,")_{+}\\":4426,"})|}\\":4427,"}|{\\":4428,"}}}^{(":4429,")+\\]":4430,"Ġ&=&":4431,"{|}(":4432,"Ġ\\[|\\":4433,"Lu":4434,"}_{\\,":4435,"]},\\]":4436,"dZ":4437,"}}\\,(":4438,"Ġ=&":4439,"_{+}=":4440,"tq":4441,"Ġ{(\\":4442,"ĠSU":4443,"{\\}}_{":4444,"perf":4445,"eu":4446,"tain":4447,"Ġdo":4448,"LU":4449,"Ġ\\{(":4450,"Ġ}},\\":4451,"!\\]":4452,")}}{{=}}\\":4453,"iA":4454,"Rx":4455,":|\\":4456,"Ġ((":4457,"})}:=\\":4458,"_{\\!":4459,"})|.\\]":4460,"Ġ)\\,":4461,"ĠCR":4462,"}{*}{\\":4463,"Loc":4464,"Me":4465,"\\})":4466,"ĠAx":4467,"com":4468,"non":4469,"}}})":4470,"inuous":4471,"_{,\\":4472,"}((-":4473,"PG":4474,"}+[\\":4475,"bn":4476,"orphi":4477,"ĠCn":4478,"Ġ&(":4479,"Ġ64":4480,"_{+}+\\":4481,")}}^{\\":4482,"},+\\":4483,")|>\\":4484,"tation":4485,"{)}&\\":4486,"!}{\\":4487,"rev":4488,"BF":4489,"^{-|\\":4490,"},*":4491,"^{+}=\\":4492,"}^{+})^{":4493,"gf":4494,"Ġrate":4495,"}^{+}+\\":4496,"Ġ}\\;":4497,"Ġ-(\\":4498,"dec":4499,"tH":4500,"Ġ]":4501,"}\\}^{":4502,":\\;\\":4503,"lcl":4504,"}\\!-\\!\\":4505,"_{-}+":4506,"}})}^{":4507,"Ġ(\\(":4508,")}),":4509,"str":4510,"}\\!+\\!\\":4511,"}])":4512,"tch":4513,"_{-,":4514,"lll":4515,")^{+}\\":4516,"}^{>":4517,")]+\\":4518,"))}(":4519,"Ġ\\&\\":4520,"ever":4521,"rv":4522,"kN":4523,"nR":4524,")}/\\":4525,"}:\\|":4526,"}|}.\\]":4527,"Ġrank":4528,"Ġ\\[<\\":4529,"sech":4530,"JX":4531,"}_{/":4532,"(.":4533,"Ġ=|":4534,"Ġ}}^{\\":4535,"\\[|{\\":4536,"\\}\\,,\\]":4537,"AV":4538,")\\,:\\,":4539,"}^{*}\\|^{":4540,"}=((":4541,"IM":4542,"))=(\\":4543,")=&\\":4544,"lip":4545,"uni":4546,")(|":4547,"Ġvar":4548,"Ġ\\((\\":4549,"rec":4550,";{\\":4551,"Ġ{*}\\":4552,"\\!-\\!\\":4553,"trop":4554,"Ty":4555,"Tot":4556,":\\{":4557,"pc":4558,"}$,":4559,"})))":4560,"TN":4561,"Is":4562,"oc":4563,"DC":4564,"Aff":4565,"}^{<":4566,"zy":4567,"}}(\\{":4568,"OPT":4569,"150":4570,"}]\\|_{":4571,"Ġ26":4572,",\\,(":4573,"]]":4574,"bigtriangle":4575,"bigtriangleup":4576,"}_{*}^{\\":4577,"}\\,+\\,\\":4578,"}|,|\\":4579,"Ġ)}(":4580,"jp":4581,"\\}}{":4582,"HT":4583,"tm":4584,"}}&=":4585,"Ass":4586,"EM":4587,"mon":4588,"Ġ}}}\\":4589,"\\{[":4590,"IN":4591,"Hol":4592,"Ġ}&":4593,"Bi":4594,"}+{":4595,"^{-},\\":4596,"\\},&\\":4597,"Err":4598,"les":4599,"};\\,":4600,"}}-(\\":4601,"}\\;=\\;\\":4602,"\\;\\;":4603,"varDelta":4604,"std":4605,",+}(":4606,"Ġ56":4607,")\\,{\\":4608,"ws":4609,")]-\\":4610,"Det":4611,"Ra":4612,"Inv":4613,"})=|":4614,"}})>":4615,"Ġbounded":4616,"fix":4617,"}$-":4618,"ABC":4619,")-|":4620,"_{-}-":4621,"}^{*,":4622,"]=\\{":4623,"}}{{=":4624,"Ġver":4625,"}},...,":4626,"\\}:":4627,"Ġerror":4628,"GM":4629,"BT":4630,".-\\":4631,"UU":4632,"1024":4633,"jt":4634,"Ġ}}+\\":4635,"}^{-}=":4636,"|},\\":4637,"we":4638,"Def":4639,"Tw":4640,"})|+|":4641,"xq":4642,"area":4643,"}^{*\\":4644,"NM":4645,"RC":4646,"ile":4647,"ĠNo":4648,"crit":4649,"}$},\\\\":4650,"arcsin":4651,"}|-|\\":4652,"!/":4653,"}|^{-\\":4654,"Ġ}{(":4655,"Ġ=|\\":4656,"yl":4657,"Ġ)^{-":4658,"})}[":4659,"}|}{|\\":4660,"Ġval":4661,"ori":4662,"Ġac":4663,"}],[\\":4664,"Ġedge":4665,"^{*}}{\\":4666,"jh":4667,"}<|":4668,"\\,\\}\\]":4669,"}}\\|(":4670,"tric":4671,"\\|+\\|":4672,"^{*})-\\":4673,"|\\;":4674,"hx":4675,"lock":4676,"]=(":4677,"thm":4678,");\\\\":4679,"Ġ:=\\{":4680,"Ġ^{*}\\":4681,"RD":4682,"{|}\\\\":4683,"1010":4684,"tb":4685,"|},\\]":4686,"ace":4687,"GS":4688,"{\\}}=\\":4689,"}^{-})\\]":4690,"Ġet":4691,"Af":4692,",\\,\\,\\,":4693,"QCoh":4694,"Ġterms":4695,"ected":4696,"qz":4697,"}-\\]":4698,"Ġinf":4699,"}}_{(\\":4700,"\\}}{\\":4701,"Conv":4702,")|(":4703,"ĠdW":4704,"Ġ\\[>":4705,"}^{*}}(\\":4706,")),\\\\":4707,"cris":4708,"{}{":4709,"ES":4710,"))).\\]":4711,"Dw":4712,"})}\\,.\\]":4713,"})*":4714,"triv":4715,"}]\\,":4716,"qq":4717,"_{-})\\]":4718,"He":4719,"{\\'{":4720,"}]}(\\":4721,"{)}>":4722,"|-|\\":4723,"qc":4724,"TL":4725,"Bin":4726,"^{*},\\]":4727,"}\\}}(":4728,")\\},\\":4729,"cat":4730,")^{[":4731,"CI":4732,"xv":4733,"^{*})+":4734,"{)}^{-\\":4735,"}}{}_{":4736,"Ġover":4737,"}_{+})\\":4738,"Ġpr":4739,"\\}}.\\]":4740,"ah":4741,"{{(\\":4742,"),[":4743,")+(-":4744,"}$}\\":4745,"tL":4746,"}})|":4747,"ici":4748,"Ġim":4749,"xf":4750,"}}}&\\":4751,"210":4752,"Ġ_{(":4753,"PF":4754,"126":4755,"^{-}}":4756,"Ġ=\\|":4757,"Ġcase":4758,"pact":4759,"}}+|\\":4760,"mskip":4761,"}}=\\|\\":4762,")=:":4763,"005":4764,"+}^{\\":4765,"{[}|\\":4766,"&|":4767,"ĠLemma":4768,"NP":4769,"}}|(":4770,"288":4771,")_":4772,"Ġ}&\\":4773,"_{!}\\":4774,")}}{{=}}":4775,"Ay":4776,"iw":4777,"&+":4778,"nsion":4779,"^{+})^{":4780,"}))\\,\\":4781,")=+\\":4782,"}:{\\":4783,"unds":4784,"hf":4785,"]}-":4786,")|^{-":4787,"})||_{":4788,"})\\;.\\]":4789,"],\\,":4790,")}=\\{":4791,"vx":4792,"<|\\":4793,"Fin":4794,"vel":4795,"Ġ=\\|\\":4796,"LG":4797,"os":4798,"}_{\\#":4799,"roup":4800,"_{(-\\":4801,"TR":4802,"tk":4803,"Ber":4804,"}))=(":4805,"Ġcurl":4806,"}]\\,\\":4807,"nce":4808,"Ġ29":4809,"}_{{}_{\\":4810,"}}_{[":4811,"211":4812,"213":4813,"Ġvec":4814,"_{+}^{-":4815,"=\\|\\":4816,"abs":4817,"Ġweakly":4818,"nv":4819,"Ġconstant":4820,"zt":4821,"sitive":4822,"ei":4823,",\\,-":4824,"zf":4825,"AE":4826,"]}-\\":4827,")]^{-":4828,"}=&":4829,":\\|":4830,"nN":4831,":}\\":4832,"Orb":4833,"ĠTM":4834,"}^{*})_{":4835,"Rf":4836,"}})&\\":4837,"Ġ31":4838,"{)}|":4839,"}\\|,\\]":4840,"=:\\":4841,"ormal":4842,"Ġmeasu":4843,"HM":4844,"_{-}=\\":4845,")}=-":4846,")\\;=\\;\\":4847,"Ġ{|":4848,"}}=[\\":4849,"}$.}\\]":4850,"gap":4851,"}^{*}}^{":4852,"lead":4853,"Ġix":4854,")(-\\":4855,"}^{*})^{-":4856,")))=\\":4857,"{-(":4858,"}}]^{":4859,")=-(":4860,"tep":4861,"xw":4862,"^{+}=":4863,"BU":4864,":{\\":4865,"bp":4866,"}}:=\\{":4867,"lass":4868,"odel":4869,"{\\}}=":4870,"BE":4871,"UE":4872,"231":4873,"vex":4874,"}})}.\\]":4875,"$;}\\\\":4876,"SV":4877,"Ġ}[\\":4878,"THH":4879,"fe":4880,"_{*}}{":4881,"}(-,":4882,"iH":4883,"}))}^{":4884,"_{-}=":4885,"do":4886,"}))|\\":4887,"}},(\\":4888,"crys":4889,"\\}}=":4890,"heart":4891,"KM":4892,"{}{}{":4893,"}})}(":4894,"!}(\\":4895,"]-[":4896,"AU":4897,"}\\}+\\":4898,"root":4899,"}<(":4900,"PB":4901,",...,\\":4902,"{)},\\\\":4903,"_{*}:\\":4904,"AM":4905,"}}[(":4906,"By":4907,"}}))":4908,"PV":4909,"]\\!\\":4910,"}_{-}^{":4911,"hu":4912,"\\}}=\\":4913,"ample":4914,"heartsuit":4915,"^{*})(":4916,")],\\":4917,"216":4918,"&*&":4919,"ĠVar":4920,"}((-\\":4921,"}}}}{\\":4922,"Ġdxdt":4923,"~{}\\":4924,",+}\\":4925,"ĠEnd":4926,"hh":4927,"Ġ)\\,\\":4928,"sition":4929,"]\\!]\\]":4930,"pw":4931,".+":4932,"}]\\}\\]":4933,"ikx":4934,"145":4935,"bz":4936,"_{*}+\\":4937,"321":4938,"{)}\\|\\":4939,"kg":4940,"Subset":4941,"Ġ(-\\":4942,"sti":4943,"sb":4944,"FG":4945,"cof":4946,"stab":4947,"smash":4948,"&=&\\":4949,"})|<\\":4950,"nL":4951,"center":4952,"cq":4953,"Ġ\\(-\\)":4954,"};\\,\\":4955,"itH":4956,"250":4957,")}|_{":4958,"})}{|\\":4959,"SF":4960,"Ġcl":4961,"rj":4962,"})_":4963,"lc":4964,"Ġ}),\\":4965,"rable":4966,"fp":4967,"ĠKer":4968,"ers":4969,"})]-\\":4970,":\\\\":4971,"|\\|":4972,"^{*})}\\":4973,"}=-(\\":4974,"}}{}^{":4975,"{\\}}^{":4976,"ure":4977,"varPi":4978,"}}^{-}\\":4979,"Ġ}).\\]":4980,"]{}":4981,"hy":4982,"}&*":4983,"Ho":4984,"Ġhol":4985,"\\[*":4986,"Ġho":4987,"=-(":4988,"smile":4989,"varLambda":4990,"main":4991,"dydx":4992,"Ġ)\\\\":4993,"sqsubseteq":4994,"aj":4995,"\\{\\{":4996,"\\[[[":4997,"mooth":4998,"GC":4999,"|).\\]":5000,"|}=\\":5001,"}],\\\\":5002,"}_{-}(\\":5003,"}},{\\":5004,";[":5005,"PM":5006,"^{*}[":5007,")}{\\|":5008,"KS":5009,"Ġ(\\(\\":5010,"{(}[\\":5011,"Ġ=\\{(":5012,"\\}(":5013,"})}&":5014,"TF":5015,"Ġinteg":5016,",\\;\\;":5017,"XZ":5018,"sat":5019,"ial":5020,"}}}^{-":5021,"}\\|+\\|\\":5022,"}]<\\":5023,"\\};\\]":5024,"})]^{\\":5025,"Ġalmost":5026,")]-":5027,"Un":5028,"\\}).\\]":5029,"_{*}-\\":5030,"]),\\]":5031,"^{+}}(":5032,"}),\\;":5033,"thod":5034,"))\\,.\\]":5035,"}^{+}.\\]":5036,"ĠdB":5037,"OM":5038,"ĠCM":5039,")},&\\":5040,"orem":5041,"140":5042,"ĠPro":5043,"Ġexp":5044,"})],\\]":5045,"Pe":5046,"Az":5047,"Tra":5048,"$}":5049,"Rad":5050,"\\[(\\{":5051,"As":5052,"]|":5053,"360":5054,"ĠSym":5055,"true":5056,"abcd":5057,"mq":5058,"}\\,+\\,":5059,"{+":5060,"bigtriangledown":5061,"Ġref":5062,"}[[\\":5063,"}])^{":5064,"IF":5065,"]=[\\":5066,"{\\,":5067,"OD":5068,"Ġgen":5069,"Lin":5070,"FC":5071,")\\}=\\":5072,"{,}\\]":5073,"bv":5074,"}}|=":5075,"^{*}}^{\\":5076,"MW":5077,"$}^{":5078,"})_{-":5079,"}=(-\\":5080,"^{*}}}\\":5081,"]=-\\":5082,"bj":5083,"-\\]":5084,"{)}<\\":5085,"\\}|\\]":5086,"Ġ||\\":5087,"){":5088,"}(*":5089,"^{{}^{":5090,"ĠRes":5091,"168":5092,"}}):=\\":5093,"\\}\\,\\":5094,"}}\\;.\\]":5095,"Ġcontinuous":5096,"Ġ60":5097,"[\\]":5098,"bigcirc":5099,"^{*}:=\\":5100,"uf":5101,"999":5102,"\\|\\,":5103,"Sol":5104,"}}.":5105,"ku":5106,"{||":5107,"qa":5108,"nf":5109,")):=\\":5110,"dU":5111,"104":5112,"off":5113,"}];":5114,"136":5115,"len":5116,"lf":5117,"qn":5118,"zq":5119,"113":5120,"}}...":5121,"!^{":5122,"tc":5123,"\\}}+":5124,"GD":5125,"}&=-\\":5126,")^{*}(":5127,"aus":5128,"PR":5129,"}^{*}:":5130,"Ġinter":5131,"}}&-":5132,"sj":5133,"}|}(":5134,"_{!}":5135,"Ġ({\\":5136,"),\\,(":5137,".,\\":5138,"})||":5139,"soc":5140,"SB":5141,"})^{*}(\\":5142,"crea":5143,"\\[<\\":5144,"pol":5145,"Mon":5146,"ov":5147,"meas":5148,"{.}\\]":5149,"_{+}}{":5150,"|_{(":5151,"}}&=\\":5152,"}_{+}.\\]":5153,"las":5154,"}}{}^{\\":5155,"--":5156,"_{+}^{(":5157,"pos":5158,"998":5159,"Coker":5160,"\\:":5161,"\\!=\\!":5162,"}\\:":5163,"pounds":5164,"OT":5165,"^{*}/":5166,"Ġâľĵ":5167,"212":5168,"Sm":5169,"^{<":5170,"Ġ})+\\":5171,":=\\{(":5172,"Nt":5173,"\\}&\\{":5174,")}}+":5175,"bow":5176,"tie":5177,"384":5178,"})|}{":5179,"hyp":5180,"))/\\":5181,"]>":5182,"|)}\\":5183,"IR":5184,"Vec":5185,"\\|=\\|":5186,"Ġdf":5187,"weakly":5188,"usp":5189,"csc":5190,"}))>":5191,"\\|}{":5192,"AN":5193,"|}(\\":5194,"EG":5195,"varSigma":5196,"ou":5197,"UL":5198,"hp":5199,"})}^{(":5200,"_{-}}":5201,"Ġ*}\\":5202,"\\}>":5203,"ĠAd":5204,"&&&&":5205,"{|}\\;":5206,"\\({}_{":5207,"312":5208,"Ġ})^{\\":5209,"xg":5210,")}}}\\":5211,"^{*}|":5212,"))},\\]":5213,"ective":5214,"lob":5215,"}^{*}:=\\":5216,"Ġ_{-":5217,"\\%\\)":5218,"Ġ&\\\\":5219,"^{*}),":5220,"dK":5221,"sis":5222,"^{-})\\]":5223,"sen":5224,"ĠAB":5225,"test":5226,"leadsto":5227,"})|=|":5228,"Eu":5229,"})((":5230,"type":5231,"}^{*}:\\":5232,"_{-(":5233,"kb":5234,"}...\\":5235,"{(}\\,":5236,"YZ":5237,"]:=":5238,"}\\{|":5239,"ick":5240,"})=\\{(":5241,"Ġconn":5242,"[[\\":5243,"<_{":5244,"}}|}\\":5245,"omial":5246,"YX":5247,"Col":5248,")\\}=":5249,"ĠâĢĶ":5250,"Ġsign":5251,"})|+":5252,")}]_{":5253,"ĠGr":5254,"ĠBV":5255,"})_{*":5256,"graph":5257,"^{!}\\":5258,"KR":5259,">(":5260,"ndi":5261,"{\\,\\":5262,")=\\\\":5263,":&":5264,"since":5265,"]),\\":5266,"++":5267,"^{*}=(":5268,"\\}}^{":5269,"/|\\":5270,"}[]":5271,"})\\,|\\,":5272,"bw":5273,"{(-\\":5274,"\\|\\,\\":5275,"lp":5276,"}\\))":5277,"}}\\!\\!":5278,")}},":5279,"156":5280,"))+(":5281,"320":5282,")]}\\":5283,"456":5284,"EC":5285,"ccccccccc":5286,"}[{\\":5287,"ĠPa":5288,"Ġ34":5289,"Ġ\\[=\\|":5290,"}^{+}}(":5291,"AG":5292,"eri":5293,"}]=(":5294,"}}))=":5295,"good":5296,"Ġ35":5297,"umber":5298,"wx":5299,"Ġ48":5300,"})_{*}":5301,"Be":5302,"Ġuv":5303,"+[\\":5304,"SN":5305,"^{*}\\|_{\\":5306,"og":5307,"}+||":5308,"})^{+}\\":5309,"bk":5310,"\\,\\,\\,\\":5311,"MU":5312,"]\\!]\\":5313,"Ġ{}_{":5314,"dent":5315,"ined":5316,"Qx":5317,"})\\!\\":5318,"Ġss":5319,"bowtie":5320,"losed":5321,"!\\!\\!\\":5322,"QP":5323,"Ġsgn":5324,"}+\\\\":5325,"\\}<\\":5326,"})]+\\":5327,"Ġ})-\\":5328,")}((":5329,"ha":5330,"}$},\\]":5331,"002":5332,")=:\\":5333,"})||\\":5334,"}]-[":5335,"0001":5336,"}-{":5337,"),{\\":5338,"{)}|\\":5339,"diff":5340,"Iw":5341,"ower":5342,"Lf":5343,"Ġlog":5344,"onent":5345,")))^{":5346,"[\\{":5347,"}{=}\\":5348,")}))\\":5349,"An":5350,"icient":5351,"\\|_{*":5352,"|}+\\":5353,"_{+}}(":5354,"}\\,=\\":5355,"mathord":5356,"rq":5357,"complement":5358,"{|}(\\":5359,"centerdot":5360,"222":5361,"Dh":5362,"\\!+\\!\\":5363,"\\|<":5364,"CO":5365,"CZ":5366,"\\[(|":5367,"}}].\\]":5368,")+|\\":5369,"Ġel":5370,"Ġeq":5371,"ner":5372,"]^{(":5373,"}\\;,\\":5374,"Ġmatrix":5375,"}}}&":5376,"Ġtop":5377,"}]).\\]":5378,"Ġ37":5379,")|,\\":5380,"})})":5381,"Ġcontain":5382,"}}([\\":5383,"}/{\\":5384,"}))<\\":5385,";\\;\\;\\;\\":5386,"va":5387,"}\\,^{":5388,"}}}[\\":5389,"\\{\\,\\":5390,"2000":5391,"nK":5392,"_{-}}{":5393,")})}{":5394,"#(":5395,"Ġ99":5396,"^{*}\\|\\":5397,"xim":5398,"}|_{[":5399,"FT":5400,"DB":5401,"}]/(":5402,"\\[\\{[":5403,"ĠTime":5404,"})/(\\":5405,"}|\\\\":5406,"ĠDu":5407,"HD":5408,"Ap":5409,":_{":5410,"Emb":5411,"Ġvol":5412,"^{*}),\\":5413,"^{*\\":5414,"hD":5415,"dyds":5416,"905":5417,"}_{*}\\]":5418,"102":5419,"}\\|=\\|":5420,"gt":5421,"OS":5422,"}_{+}}\\]":5423,"})$":5424,"|^{(":5425,"Ġ200":5426,"measu":5427,"Ġ})-":5428,")_{|":5429,"tj":5430,"\\)-":5431,"Ġ\\[+(\\":5432,"sz":5433,"}^{*(":5434,"):\\,":5435,"iiint":5436,"Spf":5437,"ration":5438,"ĠdV":5439,"}^{*}&\\":5440,"})=[\\":5441,"GSp":5442,"<-\\":5443,"KT":5444,"}))}.\\]":5445,"Isom":5446,"\\}\\,":5447,"}^{*}|\\":5448,"hv":5449,"MD":5450,"))&":5451,"}\\},\\{\\":5452,"}}^{+}\\]":5453,"}}^{-}(":5454,"Ġ&&&&":5455,"))}{|":5456,")\\,\\,\\":5457,"\\,;":5458,"Ġne":5459,")}))\\]":5460,"FM":5461,"Ġopen":5462,"\\,+\\,":5463,"};(":5464,"{\\|}(":5465,"^{*}|\\":5466,"Ġ}}.\\]":5467,"}&{\\":5468,"}^{-}}":5469,"}\\,[":5470,"Ġone":5471,")}}-":5472,"aba":5473,")|}":5474,"olution":5475,"CAlg":5476,"sible":5477,"}):=(\\":5478,"}_{-}\\]":5479,"))\\}\\]":5480,"}_{,":5481,"))}=\\":5482,")**":5483,")}}-\\":5484,"acc":5485,"\\;(":5486,"800":5487,"yt":5488,"Ġ)|^{":5489,")_{+}^{":5490,"irr":5491,"}:\\{":5492,"})](":5493,"}}||_{":5494,"{<":5495,"))]\\]":5496,")}\\!":5497,")}>\\":5498,"rror":5499,"))=-\\":5500,"EE":5501,":=-\\":5502,"gH":5503,"^{*}}=\\":5504,"ND":5505,"\\|}{\\":5506,"),...,":5507,"Ġ}/":5508,"}<-":5509,"rh":5510,"221":5511,"^{*}\\|":5512,"Ġ\\[{\\":5513,"([-":5514,"range":5515,"ross":5516,"core":5517,"Ġtw":5518,"_{*}^{(":5519,"tB":5520,"{[}-":5521,"nz":5522,"inct":5523,")).\\":5524,"&&&\\":5525,"Ġspan":5526,"}^{+}}\\]":5527,"}]/\\":5528,"sol":5529,"jr":5530,"}^{*}[":5531,"Ġbound":5532,"Ġuniformly":5533,"\\||":5534,"}(.":5535,"}-[\\":5536,"FI":5537,"Kt":5538,"zu":5539,"})|^{\\":5540,"(||":5541,"wv":5542,"Ġcyc":5543,"mf":5544,"}}]_{\\":5545,"}},-":5546,"Ġ})=\\":5547,"BW":5548,"{)}}\\]":5549,"Ġdiff":5550,"_{{}_{(":5551,")}}^{(":5552,"{]}-":5553,"ons":5554,"train":5555,"Crit":5556,"SINR":5557,"Ġcompact":5558,"Ġlarge":5559,"gd":5560,")+{\\":5561,"^{(+":5562,"lation":5563,"Ar":5564,"Ġ33":5565,"}}}{(\\":5566,"]\\}\\":5567,"{\\}}\\\\":5568,"})*\\":5569,"}}}}{{\\":5570,"345":5571,"term":5572,">\\]":5573,"}})/\\":5574,"Ġcc":5575,"},\\;\\;":5576,")}\\;":5577,"}\\;=\\;":5578,"fil":5579,"\\,[":5580,"})_{|":5581,")}}_{":5582,"Kh":5583,"num":5584,"Ġup":5585,"013":5586,")\\,|":5587,"}=+\\":5588,"Sk":5589,"^{\\#}(":5590,"^{*,":5591,"BH":5592,",}\\]":5593,"Ġqu":5594,"{.":5595,"}})<\\":5596,"}\\}^{\\":5597,"Pu":5598,"Sf":5599,"720":5600,"Ġ})(":5601,"ĠSpec":5602,"{((":5603,".}&\\":5604,"}}}}(":5605,")=&":5606,"}}=(-":5607,")\\{":5608,"_{-}^{-":5609,"Ġ80":5610,"!}=\\":5611,"}})).\\]":5612,"(-\\)":5613,"ram":5614,"&...&":5615,"}^{*})-":5616,"}$,}\\\\":5617,"\\|{\\":5618,",(-":5619,",-}(":5620,"Ġ\\[-(":5621,"dsdt":5622,"})\\,=\\,\\":5623,"eth":5624,"UB":5625,"\\}}|\\":5626,"/\\!\\!/":5627,"}^{*})+\\":5628,"mall":5629,"DH":5630,"pj":5631,"fa":5632,"ua":5633,"pb":5634,"orphism":5635,"PE":5636,"},\\,\\,":5637,"}}_{*":5638,"tes":5639,"ann":5640,"Arg":5641,"ximize":5642,"Alt":5643,"iB":5644,"ĠIII":5645,"Ġconst":5646,"Ġar":5647,"uct":5648,"})|\\,":5649,"|\\;\\":5650,")|}\\]":5651,"})=|\\":5652,"}}})^{":5653,")=\\|\\":5654,"ye":5655,"({}^{":5656,"}^{-}+":5657,"Ġsc":5658,"hss":5659,"diamondsuit":5660,"}}{-":5661,"&&&":5662,"Tv":5663,"}))\\|_{":5664,"NF":5665,"Ġelement":5666,"Ġge":5667,"})]-":5668,"\\[\\#\\{":5669,"Ġmn":5670,"245":5671,"fc":5672,"}>(":5673,"\\})^{":5674,"\\,-":5675,"{)}^":5676,"}|}}\\":5677,"TA":5678,"Ġcr":5679,"}),...,":5680,"cw":5681,"ja":5682,"_{-}^{(":5683,",&(":5684,"^{>":5685,"qk":5686,"Ġiz":5687,"\\[\\{|":5688,"025":5689,"}*(":5690,"]}\\\\":5691,"Ġ)\\|_{":5692,"Ġres":5693,"),-\\":5694,")\\,|\\,\\":5695,"ight":5696,")^{*}=":5697,"Su":5698,"Ġ\\%":5699,"]=-":5700,"Ma":5701,"UT":5702,"}})\\|\\":5703,"\\({":5704,"}\\}+":5705,"}}\\,\\|":5706,"}^{-}-":5707,"&-(":5708,"nsubseteq":5709,"ĠDi":5710,"_{*}:":5711,"\\}},\\":5712,"leave":5713,"rz":5714,"),&(":5715,"))]\\":5716,"})})^{":5717,"fib":5718,"RG":5719,"}\\)}":5720,"uy":5721,"}^{*})-\\":5722,"((-\\":5723,"(*":5724,"{|}^{\\":5725,"Ġta":5726,"Ġ})_{":5727,"))|\\]":5728,"}},-\\":5729,"Ru":5730,"mh":5731,"}\\}&\\":5732,"}^{*}).\\]":5733,"\\%\\]":5734,"ĠLe":5735,"Ġev":5736,"Ġred":5737,",..,":5738,"lax":5739,")}\\}\\":5740,"}[-\\":5741,"})|+\\":5742,"Ġ})=":5743,"|&\\":5744,"ĠCom":5745,"Mf":5746,"LF":5747,"ug":5748,"Par":5749,"KN":5750,"norm":5751,"\\(-\\)":5752,"9999":5753,"For":5754,"mL":5755,"\\|^":5756,"&*\\":5757,"Ġdw":5758,"004":5759,"}}^{+\\":5760,"}|\\}\\]":5761,")})(\\":5762,"Ġ)(\\":5763,"ĠCC":5764,"}_{\\{|":5765,"varlimsup":5766,"Ġ\\,(":5767,"Ġopt":5768,"}={":5769,"ĠCH":5770,"}:=-":5771,"mN":5772,"}{-}":5773,"00000000":5774,"RH":5775,"243":5776,"circled":5777,"}\\;(":5778,"Ġpositive":5779,"|[":5780,"}:\\|\\":5781,"+,":5782,"zenge":5783,"epi":5784,"|}{|\\":5785,"{|},\\]":5786,"{]}_{\\":5787,"creasing":5788,"lozenge":5789,"{|}|":5790,",\\!":5791,"CG":5792,"},..,":5793,"Ġ&=(":5794,"}^{!":5795,"Px":5796,"}}{=}\\":5797,"Cs":5798,"}{+}":5799,"))-(":5800,"}_{(-":5801,"sA":5802,"}=\\\\":5803,"hor":5804,"Ġ\\[:=":5805,"ĠAv":5806,"\\[[(\\":5807,"Ge":5808,"Ġ=[\\":5809,"\\[\\|{\\":5810,"Ġ\\[=[":5811,"Ġ})+":5812,"}]]\\":5813,"1001":5814,"WP":5815,"wu":5816,"MI":5817,"hr":5818,")[-":5819,"}})\\|":5820,"))}=":5821,"Ġdm":5822,"\\[-(\\":5823,"Ġsing":5824,"Ġdxdy":5825,"sinc":5826,"Ġsin":5827,"}}(\\|":5828,".\\,\\":5829,"tribu":5830,"127":5831,"AL":5832,"}+||\\":5833,"univ":5834,"**}":5835,"Ġav":5836,"{\\|}\\]":5837,"^{*}(-":5838,"Ne":5839,">-\\":5840,"yn":5841,"{\\{\\":5842,"}}{(-":5843,"}/\\|\\":5844,"}})<":5845,"}^{*}\\}\\]":5846,"CW":5847,"Ġsize":5848,"}\\}\\}\\]":5849,"RV":5850,"\\[=(\\":5851,"AF":5852,"precsim":5853,"GK":5854,"}):=\\{\\":5855,"}\\|<":5856,"})]_{\\":5857,"textcircled":5858,"QR":5859,"Ġba":5860,"}}$":5861,"\\|-\\":5862,"003":5863,"\\}}+\\":5864,"hich":5865,"}^{{}^{":5866,"}}]^{\\":5867,"bad":5868,"ĠdR":5869,"^{+}+\\":5870,";(\\":5871,"Nd":5872,"{{*":5873,")}\\!\\":5874,"^{*}}=":5875,"HL":5876,"aX":5877,"iN":5878,"high":5879,"|}^{":5880,"}{}^{-":5881,"}{{\\":5882,"{\\{}-":5883,"kc":5884,"})_{*}(\\":5885,"\\,;\\":5886,"jq":5887,"Ġ45":5888,"=((":5889,"}))/":5890,"}_{+};":5891,"}{}^{(":5892,"}\\|}{":5893,"})_{*}(":5894,"iven":5895,":&\\":5896,"prim":5897,"AW":5898,"]}}":5899,"Ġord":5900,"}:\\]":5901,"}}))=\\":5902,"one":5903,"Disc":5904,"ption":5905,"|/\\":5906,"Nr":5907,"Pol":5908,"mum":5909,"}\\|{\\":5910,"})&=&":5911,"*}_{":5912,"ulcorner":5913,"}})=(\\":5914,"}}\\},\\]":5915,"{]}\\,.\\]":5916,"fh":5917,")}({\\":5918,"Comp":5919,"aux":5920,"}_{-}":5921,"})&(":5922,"#(\\":5923,"Ġ}})\\":5924,"235":5925,"\\;(\\":5926,")-{\\":5927,")}})\\":5928,"Ġ|_{":5929,"}\\})=":5930,"225":5931,"Eq":5932,"ĠExt":5933,"_{*}}^{":5934,",-}\\":5935,")\\}^{":5936,"vartriangle":5937,"{\\}}\\,.\\]":5938,"Sx":5939,"unlhd":5940,"leftarrows":5941,"|}|":5942,"YY":5943,"})}<":5944,"rightleftarrows":5945,"))[":5946,"ud":5947,"FD":5948,"}:\\;":5949,"sideset":5950,"kz":5951,"Ġimp":5952,"})|}{|":5953,"dI":5954,"}]|\\":5955,"fu":5956,"fv":5957,"erage":5958,"onal":5959,"}}\\,|":5960,"\\}},":5961,"MO":5962,"|}-":5963,",\\,|":5964,",<":5965,"ZZ":5966,"600":5967,"Dt":5968,"})^{[":5969,"iable":5970,"pv":5971,"})_{+}\\":5972,"^{*}}_{":5973,"Ġ1000":5974,"}{$":5975,"^{+}-\\":5976,"Nx":5977,"}))|":5978,"}\\})=\\":5979,"Mr":5980,"}})|^{":5981,"Ġsh":5982,"Ġ42":5983,")})_{\\":5984,"\\[\\{\\{":5985,"mage":5986,"}):(":5987,"ID":5988,"rid":5989,"}_{\\,\\":5990,"}^{+})":5991,"{\\{}|":5992,":-":5993,"TH":5994,"}:=[\\":5995,"ection":5996,"Na":5997,"Spa":5998,"Mx":5999,"Des":6000,"],[\\":6001,"Ri":6002,"dual":6003,"020":6004,"FE":6005,"106":6006,"}^{*}\\,\\":6007,"{]}^{-":6008,"}]=-\\":6009,")+\\|":6010,"}/|":6011,"}]}=\\":6012,"))^{*":6013,"FB":6014,"mension":6015,"EP":6016,"pli":6017,"Ġholds":6018,"ĠNumber":6019,"ĠCT":6020,"}}\\|(\\":6021,"mv":6022,"^{\\#}":6023,"}][\\":6024,"\\|\\|\\":6025,"Ġspace":6026,"\\[=-":6027,"{[}\\,\\":6028,"})\\,(":6029,"}}](":6030,"#_{":6031,"]<":6032,"!\\,":6033,"Ġfix":6034,"}/\\|":6035,":=[":6036,"wa":6037,"},{":6038,"10000":6039,")||^{":6040,"ĠCF":6041,"Ġdom":6042,"Ġcondi":6043,"}^{*}\\|_{\\":6044,"cation":6045,"RHom":6046,"}\\|^":6047,"&*&*\\\\":6048,"Ke":6049,"Val":6050,"Ġsatisfies":6051,">_{":6052,")_{*}\\":6053,"ĠAlg":6054,"Str":6055,"+}(\\":6056,"\\{{\\":6057,"|,|\\":6058,"}))<":6059,")!}.\\]":6060,".}\\\\":6061,"XA":6062,"vs":6063,")}}\\,":6064,"old":6065,"}}={\\":6066,"+\\\\":6067,"ĠTheorem":6068,"{|}\\;\\":6069,"tem":6070,"^{*}|^{":6071,"(.,":6072,"]}^{(":6073,"put":6074,"...\\\\":6075,")\\,|\\":6076,"116":6077,"cally":6078,"KO":6079,"]})":6080,"cost":6081,"Ġ\\[=|":6082,"Ġlin":6083,"!\\!\\!":6084,")^{*}=\\":6085,"Nn":6086,"Ġ\\[=\\|\\":6087,"^{*})_{":6088,"\\|^{-":6089,")\\,,\\\\":6090,")\\,,":6091,"JY":6092,"weak":6093,"))]":6094,"015":6095,"AH":6096,"rw":6097,"Ġcn":6098,";\\;\\;":6099,")})\\\\":6100,"107":6101,"})|>":6102,"DV":6103,"Ġnode":6104,"})^{+}\\]":6105,"117":6106,"}^{+},\\]":6107,"erfc":6108,"textsf":6109,"\\,-\\,":6110,"Ġhom":6111,"Ġgr":6112,"^{{":6113,"246":6114,"thick":6115,"ju":6116,"@@":6117,"PI":6118,"|}+":6119,"{$-$}}":6120,"cite":6121,",*}(\\":6122,"480":6123,"MR":6124,"!(\\":6125,"wz":6126,"))=-":6127,"&[":6128,"Ġ}(-":6129,"cN":6130,"irst":6131,"^{<\\":6132,"^{-}=\\":6133,"}}\\}_{\\":6134,")=((":6135,"103":6136,"115":6137,"147":6138,"}{(-":6139,"))|_{":6140,"};{\\":6141,"Ġ}}-\\":6142,"023":6143,"cg":6144,"rrrr":6145,"))=\\{":6146,")},&":6147,"Cont":6148,"nH":6149,"osition":6150,"}_{+,":6151,"pendent":6152,"_{+})":6153,"Ġlength":6154,"jx":6155,"}^{{":6156,"}^{-}_{\\":6157,"gebra":6158,"_{-})":6159,"fs":6160,"}}/(":6161,"index":6162,"cor":6163,"vmode":6164,"Ġ{[":6165,"}&=-":6166,"leavevmode":6167,"dxdv":6168,"109":6169,"Mul":6170,"}|}=\\":6171,"}^{-}+\\":6172,"}\\|^{-":6173,"We":6174,"146":6175,"Kn":6176,"Ta":6177,"jd":6178,"}}\\,\\,\\":6179,"trianglelefteq":6180,"xs":6181,"Ġ)|\\":6182,"full":6183,"Ġ:=(":6184,"768":6185,"})}).\\]":6186,"Ġ\\}}\\":6187,"}})^{*}\\":6188,"varliminf":6189,"}},\\|":6190,"Ca":6191,"PH":6192,"ren":6193,"ĠProp":6194,"rue":6195,"}}|^{\\":6196,"}_{+},\\]":6197,"|\\}\\]":6198,"Inf":6199,"EX":6200,"Ġdegree":6201,"gra":6202,"sys":6203,"jkl":6204,"emph":6205,"data":6206,"Ġct":6207,"inition":6208,")\\,(\\":6209,"ED":6210,"}{||":6211,"]\\}.\\]":6212,"Ġpath":6213,".},\\]":6214,"{)}^{(":6215,")<(":6216,")}|\\]":6217,")\\!=\\!\\":6218,"Je":6219,"Ġlinear":6220,"Law":6221,"|)|":6222,"^{+}}\\]":6223,")})}{\\":6224,")}{=}\\":6225,"Ġ}}+":6226,")!\\]":6227,"133":6228,"Sc":6229,"fx":6230,"maximize":6231,"^{*}),\\]":6232,")}})\\]":6233,"|}\\,":6234,"}}=\\]":6235,"})|-":6236,"})+|":6237,"}(\\,":6238,"114":6239,"IG":6240,"Ġpt":6241,")\\;\\;\\":6242,"\\[[\\![":6243,"bg":6244,"}&&&\\\\":6245,"IT":6246,"}})\\}\\]":6247,"pT":6248,"Ġ)}^{":6249,"!},\\]":6250,"},\\,\\,\\,":6251,"ĠLip":6252,"Ġ{}^{":6253,"BN":6254,"^{+})":6255,"Ġtot":6256,")_{[":6257,"}:=\\|":6258,"KP":6259,")||_{\\":6260,"}_{+}+":6261,"):=-":6262,"Ġ00":6263,"}\\},\\\\":6264,"gm":6265,"}^{+}\\\\":6266,"$}}_{":6267,"jb":6268,"MB":6269,"}^{-(\\":6270,"^{*}))\\]":6271,"Ġ38":6272,"ule":6273,"^{-}=":6274,"_{-}+\\":6275,"ĠCd":6276,"If":6277,")}_{-":6278,"rdr":6279,"^{*};":6280,"}{*}{\\(":6281,")\\|_":6282,"gph":6283,"^{+}.\\]":6284,"ort":6285,"EH":6286,")^{+}\\]":6287,"324":6288,"\\,+\\,\\":6289,")}-(":6290,"leqq":6291,"375":6292,"}=\\{\\{":6293,"spin":6294,"dic":6295,"+}_{":6296,"scal":6297,"^{!}":6298,"}{-\\":6299,"dev":6300,"Ġpoly":6301,"Poi":6302,"Ġ=\\,\\":6303,"{)}=-\\":6304,"ian":6305,"Ġ\\,,\\":6306,"})}}.\\]":6307,"}},\\;":6308,"tD":6309,",{":6310,"Card":6311,"nil":6312,"total":6313,"}}):":6314,"NK":6315,"igen":6316,"/\\|":6317,"{)}<":6318,"Ġpre":6319,"})\\}":6320,"224":6321,"SY":6322,")]\\\\":6323,"}),\\;\\":6324,"\\}}^{\\":6325,"})\\;,\\]":6326,"gv":6327,"ality":6328,"^{-}-":6329,"QC":6330,"Ġmon":6331,".}}\\":6332,"\\)\\":6333,"}!}":6334,"ky":6335,"}}|(\\":6336,")\\,\\,":6337,"}}}\\,.\\]":6338,"\\}<":6339,"}^{*})(":6340,"EA":6341,"almost":6342,"|\\|\\":6343,";-\\":6344,"}]\\!]\\]":6345,"uz":6346,"maj":6347,"^{*}})\\":6348,"GR":6349,"Ġ=\\]":6350,"\\[\\|[":6351,"DN":6352,"}}))^{":6353,"_{*}}\\]":6354,"^{*}\\}\\]":6355,"}}}{|\\":6356,"_{\\#}\\":6357,"Kx":6358,"^{*}},":6359,"}|\\!|\\!":6360,"*_{\\":6361,"âĢĵ":6362,"118":6363,"_{\\_":6364,"^{*}))\\":6365,"}},...,\\":6366,"llcorner":6367,"}]:":6368,"xleftrightarrow":6369,"|:":6370,"Ġ}\\;\\":6371,"{/}":6372,"}}}<\\":6373,"175":6374,"Ġform":6375,"})&-":6376,"wor":6377,"city":6378,"}})&":6379,"9998":6380,"}<...":6381,"Ġ{*}":6382,"\\,_{":6383,"\\}},\\]":6384,")|-|":6385,"Te":6386,"uk":6387,"Ġhave":6388,":\\!\\":6389,"}_{*,":6390,"Ġ_{+":6391,"EF":6392,"})\\,|\\,\\":6393,"^{**}(":6394,"Ġ128":6395,"cusp":6396,"Ġir":6397,"}}(\\|\\":6398,"})]+":6399,"aut":6400,"008":6401,"zero":6402,"}}:=(\\":6403,"}\\,\\}\\]":6404,"}|_{(":6405,"deal":6406,"Ġstrongly":6407,"}^{*}=(":6408,"}}:=(":6409,"NO":6410,"}]}.\\]":6411,"bigstar":6412,"Ġcan":6413,"hm":6414,")\\;=\\;":6415,"Ġpoints":6416,"_{;":6417,"cT":6418,"00000":6419,"ER":6420,"}}^{*}=\\":6421,"Ġ\\|(":6422,"^{-}+":6423,"teri":6424,"Ġ+(\\":6425,"][\\":6426,"\\[[-\\":6427,"-[\\":6428,"{\\{}\\|":6429,"ĠAC":6430,"}})]\\]":6431,"333":6432,"$}^{\\":6433,"rcll":6434,"yu":6435,"|^{-(":6436,"loop":6437,"{)}=(":6438,"FL":6439,"strongly":6440,"|)(":6441,"}\\|,\\":6442,")},\\,":6443,"Ck":6444,"ret":6445,"\\({}^{":6446,")\\}}\\":6447,"nw":6448,"\\}|":6449,"^{*}},\\":6450,"Ġ94":6451,"{(}(-":6452,"})}\\|_{":6453,"\\}:\\":6454,"DX":6455,",-)\\":6456,"}^{[-":6457,"supsetneq":6458,"Ġwe":6459,"}}}\\|_{":6460,"Ġconnected":6461,"{``":6462,"}}=\\{(":6463,"\\;,\\":6464,"432":6465,"dependent":6466,"ĠOp":6467,"})|=|\\":6468,"{+}\\":6469,"}\\{(\\":6470,"-},":6471,"|}=":6472,"Ġcol":6473,"Ġsim":6474,"006":6475,",-(":6476,"Ġ90":6477,"})}=\\|":6478,"Ġap":6479,"kL":6480,")+[":6481,"])^{\\":6482,"FA":6483,"{)}}":6484,"\\,)\\":6485,"MV":6486,")|)\\":6487,"143":6488,"}:&":6489,"}}=|":6490,")\\|=":6491,"tN":6492,"142":6493,"|<|":6494,"))\\|_{\\":6495,"137":6496,")):\\":6497,"}},\\|\\":6498,"}_{-},\\":6499,"}.\\\\":6500,"}_{*},\\":6501,"}}\\,{\\":6502,"RW":6503,"})}>":6504,"576":6505,"Aw":6506,"}\\}|\\":6507,"119":6508,"Poly":6509,"nD":6510,"}|)^{\\":6511,"*,":6512,"use":6513,"))}+\\":6514,"ĠCE":6515,");(":6516,"}]&\\":6517,"DU":6518,"omeo":6519,"quare":6520,"}=[-":6521,"ood":6522,")}=\\|":6523,"\\%)":6524,"Ġ41":6525,"\\[+(":6526,"mes":6527,"Ġ\\[=|\\":6528,"_{\\,\\":6529,"ĠCA":6530,"$}_{\\":6531,"succcurlyeq":6532,"nse":6533,"null":6534,"PW":6535,"}&:=":6536,"})|+|\\":6537,"Ġ}),\\]":6538,"Ġ=-(":6539,".}&":6540,"}]:=\\":6541,"dudv":6542,"]))\\]":6543,"};-":6544,"{]}<\\":6545,"measure":6546,"}}\\,(\\":6547,"nP":6548,"}\\}=\\{\\":6549,"}^{+,":6550,"ying":6551,")}\\.\\]":6552,"sity":6553,"!}+\\":6554,"limit":6555,"138":6556,")|-\\":6557,"})^{(\\":6558,"Ġ^{(\\":6559,"})}^{-":6560,"167":6561,"))^{-\\":6562,"}\\|>":6563,".-":6564,"bit":6565,")\\),":6566,"45276":6567,"}^{*}),\\":6568,"med":6569,"},\\,\\,\\":6570,"\\,^{\\":6571,"Ġ+|":6572,"Ġdim":6573,"fork":6574,"905512":6575,"))\\,,\\]":6576,"))>\\":6577,"Ġ39":6578,"sI":6579,"845276":6580,"})}.\\":6581,"tC":6582,"Ġsolution":6583,"Ġ96":6584,"TE":6585,"nel":6586,"MK":6587,"})}\\,,\\]":6588,"lh":6589,"))}{(":6590,"165":6591,"Ġ95":6592,"Ġdistinct":6593,"rat":6594,"{|}<\\":6595,"129":6596,"_{*})^{":6597,"ĠBS":6598,")\\!=\\!":6599,"}|<|":6600,"130":6601,"})+\\]":6602,"Pre":6603,"Ġ}}=\\":6604,"gu":6605,"})|<":6606,"\\}\\.\\]":6607,"_{/":6608,"\\|[":6609,"280":6610,"rely":6611,"189":6612,"Ġ}}_{\\":6613,"lag":6614,"PSh":6615,"Ġ$|":6616,"VR":6617,"lv":6618,"{\\}}+\\":6619,"176":6620,"*(\\":6621,"}[\\{":6622,"}&...&":6623,")}^":6624,"{|(":6625,"}\\|_{(":6626,"}|},\\]":6627,"Ġprop":6628,"kG":6629,"}_{+}=\\":6630,"236":6631,"AQ":6632,"OC":6633,"ĠTV":6634,"Ġ44":6635,"$}}}":6636,"}|).\\]":6637,"Sht":6638,"}>\\]":6639,"Lx":6640,"\\[\\{{\\":6641,"}>-":6642,"^{\\#}\\":6643,"TW":6644,"ĠEx":6645,")\\:":6646,"}\\,^{\\":6647,"Ġcomponent":6648,"\\|}\\]":6649,"\\|)\\":6650,"IndCoh":6651,"Ġ}{|":6652,")\\,.\\":6653,"Se":6654,")}\\,,\\":6655,"}\\!\\!\\!":6656,")|^":6657,"162":6658,"xb":6659,"[\\!\\":6660,"Ġbc":6661,"mK":6662,"get":6663,"ĠInd":6664,"152":6665,"VV":6666,"}}[-":6667,"Dir":6668,"Ġus":6669,"}}\\|\\]":6670,"}\\|}{\\":6671,"Prox":6672,"metric":6673,"169":6674,"}})[":6675,"\\|>":6676,"tices":6677,")\\}_{\\":6678,"{|}_{(":6679,"148":6680,"''":6681,"]]_{":6682,"_{+\\":6683,"131":6684,"(\\!\\":6685,"^{*}})\\]":6686,"}}}{\\|":6687,")\\,=\\":6688,"|)+":6689,"_{-}}(":6690,"Ġmulti":6691,"stance":6692,"ĠCl":6693,"\\|)\\]":6694,"^{*})}{":6695,")}\\{":6696,"Nis":6697,"XB":6698,"}({}^{":6699,"ĠdX":6700,"(||\\":6701,"Ġ{|\\":6702,"Ġca":6703,"&{\\":6704,"Ġ49":6705,"ced":6706,"Ġ\\[=:\\":6707,"|}|\\":6708,"}]\\)":6709,"}^{-}-\\":6710,"varPsi":6711,"pitch":6712,".}}{{\\":6713,"ĠLi":6714,"}|&\\":6715,"CY":6716,"Pri":6717,"rder":6718,"Ġjk":6719,"EL":6720,"})\\|+\\":6721,":\\]":6722,"|\\,.\\]":6723,"196":6724,"whenever":6725,"}})\\,.\\]":6726,"Lk":6727,"|),\\]":6728,"dj":6729,"see":6730,"ĠTx":6731,"{|}+":6732,"Ġpri":6733,"^{*}}-":6734,"ten":6735,"Ġ\\[\\{":6736,"_{*}}(\\":6737,"Ġ\\.\\]":6738,"}{=}":6739,"sph":6740,")}}{|":6741,"Trace":6742,"201":6743,"$}(":6744,"}^{-})^{":6745,"otal":6746,"|}}{":6747,"Corr":6748,"IA":6749,"âĢĻ":6750,"Ġgenera":6751,"urcorner":6752,"}\\,:=\\,\\":6753,"}^{\\{\\":6754,"}}})=":6755,"}\\}-\\":6756,"}\\|}\\]":6757,"})]^{-":6758,"py":6759,"Inn":6760,"rou":6761,")}{\\|\\":6762,"^{-}}(":6763,"ĠBC":6764,"skew":6765,"Ġsup":6766,"eld":6767,"_{*})=":6768,"-}^{\\":6769,"Ġdp":6770,"_{-}-\\":6771,"Ġ43":6772,"Ġelse":6773,"Ġ^{*}":6774,"}^{*}\\,":6775,"tical":6776,"|)\\,":6777,"GG":6778,"})}(-":6779,"}|=(":6780,"xI":6781,"\\[{}^{(":6782,"|}-\\":6783,"exc":6784,"}}<+\\":6785,"oslash":6786,"}}:=\\{\\":6787,"xh":6788,"Ġdet":6789,"]\\!]":6790,"\\[\\{-":6791,"Ef":6792,"Ku":6793,"-)\\":6794,"Ġnp":6795,"};[":6796,"]{}\\":6797,"aug":6798,"Dx":6799,"}}}:\\":6800,")_{+}\\]":6801,"Case":6802,"=\\\\":6803,"220":6804,"Ġwhich":6805,"}<-\\":6806,"):[":6807,"TD":6808,"ass":6809,")\\,:\\,\\":6810,"pitchfork":6811,"dC":6812,"})_{[":6813,"\\,)\\]":6814,"{\\|}(\\":6815,"}&:=\\":6816,"Ġsi":6817,"hort":6818,")\\|<\\":6819,"erence":6820,"\\!:\\!":6821,"Ġ)|":6822,"JS":6823,"\\,;\\,":6824,"Unif":6825,")})}":6826,"}|},\\":6827,"]+(":6828,"}}):\\":6829,"}),{\\":6830,"{}^{*}\\":6831,"/[":6832,"}&|":6833,"ĠCL":6834,"))),\\]":6835,"Ġreal":6836,"dangle":6837,"}$}\\]":6838,"{)}}.\\]":6839,"{(}\\{\\":6840,"measuredangle":6841,"RK":6842,"Ġ{*}(":6843,"})}[\\":6844,"ĠRic":6845,"}^{{}^{(":6846,"))\\|^{":6847,"}:&\\":6848,"]}[":6849,"Ġsquare":6850,"_{*}.\\]":6851,"iL":6852,"{\\{}\\,":6853,")}_{[":6854,"Ġ)_{\\":6855,"024":6856,"Cd":6857,"JK":6858,"}\\}]\\]":6859,"}^{*})+":6860,"Ġclosed":6861,"Mp":6862,")}})":6863,"=+\\":6864,"_{*}\\|_{":6865,"acl":6866,"Ġmo":6867,"}}\\;,\\]":6868,"Nq":6869,"cell":6870,"({}_{":6871,"}}...\\":6872,"^{*}_{(":6873,"uq":6874,"orithm":6875,")]}{":6876,"GU":6877,"Ġ47":6878,"}}})=\\":6879,"315":6880,"GT":6881,"Ġ\\[[\\":6882,"Ġsurely":6883,"ues":6884,"{||\\":6885,":=\\;\\":6886,"({}^{\\":6887,"rT":6888,"}]},\\":6889,"}*(\\":6890,"|(|":6891,"}}^{+}":6892,"{]}(\\":6893,")])\\]":6894,"Ġinv":6895,"!|":6896,"199":6897,"|}\\,\\":6898,"\\{+\\":6899,"ivale":6900,"}:={\\":6901,"{)}&":6902,"\\}=\\{\\":6903,"}}}(-":6904,"{>":6905,"}))&\\":6906,"\\[\\||":6907,"{{*}}{{\\":6908,"-,":6909,"ant":6910,"...+":6911,"ential":6912,"^{-})":6913,"Rel":6914,"Kl":6915,"(((":6916,"dJ":6917,"{\\#\\":6918,"hift":6919,"alt":6920,"UC":6921,"^{+\\":6922,"qf":6923,"inal":6924,"Ġfd":6925,"Ġpair":6926,"ĠYes":6927,"tharpoons":6928,"^{-})^{":6929,"625":6930,"{)}+(":6931,"356":6932,"Ġ_{*":6933,"mg":6934,"\\}]\\]":6935,"])_{":6936,"Ġconvex":6937,"Ġtrue":6938,"Ġ}))\\":6939,"}^{*}|":6940,",*}":6941,"_{+}}\\]":6942,"Ġ*}":6943,"/\\,":6944,"KU":6945,"+||":6946,"jN":6947,"sqsubset":6948,"Ġiff":6949,"}}[(\\":6950,"OR":6951,"lay":6952,"}\\}\\,.\\]":6953,";\\;\\;\\":6954,"]\\;":6955,"}]+[\\":6956,"yw":6957,"AY":6958,"Ġ:=-\\":6959,"1728":6960,"LN":6961,"qd":6962,"\\{+":6963,"RHS":6964,"}\\})":6965,"hs":6966,"Ġ72":6967,"HA":6968,"})&-\\":6969,"Ġ98":6970,"#\\{\\":6971,"{{}^{":6972,"wf":6973,"}})]\\":6974,")}_":6975,"Ġfree":6976,"Ġ500":6977,"ĠSh":6978,"_{*})=\\":6979,"vf":6980,"mat":6981,"{=}\\":6982,"Ġ^{*":6983,"{(|":6984,"xxxx":6985,"etwe":6986,")})\\|_{":6987,"})\\,=\\,":6988,"etween":6989,"The":6990,"}},\\;\\":6991,"Ġ46":6992,")},...,":6993,"vy":6994,"})\\}_{\\":6995,")|}{|\\":6996,"Ba":6997,"}}\\,\\|\\":6998,",*}_{":6999,"\\,=\\":7000,"Ġdiam":7001,"}\\|=\\|\\":7002,"dtdx":7003,"Hz":7004,"960":7005,"Ord":7006,"Ġzero":7007,"QT":7008,"ĠAu":7009,"rightlef":7010,"rightleftharpoons":7011,"}}_{{\\":7012,"007":7013,"{=}":7014,"}|}+\\":7015,"Ġpq":7016,"$};\\\\":7017,"})|,\\]":7018,"}+\\{":7019,"}:=|":7020,"~{":7021,"Curl":7022,"cent":7023,"}^{*}\\|\\":7024,"Dis":7025,"bh":7026,")}\\;\\":7027,"Ġresp":7028,"276":7029,"}_{[-":7030,"GA":7031,"mation":7032,"ĠNS":7033,"Homeo":7034,"gk":7035,"Ġcu":7036,"Ġleft":7037,"}}}).\\]":7038,"}&=(":7039,"fore":7040,"then":7041,"\\}\\}.\\]":7042,"})<+\\":7043,"qe":7044,"Ġ\\,\\]":7045,"KG":7046,"]),":7047,"Ġ}\\|^{":7048,"Ġ}},":7049,"Ġ(|":7050,"_{+}\\\\":7051,"Ġ})^{-":7052,"|}}":7053,"}})},\\]":7054,"}^{*}/":7055,"Ġtran":7056,"cts":7057,"}<...<":7058,"VI":7059,"tible":7060,"Cay":7061,"Ġfixed":7062,"\\}})\\]":7063,"Ġroot":7064,"HN":7065,")|\\\\":7066,"Ġ\\,\\,\\":7067,"))\\|\\":7068,"154":7069,"{{}_{":7070,":=\\,":7071,"]}{[":7072,"})|}{\\":7073,")})}\\]":7074,"adm":7075,",-)\\]":7076,"}\\}\\)":7077,"LHS":7078,"...&...&":7079,"!}\\,\\":7080,"}})|_{":7081,"}\\|\\,":7082,"Ht":7083,")\\,:=\\,\\":7084,"GE":7085,"{\\}}+":7086,"{|}>\\":7087,"}})+(":7088,"}|\\{":7089,"^{**}\\":7090,"mark":7091,"cial":7092,"LO":7093,"amp":7094,"Ġcd":7095,"_{+,\\":7096,"Ġvector":7097,")}\\,\\]":7098,"}})}(\\":7099,"hn":7100,"208":7101,"break":7102,"ĠDf":7103,")\\|=\\":7104,"aA":7105,"nomial":7106,"}\\}-":7107,"ĠCk":7108,")]=[":7109,"Ġ)}(\\":7110,",>":7111,"Ġwhenever":7112,"Ġvalue":7113,"}}^{*},\\":7114,"omorphism":7115,"ain":7116,"^{*}\\,\\":7117,"Bz":7118,"Ġ};":7119,"}}],\\":7120,"):=|":7121,"})}{\\|":7122,"{]}.\\":7123,")],":7124,"TB":7125,"}_{+}}(":7126,"Ġgraph":7127,".(\\":7128,"raint":7129,"{\\}}\\,":7130,"})(-\\":7131,"post":7132,")}}\\,\\":7133,"})],\\":7134,"nM":7135,"fw":7136,"Ġsmall":7137,"Ġ}},\\]":7138,"Ġen":7139,"normal":7140,"^{+}}^{\\":7141,"]\\.\\]":7142,"^{+}}{":7143,"Ġ}}-":7144,"})=\\|\\":7145,"rect":7146,"Ġproj":7147,"Rc":7148,"\\|-":7149,"$}}}\\":7150,"Quot":7151,"_{[-\\":7152,")[(":7153,"Bv":7154,"}\\,;\\,":7155,"+_{":7156,"Ag":7157,"conn":7158,"034":7159,"Td":7160,"NB":7161,"Ġker":7162,"}}|=\\":7163,"otop":7164,"efficient":7165,"^{*}}.\\]":7166,"Ġdg":7167,"}>-\\":7168,"kv":7169,"DW":7170,"223":7171,"}^{\\#}\\":7172,"kQ":7173,"qy":7174,"}^{*})}\\":7175,"Ġ&&&&\\":7176,"Ġfi":7177,"clo":7178,"que":7179,"ĠMod":7180,"157":7181,"pz":7182,"_{!}(":7183,"}=\\{[":7184,"^{*-":7185,"Ġ\\(|\\":7186,"Ġend":7187,"Ġ+\\|\\":7188,"886":7189,"Ġ&=-":7190,"Hu":7191,"Ġ\\[>\\":7192,"Hg":7193,"tl":7194,"{)}\\.\\]":7195,"]\\!]_{":7196,"FR":7197,"}},[":7198,"}+\\|(":7199,"_{*}[":7200,"oin":7201,"}^{-})":7202,"{,}\\\\":7203,"\\,\\,\\,":7204,"hc":7205,"=&\\":7206,"}]}=":7207,"}}:(":7208,"varia":7209,"Wh":7210,"^{*}}+":7211,"]})=\\":7212,"}}],\\]":7213,"}^{*}\\)":7214,"RN":7215,"Ġ*}(":7216,"TU":7217,"ĠCK":7218,"(-(\\":7219,"Ġnx":7220,"}[\\![\\":7221,"vial":7222,"}]}^{":7223,"}_{+};\\":7224,"Ġ*&":7225,"Ġparameter":7226,"}\\;:\\;":7227,"}\\}}{\\":7228,"})}}(":7229,"018":7230,"DK":7231,"ZF":7232,"qb":7233,"})&=&\\":7234,"Ġ:=\\{\\":7235,"Ġ70":7236,"567":7237,"tera":7238,"Ġvertex":7239,"248":7240,"Ġequivale":7241,"}+(-\\":7242,"Ġ};\\":7243,"Nk":7244,"})^{*}=":7245,"}\\,-\\,":7246,"Ev":7247,"tI":7248,"))}+":7249,")\\|.\\]":7250,"Ġ)}.\\]":7251,"ĠCase":7252,"\\!(":7253,"aI":7254,"tol":7255,"729":7256,"glob":7257,"149":7258,"})[-":7259,"EV":7260,"Ġess":7261,"Gen":7262,"232":7263,"dyd":7264,"yv":7265,"Ġ;\\]":7266,"):=\\{(":7267,"):|":7268,"-}\\]":7269,"Mt":7270,"itt":7271,")&:=\\":7272,"QM":7273,"lative":7274,"560":7275,"5000":7276,"land":7277,"{\\{}\\|\\":7278,"dep":7279,"}\\,[\\":7280,"Ġ([":7281,"})}{\\|\\":7282,"\\[\\{\\,":7283,"184":7284,"(+":7285,"point":7286,"ling":7287,")}}}{{\\":7288,"qm":7289,"fold":7290,"nC":7291,"\\|_{[":7292,":=\\!\\":7293,"<\\,":7294,"Bmatrix":7295,"153":7296,"Ġmaxi":7297,"}\\,+\\":7298,"}}}{\\|\\":7299,"iI":7300,"{\\}}\\,\\":7301,"\\}\\{":7302,".&\\":7303,"CX":7304,"}\\{|\\":7305,"})+(-":7306,")^{\\#":7307,")!}{\\":7308,"Ġdata":7309,"}{{":7310,"}:\\;\\":7311,"})\\|=\\":7312,"\\}&":7313,"cfrac":7314,"ory":7315,"Ham":7316,"IH":7317,"RU":7318,"_{{(":7319,"155":7320,"}||\\]":7321,"];\\]":7322,"aN":7323,"}})}=\\":7324,"}_{\\!":7325,")\\!.\\]":7326,"Ġleast":7327,"}}^{*})\\":7328,"}\\,{":7329,"_{+}.\\]":7330,"Ġ}]":7331,"Ġ54":7332,"eqqcolon":7333,"tional":7334,"336":7335,"=\\{(\\":7336,"order":7337,"139":7338,"228":7339,"))}(\\":7340,",+}^{":7341,"})!":7342,"}\\|)\\]":7343,"]_{(":7344,"])}\\]":7345,"Ro":7346,"\\}\\!\\":7347,"_{.":7348,"159":7349,")}}|":7350,"^{*}}+\\":7351,"}:=\\|\\":7352,"ves":7353,"TQ":7354,"Ġ&(\\":7355,"}_{*})\\":7356,"LA":7357,"Ġtri":7358,"}}),(":7359,"Ġinfinite":7360,"ĠVol":7361,"],&\\":7362,")*(":7363,"Ġ}]\\":7364,"ĠSet":7365,"Ġinteger":7366,"Ġsubset":7367,"}))).\\]":7368,"}\\|)\\":7369,"ĠPr":7370,"}_{*}}\\":7371,"Ġli":7372,"iX":7373,"Ġgrad":7374,"liz":7375,"\\,{":7376,"])+":7377,"\\[[\\![\\":7378,"}:=\\{(\\":7379,"kR":7380,"})})=":7381,"017":7382,"{)}/":7383,"ĠError":7384,"uniformly":7385,"{--":7386,"kM":7387,"Ġsol":7388,"Ġmeasurable":7389,"Ġdistribu":7390,"dD":7391,"|\\,|":7392,"}}&(":7393,"Vu":7394,"Hdg":7395,"}\\}}{":7396,"Lt":7397,"{)}:=\\":7398,"Lv":7399,"}}^{+}(\\":7400,"]^":7401,"\\}),\\]":7402,"1011":7403,"Si":7404,"})\\,:\\,":7405,"{)}\\|_{":7406,"ĠNC":7407,"1498":7408,"^{*(":7409,"])+\\":7410,"))},\\":7411,"Ġfac":7412,"stable":7413,"})}}{{\\":7414,"Ġnew":7415,"mD":7416,"JJ":7417,"},\\,-":7418,"unc":7419,"Ġ113":7420,"|),\\":7421,"019":7422,".}}}{{\\":7423,"}}\\,=\\,\\":7424,"|}{(":7425,"255":7426,"}*|":7427,"SQ":7428,"}\\}(":7429,"Ns":7430,"^{+}}^{":7431,"Ġ93":7432,")-(-":7433,"{)}\\;":7434,"ĠVal":7435,"opp":7436,"Ġrad":7437,"^{*}]":7438,"+\\;\\":7439,"Ġ{}^{\\":7440,"}&\\|\\":7441,"Ġ97":7442,")}^{(\\":7443,"KH":7444,"pg":7445,"Spc":7446,"oi":7447,"Ġph":7448,"Ġ&&-":7449,"ME":7450,"\\,^{":7451,"\\,\\{":7452,"}_{=":7453,"rN":7454,"<\\!":7455,"166":7456,"Ġ\\#\\":7457,"021":7458,"))^":7459,"Ġxx":7460,"})^{*}=\\":7461,")]\\,":7462,")}}\\\\":7463,"tK":7464,"]}}\\]":7465,"164":7466,"hb":7467,"Ġbi":7468,"redu":7469,"nI":7470,"constant":7471,"&(-":7472,"|_":7473,"})\\}^{":7474,"code":7475,",+}(\\":7476,"-}(\\":7477,"Zar":7478,"]|^{":7479,"mean":7480,"})=\\\\":7481,"Ġ+\\|":7482,"TY":7483,"||(":7484,"Ġ\\[=\\{":7485,"Kf":7486,"Dec":7487,"_{+})^{":7488,"Ġright":7489,"}&*\\\\":7490,"Rot":7491,"hocolim":7492,"}}=|\\":7493,"^{+})=":7494,"NI":7495,"Term":7496,"|)=\\":7497,"})))=":7498,"}^{*}>":7499,"Ġvariable":7500,"lessdot":7501,"}^{*}),\\]":7502,")_{|\\":7503,"\\[[{\\":7504,"}(:,":7505,"...&\\":7506,")}||":7507,"368":7508,"$,}\\]":7509,"_{+}}{\\":7510,"Ġgiven":7511,"bigodot":7512,"009":7513,"{\\{}\\,\\":7514,"233":7515,"},\\,(":7516,")};\\]":7517,"198":7518,"}))]\\]":7519,"TG":7520,"Ġ}\\{\\":7521,"\\}\\}\\":7522,"}}}:=\\":7523,"ĠHS":7524,"Ġmodel":7525,"ReLU":7526,"})=:":7527,"\\|_{-":7528,"Ġ55":7529,"})):":7530,"ĠMethod":7531,"ĠRF":7532,"rand":7533,"!\\,\\":7534,"|}}{\\":7535,"value":7536,"}]\\!]\\":7537,"nor":7538,"^{!}_{":7539,"026":7540,"})+{\\":7541,"AJ":7542,"}\\,-\\,\\":7543,"}&\\|":7544,"})\\,{\\":7545,"Ġ}),":7546,"mot":7547,"163":7548,"Mn":7549,"}|/\\":7550,"420":7551,"Nh":7552,"Ġmean":7553,"\\}}_{":7554,"PX":7555,"anti":7556,"Type":7557,"cL":7558,"_{<\\":7559,")-|\\":7560,"tail":7561,"}))/\\":7562,"Ġ01":7563,"ges":7564,"Kr":7565,"Ġ256":7566,"_{**":7567,")}|_{\\":7568,"bulk":7569,"Ġindependent":7570,"Dr":7571,"Mo":7572,"_{|_{":7573,"{|}\\!\\":7574,"CU":7575,"}/|\\":7576,"Frac":7577,"ĠLie":7578,"))\\;":7579,"{\\{}|\\":7580,"YM":7581,"Hx":7582,"}}\\,|\\":7583,"}]\\,.\\]":7584,"158":7585,"\\|_{(\\":7586,"}+...+\\":7587,"Soc":7588,"{)}\\,\\]":7589,")\\})\\]":7590,"Ġapp":7591,")=(-\\":7592,"{)}\\,,\\":7593,"=(-\\":7594,"|)^{-\\":7595,"gative":7596,"iD":7597,"]}{(":7598,"iid":7599,"&\\,":7600,"})_{\\#}\\":7601,"GO":7602,"}^{*}[\\":7603,"})=\\|":7604,"}]&":7605,")](\\":7606,"}}^{*})\\]":7607,"Ġtwo":7608,"\\},\\,":7609,"\\}})\\":7610,"},(-":7611,"Ġimplies":7612,"}$}.\\":7613,"ĠKL":7614,"}}),\\\\":7615,"_{\\!\\!":7616,"358":7617,"Mu":7618,")([":7619,"mT":7620,"ĠdA":7621,"ĠdS":7622,"ion":7623,"Ġsv":7624,"^{++":7625,"178":7626,"PO":7627,"}^{*}|^{":7628,",{}^{":7629,")}_{(\\":7630,"^{*}]\\":7631,"qj":7632,"EI":7633,"Net":7634,"}}=:":7635,"Ġhy":7636,"\\[\\#(":7637,"Ġ}\\|_{\\":7638,"Jv":7639,"Ġ})}{":7640,"257":7641,"}=((\\":7642,"ĠDiff":7643,")>(":7644,"\\[*\\]":7645,"|+(":7646,"}),[":7647,"Obj":7648,"}\\|_{-":7649,"+(-\\":7650,")},\\,\\":7651,"Norm":7652,"Sw":7653,"})-{\\":7654,"})_{+}^{":7655,"Ġ)/":7656,"Range":7657,"]\\,,\\":7658,"nat":7659,"}))},\\]":7660,"^{*}})":7661,"}\\,;\\":7662,"}=({\\":7663,"}))=(\\":7664,"BX":7665,"}\\}}(\\":7666,"trict":7667,"252":7668,"}^{+}}{":7669,"};-\\":7670,"dig":7671,"}]}|":7672,"}\\}).\\]":7673,"}\\|_{*":7674,"/{\\":7675,"Ġ\\&":7676,"NH":7677,"lic":7678,";\\{":7679,"<\\,\\":7680,"Cp":7681,"Ġsequ":7682,"}}}:":7683,"})_{+}\\]":7684,"No":7685,"LK":7686,"|})\\]":7687,"}^{*,\\":7688,"cause":7689,"}]:\\":7690,"}\\|\\,\\":7691,"Ġ\\(\\|":7692,"Ju":7693,"]}}(":7694,"}}}}(\\":7695,"_{-}}\\]":7696,"tP":7697,"}<_{":7698,"|:=\\":7699,"014":7700,")}&=\\":7701,"Ġrel":7702,"Ġ^{*}(":7703,"})]\\\\":7704,"504":7705,"}}]}\\":7706,"],\\,\\":7707,"_{*}}{\\":7708,"^{*}[\\":7709,"}}^{{}^{\\":7710,"}{\\(":7711,"Ġdd":7712,"})})=\\":7713,"sure":7714,"xc":7715,"}].\\":7716,"sic":7717,"Ġms":7718,"Ġ}}|":7719,"}|}(\\":7720,"WW":7721,"}}\\,\\,":7722,"Ġeigen":7723,"Ġdefined":7724,"|)=":7725,"^{*}}-\\":7726,"})}:":7727,"}_{{":7728,"aT":7729,"}_{-}^{\\":7730,"tT":7731,"$,}\\":7732,"uh":7733,"Ġcondition":7734,"])=[":7735,"|=(":7736,"Ġ|}\\":7737,"ijl":7738,"\\};\\":7739,"Ġ\\(|":7740,"Ġmini":7741,"blem":7742,"$}}}{\\":7743,"\\}|=":7744,")>-\\":7745,"path":7746,"(+\\":7747,"qv":7748,"\\|}":7749,"_{++":7750,"Sz":7751,"Ġsum":7752,")+\\|\\":7753,"\\||\\":7754,"nA":7755,"_{((":7756,"Ġ\\[+(-":7757,")=-(\\":7758,"640":7759,"tV":7760,"Ġ}}=":7761,")]}{\\":7762,"Dist":7763,"ĠParameter":7764,"/\\,\\":7765,"})\\{":7766,"]}}{":7767,"Ġstr":7768,"Fx":7769,"(\\!":7770,"orel":7771,"^{+},\\]":7772,"GN":7773,"mdim":7774,")),(":7775,")}=[":7776,"Ġadj":7777,"]))\\":7778,"}}}<":7779,"QA":7780,"Graph":7781,")!!":7782,"Ġ\\[:=\\":7783,"Ġ((\\":7784,"club":7785,"Gap":7786,"geo":7787,"}}+\\]":7788,"eh":7789,"iY":7790,"|)}{":7791,"):=[":7792,")-[":7793,".}}}{{=}}\\":7794,"_{-})^{":7795,"^{+})=\\":7796,"blacktriangle":7797,"Ġ))^{":7798,"}^{+}:=\\":7799,")]}":7800,"}}\\,|\\,":7801,")}([":7802,"variant":7803,"ET":7804,"Ġsmooth":7805,"Rank":7806,"\\}^{-":7807,"qT":7808,"\\;=\\;\\":7809,"odic":7810,")),&\\":7811,"}(-(":7812,"ton":7813,"}:=|\\":7814,"Up":7815,"ric":7816,"ĠOrder":7817,"\\,,&\\":7818,"ĠHF":7819,"\\|\\\\":7820,"Ġind":7821,"346":7822,"]})=":7823,"geom":7824,"035":7825,"ning":7826,"}))\\,.\\]":7827,"Ġ120":7828,"{]}\\,,\\]":7829,"|)+\\":7830,"kA":7831,"045":7832,"\\[>":7833,"Maps":7834,"\\,\\|_{":7835,"^{+}\\\\":7836,"}^{+})=\\":7837,"1212":7838,"_{*,\\":7839,"Ġ]{":7840,"^{+}}(\\":7841,";|":7842,"BO":7843,"either":7844,"!},\\":7845,"),|":7846,"^{-}}^{":7847,"Ġ}}{(":7848,")|&\\":7849,"\\},&\\{":7850,"}|\\!":7851,"Ġ92":7852,"Ln":7853,"SK":7854,"_{*}|\\":7855,"{)}=-":7856,"Ġ\\[+\\|\\":7857,"lct":7858,"sian":7859,"}.(":7860,"\\[([\\":7861,")(|\\":7862,"wy":7863,"\\[\\|[\\":7864,"cyl":7865,"Ġga":7866,"&-&-":7867,"}&&&&\\\\":7868,"Ġ\\[=\\,\\":7869,"}}^{(-":7870,",&|":7871,"peri":7872,"Ha":7873,"Ġrk":7874,"}}}+\\|":7875,"=-(\\":7876,"]}\\,\\":7877,"))\\)":7878,",+}":7879,"Ġax":7880,"}}})^{\\":7881,"170":7882,"304":7883,")}]=":7884,"}}^{-}\\]":7885,"}]>":7886,"}}_{=":7887,"|},":7888,"}]),\\]":7889,"blacktriangleright":7890,"HR":7891,"}}(\\{\\":7892,")|)\\]":7893,"}),-":7894,"}*}\\":7895,"........":7896,"})),\\\\":7897,"Scal":7898,"Ġconver":7899,"Ġ\\|(\\":7900,"FX":7901,")+\\\\":7902,"}}^{*},":7903,"177":7904,"my":7905,"KB":7906,"base":7907,"FV":7908,"}&+":7909,"):(\\":7910,"eighbo":7911,"^{*};\\":7912,",...\\]":7913,"_{*}|^{":7914,"149815":7915,"\\};":7916,"real":7917,"Ġ65":7918,"}=[(":7919,"\\[(*":7920,"}}).\\":7921,"Ġ\\((-":7922,"mz":7923,"Ġce":7924,"Ġbetween":7925,"328":7926,"ĠSt":7927,"}\\;(\\":7928,"{\\}}^{\\":7929,"Ġ81":7930,"])}":7931,"}})=-\\":7932,"RX":7933,"iP":7934,"}_{+})}\\":7935,"999863":7936,"HB":7937,"}^{<\\":7938,"fill":7939,"]\\,\\]":7940,"fb":7941,"finite":7942,"}^{+})=":7943,"stat":7944,"270":7945,"pN":7946,"}})=\\{":7947,"}}})_{":7948,"},\\;\\;\\":7949,"187":7950,"Add":7951,"clubsuit":7952,"{\\}}.\\":7953,"})|\\,\\":7954,"195":7955,"Sat":7956,"}}}>":7957,"iS":7958,"pA":7959,"Ġ}^{*}\\":7960,"}\\,{}_{":7961,"cM":7962,"}]]":7963,"conj":7964,"Grad":7965,"hit":7966,"hC":7967,"ĠMean":7968,"Ġclass":7969,"{)},&\\":7970,"})^{-(":7971,"!\\{":7972,"ĠMat":7973,"174":7974,"|)}":7975,"264":7976,"Find":7977,"}|\\|":7978,"215":7979,"188":7980,"}!}\\]":7981,"VaR":7982,"]:=\\{":7983,"radi":7984,"Ġnorm":7985,"cre":7986,"||\\]":7987,"Ġ)},\\":7988,"ins":7989,"link":7990,"Ġ75":7991,"]})^{":7992,"lev":7993,"ĠGal":7994,"asi":7995,"\\[(|\\":7996,"xR":7997,"cod":7998,"IB":7999,"kH":8000,"}|}=":8001,"^{*})}{\\":8002,"hj":8003,"iK":8004,"]=(\\":8005,"\\,-\\,\\":8006,"Ac":8007,"Xu":8008,"}])_{":8009,")((\\":8010,",+}_{":8011,"LoS":8012,"Ġdq":8013,"Prop":8014,"}];\\":8015,")-\\]":8016,"ved":8017,"iQ":8018,"}\\)-":8019,"Ġrow":8020,"Mult":8021,")^{*}(\\":8022,"Ġline":8023,"$})\\":8024,"Tan":8025,"\\|+\\|\\":8026,")):=":8027,"Cy":8028,"};(\\":8029,")}+(\\":8030,"Ġmap":8031,"Ġ|^{\\":8032,"}}\\#\\":8033,"Ġ})}{\\":8034,"ĠLo":8035,"arm":8036,")}(|":8037,"tively":8038,"Ph":8039,"}(^{":8040,"tiv":8041,"Ġfin":8042,"}^{+}}(\\":8043,"237":8044,"yf":8045,"soft":8046,"Ġpla":8047,"\\[\\|\\,\\":8048,")&:=":8049,"QQ":8050,"}_{/\\":8051,"ĠSta":8052,"185":8053,"}})^{-\\":8054,"),...,\\":8055,"})|(":8056,"Ġ53":8057,"Ġ58":8058,"^{(-\\":8059,"dtd":8060,"}}|.\\]":8061,"|}{\\(":8062,"}}+[":8063,"La":8064,"194":8065,"diagup":8066,"\\})}\\":8067,"unif":8068,"}}^{-}":8069,"}_{*,\\":8070,"197":8071,"curv":8072,"Ġ]_{":8073,"^{+}|":8074,"),\\|\\":8075,"Down":8076,"vc":8077,"MH":8078,"tE":8079,"Ġns":8080,"kw":8081,"Opt":8082,"\\}}}\\":8083,"KZ":8084,"|)|\\":8085,"gather":8086,"Ġperi":8087,"Ġ+|\\":8088,"{(}\\!\\":8089,"Bw":8090,"ĠNA":8091,"048":8092,"179":8093,"erv":8094,"cible":8095,"}})^":8096,"161":8097,"Ġdoes":8098,"}}}}.\\]":8099,"Ġhe":8100,")])\\":8101,"ftarrow":8102,"\\[=\\]":8103,"\\[|\\!|\\!":8104,"gz":8105,"Ġ52":8106,")\\!,\\]":8107,"wd":8108,")}^{*}\\":8109,"Ġclas":8110,"stima":8111,"}\\,(-":8112,"^{\\{\\":8113,"})\\}=\\":8114,"\\{[\\":8115,"etc":8116,"gathered":8117,"MG":8118,"}}\\}":8119,"))\\|":8120,"Ah":8121,"QH":8122,"LV":8123,">|":8124,"AZ":8125,"})}:\\":8126,"ĠInt":8127,"Ġblock":8128,")&=-\\":8129,"Ġcor":8130,"))^{(":8131,"IL":8132,"Ġ}+(":8133,"}|\\}\\":8134,"Ġbut":8135,"}({}_{":8136,"}}{=}":8137,")}(-\\":8138,"$}}{\\":8139,"Ġ57":8140,"Red":8141,"});\\\\":8142,"tio":8143,")|}.\\]":8144,"Nil":8145,"]\\|_{\\":8146,"\\,+":8147,"{[}\\,":8148,"}^{-}.\\]":8149,"Ġinver":8150,"214":8151,"{\\{}\\{":8152,"}\\}}.\\]":8153,"\\({}^{-":8154,"near":8155,"denti":8156,"322":8157,")},(":8158,"xP":8159,"8998":8160,"}|>|":8161,"}>_{":8162,"Ġequivalent":8163,"204":8164,",*}\\]":8165,"Ġcontains":8166,"+-":8167,"022":8168,"}^{*-":8169,"{\\|}|":8170,"ization":8171,"Ġsame":8172,"Cut":8173,"\\|:=\\":8174,"Ġii":8175,"<_{\\":8176,"}^{*}=(\\":8177,"KE":8178,"|||":8179,"}^{*}}^{\\":8180,"Ġ$(\\":8181,"sN":8182,"ĠType":8183,"296":8184,"}})),\\]":8185,"190":8186,"}(.,":8187,"UX":8188,"}^{*}\\}_{":8189,"Trop":8190,"}})^{(":8191,"ĠAlgorithm":8192,"}_{-}}\\":8193,"tR":8194,"Ġ&+(":8195,"}=+":8196,"}^{*}/\\":8197,"Dy":8198,"digamma":8199,"iR":8200,")),&":8201,"}),...,\\":8202,"number":8203,"Ġboundary":8204,"OL":8205,"275":8206,"+\\{":8207,"})|>\\":8208,"258":8209,"EB":8210,"qi":8211,"Ġsubject":8212,"presen":8213,"AK":8214,"iE":8215,"bab":8216,"Ġ\\[=[\\":8217,"Tri":8218,"}={}^{":8219,"short":8220,"}^{*}\\|":8221,"{|}-\\":8222,"ĠHH":8223,"218":8224,"ui":8225,"}]{\\":8226,"217":8227,"obj":8228,"Bar":8229,"bcd":8230,"})=-(":8231,"Ġ67":8232,"XYZ":8233,"040":8234,"iM":8235,"Comm":8236,"}})|\\]":8237,"247":8238,")|,|":8239,"ĠCa":8240,"_{-}\\\\":8241,"^{+})^{\\":8242,"{\\{}{\\":8243,"kin":8244,"}^{-}}{":8245,"Ġneighbo":8246,"])-":8247,"cR":8248,"0011":8249,"Deg":8250,"}}]+":8251,"Ġpower":8252,"iF":8253,"ĠCs":8254,"})||^{":8255,"}_{*})\\]":8256,"syn":8257,"Lh":8258,"_{-}}{\\":8259,"\\[\\#(\\":8260,"Ġ51":8261,"VC":8262,"028":8263,"xd":8264,"Ġ=&-\\":8265,"Ġ59":8266,"})\\}=":8267,"Ver":8268,"Ġ84":8269,")]\\,\\":8270,"vd":8271,"Ġparti":8272,"smooth":8273,"Ġmeasure":8274,"Ġ66":8275,"030":8276,"ting":8277,"}\\,\\|_{":8278,"238":8279,"thicksim":8280,"JL":8281,"ĠMax":8282,"xr":8283,"}{*}{\\(\\":8284,"SX":8285,"}}],":8286,"drd":8287,"gw":8288,"311":8289,"qw":8290,"{\\}}\\,,\\]":8291,"205":8292,"Ġkx":8293,"Ġ}))\\]":8294,"^{*}&\\":8295,"ĠDa":8296,"})+|\\":8297,"<(\\":8298,"}]}_{":8299,")]}\\]":8300,"Ġ\\(\\|\\":8301,")}=\\{\\":8302,"207":8303,"Ġ78":8304,"Ġ)}_{":8305,"\\[|[":8306,")!^{":8307,"]}&\\":8308,"}^{(-\\":8309,"Ġ69":8310,"186":8311,"}(+":8312,"}_{(-\\":8313,"Gl":8314,"ĠIV":8315,"]]=":8316,"}}}\\,,\\]":8317,",\\,|\\":8318,"}}^{*}=":8319,")}]^{":8320,"led":8321,"365":8322,"050":8323,"\\}}-":8324,"}}}{{=}}(":8325,"zv":8326,"}^{+})^{\\":8327,"_{*}\\|^{":8328,"orphic":8329,"899849":8330,"Free":8331,"Ġsm":8332,"\\}\\,\\]":8333,"rclrcl":8334,"kij":8335,"})^{|":8336,"ek":8337,"nB":8338,"})))=\\":8339,"):\\,\\":8340,"}\\}}|":8341,"Ġgroup":8342,"}$.}\\":8343,"DI":8344,"QS":8345,")({\\":8346,"141":8347,"net":8348,"sSet":8349,"Ed":8350,"Adj":8351,"Ġini":8352,"\\,]":8353,")}=(-":8354,"]^{<\\":8355,"}^{-,":8356,")|:":8357,"eb":8358,"}))+(":8359,"\\[\\{|\\":8360,"Ġ91":8361,"}\\|-\\":8362,"kf":8363,"&&&&\\":8364,"}},\\{":8365,"Sg":8366,"Tg":8367,"bD":8368,"}^{*}}=\\":8369,",+}\\]":8370,"atch":8371,"emb":8372,"}}&\\\\":8373,"}\\|_{{\\":8374,")})=(":8375,"\\}}-\\":8376,"Ġprod":8377,"_{-}}^{":8378,"ĠCPU":8379,"Inj":8380,"ĠKK":8381,"}([-\\":8382,"=\\!\\!\\":8383,"Ġ[-":8384,"DQ":8385,"_{=":8386,"608":8387,"}}:(\\":8388,"Sta":8389,"}^{+})}\\":8390,"Ġrs":8391,"xyx":8392,"\\},&":8393,"}})}=":8394,"}}[|":8395,"000000":8396,"!}=":8397,"level":8398,"&\\{":8399,"ĠIrr":8400,"(\\!\\!\\":8401,"Ġ)}+\\":8402,")]\\!":8403,"))}+\\|":8404,"],\\;":8405,"})).\\":8406,"Ġ89":8407,"})}=(":8408,"timal":8409,"ĠTh":8410,"}}\\,,":8411,"})\\,,":8412,"450":8413,"}_{<\\":8414,"1100":8415,"^{*,\\":8416,"{)}/\\":8417,")}}}{":8418,"448":8419,"}}}\\}\\]":8420,"LH":8421,"}{}":8422,"_{*}/":8423,"$})\\]":8424,"Gx":8425,"\\|}{\\|":8426,"}\\}.\\":8427,"+\\;":8428,"}\\}>":8429,"}))|^{":8430,"temp":8431,"+{":8432,"{[(":8433,"\\[|\\,\\":8434,")$}.\\]":8435,"RI":8436,"sT":8437,"^{=":8438,"spectively":8439,"^{*}>":8440,"trans":8441,"}{}^{*}":8442,"^{*}{\\":8443,"}{(|":8444,"Ġ\\}_{":8445,"Ġmany":8446,"}})\\)":8447,"}}+{\\":8448,"347":8449,"Jx":8450,"Ġll":8451,"ĠDF":8452,"gc":8453,"}|)^{-":8454,"}^{!}\\":8455,"ĠBo":8456,"Ġexist":8457,"vz":8458,"}|)}\\":8459,"Iu":8460,"Eff":8461,"Fi":8462,"WL":8463,"GB":8464,"}]|":8465,"Ci":8466,"\\|)^{":8467,"Tz":8468,"eval":8469,"AI":8470,"}})}+\\":8471,"&|\\":8472,")}]=\\":8473,"Ġ\\!\\!\\":8474,"]^{-\\":8475,"}}]+\\":8476,")^{+}":8477,")}}_{\\":8478,"}^{+};":8479,"239":8480,"tS":8481,"038":8482,"hw":8483,")={}_{":8484,"^{+,":8485,"}}+(-":8486,"864":8487,"^{-}}\\]":8488,".}(":8489,"Ġlow":8490,"^{*}]\\]":8491,"{:}":8492,"ical":8493,"WD":8494,"})})_{":8495,"Herm":8496,"\\[=(-":8497,"homotop":8498,")<-":8499,"Ġ\\,\\,":8500,"coev":8501,"344":8502,"Cm":8503,"Ġ}<\\":8504,"Ġcost":8505,"udx":8506,"vac":8507,"pair":8508,"}}{(|":8509,"151":8510,"Ġ\\,{\\":8511,"Ġ88":8512,",_{":8513,"Ġtx":8514,"Ġindex":8515,"}&[":8516,"vh":8517,"cess":8518,"}^{\\#}(":8519,"}})\\,,\\]":8520,"Ġ85":8521,"iance":8522,"Ld":8523,"408":8524,"Kv":8525,"lu":8526,"sig":8527,"):\\]":8528,"268":8529,"Ġdivi":8530,"target":8531,"}\\,)\\]":8532,"Ġ|(":8533,"hG":8534,"Ġaff":8535,"ĠSpin":8536,"VN":8537,"Char":8538,"])-\\":8539,"]\\|\\":8540,"Mv":8541,"}})_{(":8542,"Ġvertices":8543,"))}\\\\":8544,"ĠâľĹ":8545,"]}:=\\":8546,"\\!{\\":8547,"Ġconv":8548,"029":8549,"})]}\\":8550,"/\\!":8551,"\\|\\!\\":8552,"ith":8553,"Ġsk":8554,"Pin":8555,"mis":8556,"})|^{-":8557,"\\!=\\!\\":8558,"900":8559,"LMod":8560,"Ġkt":8561,"tM":8562,"xA":8563,"ndard":8564,"Cost":8565,"Ġ142":8566,"{|}>":8567,"aL":8568,"ĠCS":8569,"^{*}}}":8570,"}&=&-":8571,"multimap":8572,")!}(":8573,"Ġ68":8574,"\\}(\\":8575,"\\;=\\;":8576,"Ġ]}\\":8577,"Ġ63":8578,"},&(":8579,"}))}(":8580,"ĠRate":8581,"}_{-,":8582,"iggs":8583,",}":8584,"}:=(-":8585,")})|\\":8586,"Hull":8587,"iJ":8588,"za":8589,")-\\{":8590,"Ġ:=(\\":8591,"sB":8592,"!}\\,":8593,"KC":8594,"\\}/":8595,"})}_{(":8596,"kB":8597,"$},":8598,"\\![":8599,"Ġ76":8600,"dsd":8601,"}(\\!(":8602,"}}{}_{\\":8603,"})\\,(\\":8604,"pqr":8605,"ang":8606,"osp":8607,"}|+(":8608,"perm":8609,"}\\{\\|":8610,"^{*})}":8611,"ĠTra":8612,"_{*}:=\\":8613,")\\{\\":8614,"exact":8615,"}))\\}\\]":8616,"yq":8617,"ness":8618,"\\|_{{\\":8619,"]/(\\":8620,"}{[\\":8621,"Ġsys":8622,"}^{*}(-":8623,"}\\,)\\":8624,"}&|\\":8625,")}{[":8626,"244":8627,"}\\,;":8628,"):=\\|":8629,"ĠCP":8630,"Bf":8631,"Ġ&=(\\":8632,")&(\\":8633,"bal":8634,"lec":8635,"!\\!\\{":8636,"BI":8637,"Ġ79":8638,"Ġdn":8639,"}|)+":8640,"emp":8641,"027":8642,"])(":8643,"^{-{\\":8644,"rem":8645,"]=\\]":8646,"})}^":8647,"leaf":8648,")}{=}":8649,"_{\\{|\\":8650,"Ġoc":8651,"Exc":8652,"Ġ)).\\]":8653,"}}\\},\\":8654,"\\,+\\":8655,"|)}{|":8656,"}}])\\]":8657,"Ġ)}}\\":8658,"ong":8659,"}&&&":8660,"{{}^{\\":8661,"\\!\\!\\!":8662,"ings":8663,"axi":8664,"}({}^{\\":8665,")}+|":8666,"Rg":8667,"Ġwt":8668,"259":8669,"376":8670,"joint":8671,"{|}|\\":8672,"noise":8673,"ĠCov":8674,"corr":8675,"Ġgood":8676,"016":8677,"Gu":8678,"\\&":8679,"reducible":8680,"}}\\,|\\,\\":8681,"||=":8682,"}^{*}]\\]":8683,"Hf":8684,"}:-":8685,"iter":8686,"}=||":8687,"}\\,_{\\":8688,"Ġ\\[-(\\":8689,"})}\\}\\]":8690,"}}|+":8691,"Ġother":8692,"Ġtotal":8693,"RO":8694,"2048":8695,"Ġkn":8696,")}|=":8697,"})}},\\]":8698,"Ġ300":8699,"Ġnd":8700,"}})^{*}":8701,"pred":8702,"&*&\\":8703,"tY":8704,"})_{|\\":8705,"})-|":8706,"})(|":8707,"^{*}({\\":8708,"Downarrow":8709,"bigtimes":8710,"}\\|}{\\|":8711,"Ġcell":8712,"},\\,|":8713,"}]}^{\\":8714,"Ġ}})\\]":8715,"Ġboth":8716,"}))|\\]":8717,"}}^{*}}\\":8718,"Ġ61":8719,"Ġ73":8720,"348":8721,"}\\|}":8722,"}})\\|_{\\":8723,"}|}{(":8724,"Xf":8725,"}\\{-":8726,"}[\\]":8727,"pla":8728,"_{+})=\\":8729,"Std":8730,"sson":8731,"\\[|\\{\\":8732,"|\\|_{":8733,"{(}-(":8734,"}\\,;\\]":8735,"Nu":8736,"large":8737,"Ġcoefficient":8738,"}}|+|":8739,"):=|\\":8740,"}^{*}<":8741,"\\|[\\":8742,"Ġpolynomial":8743,"{)};\\]":8744,"Ġ\\({\\":8745,"}}=:\\":8746,"}})=-":8747,"Ġsequence":8748,"Lim":8749,"Ġ})(\\":8750,"Ġ\\,(\\":8751,"})=:\\":8752,"})=((":8753,"}^{*}))\\]":8754,"}]-[\\":8755,")))_{":8756,"}))]\\":8757,"286":8758,"Ġ&&+\\":8759,"\\}\\,,\\":8760,"=_{":8761,"|&":8762,"Ġtor":8763,"degree":8764,"Bs":8765,")\\}\\\\":8766,"}])^{\\":8767,"=&":8768,"subsetneqq":8769,"Ġelements":8770,"HW":8771,"|})\\":8772,"}}{||":8773,"env":8774,"ame":8775,"}))]":8776,"bX":8777,"{}^{*}":8778,"Ġ}}\\,\\":8779,"\\,-\\":8780,"4096":8781,"Aq":8782,"}\\}|\\]":8783,")}}\\|":8784,"})},\\\\":8785,"}\\||":8786,"}^{{(":8787,"dVol":8788,"Ġkl":8789,"Ġ})}":8790,"}^{**}(":8791,"-})\\":8792,"UD":8793,"^{-}}{":8794,"}|}+":8795,"_{+}\\|_{":8796,"Eis":8797,"}]},":8798,"nnz":8799,"cK":8800,"Cob":8801,"],(":8802,"}}^{[\\":8803,"Sy":8804,"568":8805,"\\}/\\":8806,"\\|_{{}_{":8807,"Ġ}<":8808,"227":8809,"]};":8810,"367":8811,"[(-":8812,"bound":8813,"Ġsatisfying":8814,"Ġunder":8815,":\\|\\":8816,"VW":8817,")))-":8818,"}^{**}\\":8819,"249":8820,"254":8821,"968":8822,"Prim":8823,"}})>\\":8824,"265":8825,"}|}-":8826,"308":8827,"Kg":8828,"LW":8829,"luster":8830,"FH":8831,"350":8832,"Fib":8833,"}^{*}))\\":8834,"}^{+}\\|_{":8835,")\\;,\\":8836,"JA":8837,"QD":8838,"Tm":8839,"Ġ}/\\":8840,"yb":8841,"Ell":8842,"}):(\\":8843,"Ġ}^{(\\":8844,"}}))_{":8845,"})\\,:\\,\\":8846,"Ġei":8847,"FN":8848,"JM":8849,"})\\},\\":8850,"}{\\#":8851,"{)}[":8852,")}))":8853,"BZ":8854,"{|}\\{":8855,"}_{*},":8856,"Dim":8857,"{)}\\!\\":8858,"Ry":8859,"\\}$":8860,"vb":8861,"^{*})}\\]":8862,"ĠDef":8863,"]}\\,":8864,")\\!\\!\\":8865,"))}+\\|\\":8866,")}{}_{":8867,":}":8868,"*\\]":8869,"ler":8870,"Ġnm":8871,"648":8872,"}|}-\\":8873,"}<|\\":8874,"209":8875,"NV":8876,"block":8877,"local":8878,"Ref":8879,"Fitt":8880,"UP":8881,"267":8882,"Ġ}}\\,":8883,"}^{*}=\\{":8884,"CQ":8885,"[-(":8886,"Ġpi":8887,"_{+}&":8888,"}_{+}\\\\":8889,"zp":8890,"Ġabs":8891,"zs":8892,"Ġspe":8893,"Ġ\\[=\\]":8894,"ĠProposition":8895,")}\\{\\":8896,"Ġstep":8897,"step":8898,"}})-(":8899,"dimension":8900,"{]}}{\\":8901,"Dol":8902,"\\|,\\|":8903,"405":8904,"coeff":8905,"Ġ{+}\\":8906,"HG":8907,")}}{{=":8908,")\\|+\\":8909,"ties":8910,"Ġ_{[":8911,"|>|":8912,"law":8913,"VB":8914,"^{({\\":8915,"206":8916,"}\\|[":8917,",*}^{":8918,"^{+}}{\\":8919,"299":8920,"PSH":8921,"\\,;\\,\\":8922,"xH":8923,"Ġ]^{":8924,"}|),\\]":8925,"}[\\,\\":8926,"]\\|":8927,"$}\\}.\\]":8928,"^{*}\\,":8929,")})\\,":8930,"]}^{[":8931,"mC":8932,".}}":8933,":=|":8934,"work":8935,"pot":8936,"}^{++":8937,"Ġregular":8938,"171":8939,"357":8940,"\\[+\\]":8941,"Rh":8942,"ĠSH":8943,")^{*}.\\]":8944,",\\,-\\":8945,"ive":8946,"eqsim":8947,"qN":8948,"}|^{(":8949,"unt":8950,"Ġsl":8951,"_{+})=":8952,"}}|}{":8953,"229":8954,"gb":8955,"})):=\\":8956,"|\\}\\":8957,"Ġfirst":8958,"!\\!\\!\\!\\!\\!\\!\\!\\":8959,"^{*})\\|_{":8960,"}^{*};\\":8961,"Ġhi":8962,"0010":8963,"ens":8964,"Ġna":8965,"}}}/":8966,"ape":8967,"\\,;\\]":8968,"Ġ87":8969,")\\,+\\,\\":8970,"}\\{\\|\\":8971,"})<(":8972,"nergy":8973,"Ġ\\[=-(":8974,"Ġ77":8975,"4999":8976,"ya":8977,"^{-}+\\":8978,"sL":8979,"\\#_{":8980,";&":8981,"dir":8982,"})+\\|":8983,"}+\\|(\\":8984,"}{=":8985,"241":8986,"033":8987,"_{||":8988,"364":8989,"nV":8990,"|}^{\\":8991,"alf":8992,"})({\\":8993,"219":8994,">\\!":8995,"))^{*}\\]":8996,"WA":8997,"}]},\\]":8998,"}},\\{\\":8999,">_{\\":9000,"Ġoperator":9001,"ĠExp":9002,"Bigm":9003,"Ġtrace":9004,"},...\\":9005,"})\\|=":9006,"^{+}\\|_{":9007,"}}(-,":9008,"Alb":9009,"}_{+}-\\":9010,"age":9011,"})...":9012,"\\,(\\,":9013,"Bd":9014,"KF":9015,"alse":9016,"zh":9017,"]\\;\\":9018,"Ġ}}}":9019,"Path":9020,"323":9021,"Ġsn":9022,")}=\\|\\":9023,"hl":9024,">=":9025,"}+((":9026,"oid":9027,"}-\\\\":9028,"Md":9029,"Ġ71":9030,"}}{[\\":9031,"})\\,,\\\\":9032,"snr":9033,"zg":9034,")|)":9035,":,\\":9036,"_{\\{(":9037,"}}{-\\":9038,"\\|,":9039,"/\\|\\":9040,"}^{+}}{\\":9041,"})}),\\]":9042,"^{[-":9043,")}\\}.\\]":9044,"}}):=":9045,"ĠReg":9046,"Ġ\\[+\\|":9047,"784":9048,"}})_{*}\\":9049,"_{+}}(\\":9050,"bib":9051,"}^{+}}^{":9052,"Ġsince":9053,"//":9054,"Ġia":9055,"^{-})=":9056,"ange":9057,"}&-(":9058,"})|}\\]":9059,"FW":9060,"Ġsimple":9061,"Cz":9062,"Sec":9063,"}&=&-\\":9064,"?\\]":9065,"Ġdk":9066,"\\}}\\,\\":9067,"_{*}\\,\\":9068,"260":9069,"}},|":9070,")})&\\":9071,"vp":9072,"lessapprox":9073,"Fu":9074,"ĠST":9075,"Ġsplit":9076,"aB":9077,"Ġpart":9078,"Rt":9079,"\\}|.\\]":9080,")\\!\\!":9081,"}),-\\":9082,"}^{-})=":9083,"^{**}\\]":9084,"Geo":9085,"Ġ}>":9086,"ttt":9087,"289":9088,"kC":9089,"})|}":9090,"wg":9091,"Ġ}}|\\":9092,"ĠValue":9093,"cX":9094,"!}}\\":9095,"}])}\\":9096,"^{*}((":9097,"202":9098,"}{\\(\\":9099,"})\\;=\\;\\":9100,"}_{-},":9101,")}}{{":9102,"{)}=\\]":9103,"man":9104,"\\[\\{[\\":9105,"Ġobs":9106,"VM":9107,")\\|^{\\":9108,"}|[":9109,"995":9110,"{}{{}^{\\":9111,"]}}{\\":9112,")\\,\\|":9113,"})|\\\\":9114,"Ġfunctions":9115,"Nc":9116,"lq":9117,"}{**":9118,"Bt":9119,"Flag":9120,"]}\\|_{":9121,"}^{*}{\\":9122,"ied":9123,"_{+},\\]":9124,"leftharpoonup":9125,"]}(-":9126,"OF":9127,"because":9128,"|}\\|":9129,"Ġ{{\\":9130,"}^{-}\\\\":9131,"Ġnc":9132,"Cyc":9133,"\\[\\||\\":9134,"))-(\\":9135,"}|||":9136,"\\).":9137,"QX":9138,"499886":9139,"}_{-})\\]":9140,"193":9141,"adic":9142,"343":9143,")_{*}":9144,"\\}\\;.\\]":9145,"\\|_{*}\\":9146,")}}}{\\":9147,"(-,":9148,"}],\\,":9149,"ptI":9150,"}{*}_{":9151,"}=\\,\\":9152,"Ġnr":9153,"Ġ74":9154,">\\,":9155,"ĠTotal":9156,"{)}\\!":9157,"}_{*}=\\":9158,"})}=\\|\\":9159,"nobreak":9160,"ust":9161,"{)}\\;\\":9162,"try":9163,")}}}":9164,"]}&":9165,"Ġcurve":9166,"_{>\\":9167,"}^{+,\\":9168,"}_{++":9169,"}]),\\":9170,"326":9171,"ore":9172,"ĠModel":9173,"}})\\|^{":9174,"bibref":9175,"},\\,-\\":9176,"Ġ83":9177,",-}":9178,"457":9179,"}$},\\":9180,")$},\\\\":9181,"}_{+},\\\\":9182,"369":9183,"Ġcov":9184,"Avg":9185,"Uni":9186,"}=\\{\\,":9187,"+||\\":9188,")\\!+\\!":9189,"Aa":9190,"cj":9191,"Ux":9192,"wc":9193,"]].\\]":9194,")\\,,\\,":9195,"}|/|":9196,"_{*})}\\":9197,",*,":9198,"}\\}:":9199,"):\\\\":9200,"JI":9201,"nleq":9202,"aly":9203,"rA":9204,"}_{-})\\":9205,"Jf":9206,"Ġln":9207,"Ġinterval":9208,"QL":9209,"{)}},\\]":9210,"Ġ\\(+":9211,"{\\|}\\,\\":9212,"-{":9213,"rK":9214,"}]^{(":9215,"ĠCx":9216,"}})}{(":9217,"-}+":9218,"mer":9219,"+\\)":9220,"Ġhigh":9221,"}|\\,.\\]":9222,"mH":9223,"}\\,+":9224,"_{*},\\]":9225,"298":9226,"-),":9227,"}\\|,\\|":9228,"}^{+}\\}\\]":9229,"}}^{*}-\\":9230,"ĠData":9231,"\\|(-\\":9232,"Lr":9233,"\\})-":9234,"Ġ62":9235,")[[":9236,":=-":9237,"US":9238,"996":9239,")!}=\\":9240,"Leftarrow":9241,"TI":9242,"Ġcomple":9243,"!|\\":9244,"para":9245,"Ġ-|":9246,"ko":9247,"_{-})=":9248,"Ġ}}}{":9249,"ĠdP":9250,"789":9251,"811024":9252,"Ġrand":9253,"rL":9254,")=\\{(\\":9255,")\\|+\\|":9256,"Ġedges":9257,"|)-":9258,"}_{-}=\\":9259,"cA":9260,"Ġ\\(>":9261,"})_{(\\":9262,"]+[\\":9263,"satisf":9264,"294":9265,"OA":9266,"$}(\\":9267,"xk":9268,"}})}^{\\":9269,"(-|":9270,"Ġ86":9271,"\\{+,-\\":9272,"Ny":9273,"ĠEq":9274,"}_{+}+\\":9275,"dydt":9276,"cD":9277,"}|}^{":9278,"327":9279,"}\\,(\\,":9280,")\\!-\\!":9281,"037":9282,"last":9283,"^{*}=(\\":9284,"}}_{*}(":9285,"start":9286,"Gra":9287,"FK":9288,"|\\,|\\":9289,"173":9290,"|[\\":9291,"Art":9292,"seq":9293,"xF":9294,"}}^{\\,":9295,"Ġyx":9296,"279":9297,"},..":9298,"Tree":9299,"Large":9300,"Ġdh":9301,")|}{(":9302,"}\\|\\\\":9303,"}(-)\\":9304,"Ġ[(":9305,")$}\\\\":9306,",\\,{\\":9307,")*_{":9308,"=[-":9309,"sX":9310,"Ġ|_{\\":9311,"}]})\\]":9312,"2222":9313,"278":9314,"tZ":9315,"Ġve":9316,"}^{-}}(":9317,"ĠTX":9318,"inear":9319,"Tp":9320,"};\\{":9321,"Ġ\\}\\]":9322,"181":9323,"Ġalg":9324,"Null":9325,"^{*}:=":9326,"^{*}=\\{":9327,"Cyl":9328,"}^{*}),":9329,"}(||":9330,"}))}=":9331,"ĠCB":9332,"MLE":9333,"Uf":9334,"sV":9335,")\\}}":9336,"182":9337,"bias":9338,"|/|":9339,"])}^{":9340,"-}_{":9341,"varTheta":9342,"{)}^{*}\\":9343,"Rr":9344,"})^{|\\":9345,"hz":9346,"}(+\\":9347,"Tb":9348,")}{-":9349,"Ġlower":9350,"}]=\\{":9351,",-}(\\":9352,"\\({}^{\\":9353,"Ġtree":9354,"ĠSe":9355,")\\,+\\,":9356,")\\|=\\|":9357,"Ġrespect":9358,"})\\|.\\]":9359,"285":9360,")}||\\":9361,"blacklozenge":9362,"sP":9363,"}/[":9364,"}))>\\":9365,"Ġdimension":9366,"Pos":9367,"),\\;\\;":9368,"}\\|-":9369,"Ġcs":9370,"Ġweak":9371,"230":9372,"tF":9373,"using":9374,"fy":9375,")))^{\\":9376,")/|":9377,"Lemma":9378,"ĠAi":9379,")))-\\":9380,"}),\\|\\":9381,"Error":9382,"352":9383,"$)}\\]":9384,"shift":9385,"ĠSM":9386,"}[\\,":9387,"terior":9388,"<\\!\\":9389,"388":9390,"0110":9391,"oo":9392,"roll":9393,"FPdim":9394,")}}&\\":9395,"aP":9396,")^{-}\\":9397,"242":9398,"})^{\\#":9399,")<-\\":9400,"}})^{*}\\]":9401,"ĠMC":9402,"\\|=\\|\\":9403,"ĠPic":9404,"},....":9405,"{)}\\;.\\]":9406,"^{*}}^{-":9407,"dtds":9408,"Ġ-{\\":9409,")})\\|^{":9410,"455":9411,"nsity":9412,"})\\,\\,\\":9413,".&.&.&.&":9414,"YT":9415,"Ġ^{+":9416,"fficient":9417,"385":9418,"IK":9419,"}]|^{":9420,"}-\\{\\":9421,"}]+(":9422,"loss":9423,"]{[\\":9424,"}]{":9425,"984":9426,"}^{({\\":9427,"Ġ{*}(\\":9428,")!},\\]":9429,"305":9430,"))}\\,":9431,"Pv":9432,"{:}\\":9433,"Vf":9434,"BQ":9435,"NG":9436,"044":9437,"Ġcri":9438,"}&=&(":9439,"),[\\":9440,")|/":9441,"]|_{":9442,"lx":9443,"}|]\\":9444,"172":9445,"Wr":9446,"^{*}\\)":9447,"}):\\,":9448,"Regret":9449,"Ġdistribution":9450,"VA":9451,"Ġmethod":9452,"Ġ=-(\\":9453,"Sur":9454,")^{-(\\":9455,"Ġrot":9456,"trap":9457,"Ġlevel":9458,"}]\\|_{\\":9459,"))\\;\\":9460,"269":9461,"+,\\":9462,"Ġbd":9463,"})!}\\":9464,"}:[\\":9465,"),\\,\\,\\,":9466,"holim":9467,"&\\,\\":9468,"aD":9469,"nF":9470,"updownarrow":9471,"Ġstate":9472,"PSU":9473,"})})^{\\":9474,"}_{+})^{":9475,"Cv":9476,"ward":9477,"Sets":9478,"_{\\!\\":9479,"}\\,-":9480,"26378":9481,"355":9482,"056":9483,"396":9484,"_{-}.\\]":9485,"Ġmix":9486,"ĠPSL":9487,"JZ":9488,"^{{(":9489,"}){":9490,"}(-,\\":9491,"Ġ}+\\|\\":9492,"ĠBorel":9493,"306":9494,"{(}(-\\":9495,"Ġ*&\\":9496,"ĠMin":9497,")_{(\\":9498,"Cart":9499,"uD":9500,"Ġabo":9501,"997":9502,"},:":9503,"}^{*}]\\":9504,"Ġdl":9505,"}^{*}},\\":9506,"))\\}.\\]":9507,"Ġ},\\\\":9508,"}{}{\\":9509,"{[}[":9510,"}\\}<\\":9511,"Ġredu":9512,"pM":9513,"338":9514,"|)\\,\\":9515,"riz":9516,"_{*})(":9517,"_{+}:=\\":9518,"})+\\|\\":9519,"266":9520,"}]\\!]_{":9521,"}=...":9522,"Ġiy":9523,"KQ":9524,"{.}\\":9525,"%)":9526,"ĠAe":9527,"bel":9528,"}})]":9529,"})\\,|\\":9530,"}]<":9531,"}^{+},\\\\":9532,"})\\|_":9533,"find":9534,"^{((":9535,"ĠDG":9536,"\\}\\!":9537,"Ġideal":9538,"tree":9539,"}^{+};\\":9540,",-\\,":9541,"})}}{(":9542,"{)},&":9543,"}}-{\\":9544,"terations":9545,"Adm":9546,"Ls":9547,"|-(":9548,"}\\,{}^{":9549,")})\\,\\":9550,"ĠdF":9551,"253":9552,"chitz":9553,"Ġinj":9554,"\\;:\\;":9555,"]{[\\@@":9556,"vg":9557,"})))^{":9558,"Perv":9559,"kD":9560,"}(\\{(":9561,"(\\!(":9562,")+[\\":9563,"^{*}\\!":9564,"}}|+\\":9565,"331":9566,")})|":9567,"^{*})(\\":9568,"]})_{":9569,"}^{(*":9570,"Ġyes":9571,"}^{+})_{":9572,";=\\;\\":9573,"Ġalgebra":9574,"Inc":9575,"Ġlocal":9576,"Ġeither":9577,"xn":9578,"Ġ}.\\":9579,"}}&&\\\\":9580,"cons":9581,"988":9582,"Ġ}}^{(":9583,")>-":9584,"}^{*})(\\":9585,"})}]\\]":9586,"pschitz":9587,"Ġtrans":9588,"NW":9589,")}\\;.\\]":9590,"\\,[\\":9591,"ql":9592,"Ġquad":9593,"})\\,.\\":9594,"xyy":9595,"Sys":9596,"Ġ={\\":9597,")}*":9598,"354":9599,"}}}}^{":9600,"Ġ150":9601,"xD":9602,"OB":9603,"\\}),\\":9604,"))[\\":9605,"uloc":9606,"^{*}<":9607,"}|)+\\":9608,"JH":9609,"gene":9610,"ency":9611,"}||=":9612,"945":9613,"scl":9614,"ual":9615,")}.":9616,"272":9617,"men":9618,"}}^{*}_{":9619,"ĠdY":9620,"}}/(\\":9621,"PN":9622,"^{*}}|":9623,"GV":9624,"ĠCm":9625,"dydz":9626,"occ":9627,"{)}{\\":9628,"Ġbase":9629,"Fa":9630,"sD":9631,"equality":9632,"330":9633,"Sd":9634,"ĠCD":9635,"ĠKe":9636,"203":9637,"|}}\\]":9638,")\\}=\\{":9639,"open":9640,"}|)=":9641,"Ġsymmetric":9642,",\\#":9643,"Cf":9644,"tG":9645,"_{*})-":9646,"]\\;.\\]":9647,"Ġexact":9648,"}\\}<":9649,"}^{=":9650,"parse":9651,"^{*}|_{":9652,"}]\\,,\\]":9653,"Or":9654,"qh":9655,"ĠAs":9656,"488":9657,"})^{*})\\]":9658,":\\:":9659,"\\!\\!\\!/":9660,"CVaR":9661,"]\\},\\]":9662,"})}}=\\":9663,"}))}=\\":9664,"_{*})+\\":9665,"}}]-\\":9666,"}}-|":9667,")!)^{":9668,"mag":9669,"{{}_{\\":9670,"&-\\\\":9671,"414":9672,"VP":9673,"ĠSI":9674,"_{-,\\":9675,"{<}":9676,"LI":9677,"ules":9678,"}}\\}}\\":9679,"}}](\\":9680,"}^{*})}{":9681,"ĠSP":9682,"iC":9683,"{}_{(":9684,"Ġ}}\\|":9685,"Ġiso":9686,"||}":9687,"}\\!(":9688,"313":9689,"nE":9690,"rol":9691,"}_{+})}^{":9692,")}}|\\":9693,"|:\\":9694,"049":9695,"Ġsemi":9696,"far":9697,"|.\\":9698,"))/(":9699,",\\,(\\":9700,"Lg":9701,"UR":9702,"group":9703,"}|\\,|":9704,"}}),(\\":9705,"Ġproduct":9706,")\\(\\":9707,"{)}:":9708,"MMSE":9709,"Ġweight":9710,")&\\\\":9711,"277":9712,"sH":9713,"}(]":9714,"}^{+}=\\{":9715,"].":9716,"}|(|":9717,"307":9718,"sumption":9719,")_{*":9720,"}^{-},\\]":9721,"}))[":9722,"Fac":9723,"{\\}}-\\":9724,"&.":9725,")\\,,\\,\\":9726,"\\)\\(":9727,"}})[\\":9728,"],&":9729,"Do":9730,"}]}\\|":9731,"})):\\":9732,"Dz":9733,"}])+\\":9734,"}}_{-\\":9735,"}]=(\\":9736,"Ġradi":9737,"_{+}}^{":9738,"},{}^{":9739,"round":9740,"rightarrowfill":9741,"Ig":9742,"tivity":9743,")}}^{-":9744,"^{**},":9745,"})\\!=\\!\\":9746,"wind":9747,"})=+\\":9748,"AdS":9749,"}))&":9750,"!_{":9751,"|_{\\{":9752,"convex":9753,"284":9754,"}^{*}:=":9755,"Ġperm":9756,"})|-|":9757,"aS":9758,"iV":9759,"}}})(":9760,"Py":9761,"|)-\\":9762,")\\#":9763,"})]}{":9764,"))}^{\\":9765,"ĠDR":9766,"}):=-\\":9767,"Sup":9768,"}_{\\|\\":9769,"{]}}{":9770,"Obs":9771,"qA":9772,"}+\\,\\":9773,",-,":9774,"VU":9775,"})\\;\\;\\":9776,"1112":9777,"_{:,":9778,"0100":9779,"]}).\\]":9780,"),\\{":9781,")=\\#\\":9782,"Nb":9783,"case":9784,"Pl":9785,"{|(\\":9786,"))^{*}\\":9787,"}}}.\\":9788,"}=-{\\":9789,"=\\{\\{":9790,"Ġyz":9791,")))+":9792,")\\},":9793,"Dp":9794,"aH":9795,"je":9796,"}\\}\\,,\\]":9797,"332":9798,"}|\\|\\":9799,"}_{+})":9800,"Join":9801,"{\\|(":9802,"Cg":9803,"Ġcap":9804,"Ġcolumn":9805,"\\}]\\":9806,"1110":9807,"));\\]":9808,")}{-\\":9809,"ĠRS":9810,"EN":9811,"\\[*\\":9812,"Ġfa":9813,">^{":9814,"rR":9815,"vr":9816,"}^{-}}\\]":9817,"}^{+}[":9818,"Nf":9819,"|\\{\\":9820,"bmo":9821,")|(\\":9822,"349":9823,"}\\,;\\,\\":9824,")][":9825,"Ka":9826,"_{*}|":9827,"Ġdefinition":9828,"Ġ82":9829,"bN":9830,"rB":9831,"Ġ)&\\":9832,"};\\;":9833,",-}_{":9834,")}}}\\]":9835,"^{***":9836,"}]}|\\":9837,"ĠML":9838,"!}+":9839,"TZ":9840,"}]:=":9841,"}}|-":9842,"Ġnear":9843,"}\\};\\]":9844,"}!(":9845,";}\\]":9846,"},*}\\":9847,")|,":9848,"Ġgh":9849,"{,}\\":9850,"Ġxz":9851,"486":9852,"ĠUn":9853,"274":9854,"<\\|":9855,"]}:":9856,"}}}]\\]":9857,").(":9858,"Lag":9859,"TK":9860,"}\\}}=\\":9861,"}}\\,=\\,":9862,"Qf":9863,"}^{*}}=":9864,"{|},\\":9865,"}\\,\\|\\,\\":9866,"287":9867,"_{+-":9868,"}\\|\\!":9869,"})_{\\#":9870,"Ġtf":9871,")}{}^{":9872,"}=(\\{":9873,"scription":9874,",(-\\":9875,"rob":9876,"))\\}_{":9877,"^{*}}}{":9878,"-,-\\":9879,"}\\}\\,\\":9880,"ĠFix":9881,"3333":9882,")\\}+":9883,"ĠSing":9884,"Ġ}_{(":9885,"}))-(":9886,")}*\\":9887,"Perm":9888,"pert":9889,"})|}{|\\":9890,"Ġstrict":9891,"Ġtest":9892,"Ġ})\\\\":9893,"KD":9894,"cross":9895,",-}\\]":9896,"985":9897,"RIS":9898,"])\\\\":9899,"Ġkm":9900,"Ġ\\(\\{\\":9901,"\\[|||":9902,"Seg":9903,"Ġthan":9904,"309":9905,"),\\,\\,":9906,"406":9907,"*}=\\":9908,"normalsize":9909,"183":9910,"Ff":9911,"}{\\#\\":9912,"Ġequivalently":9913,"fficiently":9914,"={":9915,"hA":9916,"cccccccccccc":9917,"Ġ400":9918,"Kd":9919,"gA":9920,"}\\},&\\":9921,"Index":9922,")}:=(":9923,"_{*}}^{\\":9924,"ĠRm":9925,"Ġ||_{":9926,"\\},\\{\\":9927,"ube":9928,")|)^{":9929,"}}\\}=\\":9930,"Ġunit":9931,"'s":9932,"\\:\\":9933,"Ġ}}\\]":9934,"bas":9935,"366":9936,"}^{*};":9937,"dxdydz":9938,"0101":9939,"Qe":9940,"mM":9941,"377":9942,"*}^{\\":9943,"Rv":9944,"(\\#":9945,"}_{\\{|\\":9946,"proxi":9947,"Ġ&&&-":9948,"})^{*}.\\]":9949,"Ġ/(":9950,"ĠBG":9951,"295":9952,"Ġmaximal":9953,"+}=\\":9954,"}<(\\":9955,"Ġ\\,|":9956,"}\\#_{":9957,")=|\\{":9958,"ĠCu":9959,"}}_{+}\\":9960,"Ġ^{[":9961,")}}[":9962,"JT":9963,"inate":9964,"}_{:,":9965,"})\\,|":9966,"468":9967,"IX":9968,"algebra":9969,"rhood":9970,"))),\\":9971,"Uparrow":9972,"Ġ)}-\\":9973,"}])+":9974,"Ġsets":9975,"LX":9976,"}}}=(":9977,"lated":9978,"})])\\]":9979,"IE":9980,"\\}}\\,":9981,"Ġcop":9982,"}^{+}|^{":9983,"date":9984,"ors":9985,"297":9986,"from":9987,"359":9988,"_{*}).\\]":9989,"];\\\\":9990,"}|}}":9991,"DY":9992,"ĠDom":9993,"ĠRan":9994,"inst":9995,"}}))^{\\":9996,"}})+(\\":9997,"}\\;:\\;\\":9998,"Ġlaw":9999,"juga":10000,"\\|>\\":10001,"))+(\\":10002,")_{+}":10003,"})}}{{=}}":10004,"{\\}}_{\\":10005,"Ġ+}\\":10006,"191":10007,"ugh":10008,"erg":10009,"aC":10010,"})((\\":10011,"}},[\\":10012,"ĠCI":10013,"rD":10014,"...+\\":10015,"={}^{":10016,"Ġdb":10017,"{\\|}_":10018,"}\\}_{(":10019,"}))\\,,\\]":10020,"|+\\|":10021,")}}{(\\":10022,"Ġ})}^{":10023,"}^{*})}{\\":10024,"}}{{=}}(":10025,"*},\\":10026,"HX":10027,"(\\|(":10028,"Ġacc":10029,"}*&*\\\\":10030,"458":10031,")={":10032,"nus":10033,"Ġfull":10034,"{]},":10035,"XP":10036,"]$":10037,"ĠBB":10038,"495":10039,"mld":10040,"Fe":10041,"Ġ})_{\\":10042,"ccccccc":10043,"Ġclasses":10044,"\\|}.\\]":10045,"mR":10046,")}-(\\":10047,"Hd":10048,"JN":10049,"}\\,{}^{\\":10050,"}\\,\\{":10051,"}}^{-}(\\":10052,"]_":10053,".},\\":10054,".)\\]":10055,"}}_{\\{":10056,"444":10057,"*},":10058,"(\\#\\":10059,"}|)(":10060,"Ġ123":10061,"{)}:\\":10062,"Euc":10063,"^{-,":10064,"}=\\{-":10065,"&\\|":10066,"}}|\\,":10067,"To":10068,"}]\\}\\":10069,"_{!}(\\":10070,"circlearrowright":10071,"^{-}-\\":10072,"ĠCp":10073,"}}(\\,\\":10074,"\\[\\{\\,\\":10075,"Ġ})}\\]":10076,"329":10077,"^{*}/\\":10078,"}^{-})=\\":10079,"273":10080,"geqq":10081,"&,\\":10082,"}})\\}_{":10083,"KA":10084,"}))=\\{":10085,"}}])\\":10086,"^{-})=\\":10087,"Ġclo":10088,"Ġsec":10089,"Nz":10090,"Ġ$[":10091,"]}=(":10092,"}})},\\":10093,"Ġ(|\\":10094,",-}^{":10095,"_{\\#}(":10096,"vdx":10097,"))]^{":10098,"Ġass":10099,"}}|>":10100,"part":10101,"}*&":10102,"|\\,,\\]":10103,"best":10104,"}}]-":10105,"})|-\\":10106,"}}{||\\":10107,")(\\|":10108,"prin":10109,"rate":10110,"{(}{":10111,")&=(":10112,"}\\}|=":10113,"|_{-":10114,"asc":10115,"Rj":10116,"Ġ+&\\":10117,"}}}),\\]":10118,"lized":10119,"]_{-":10120,"olog":10121,"tations":10122,"Tate":10123,"``\\":10124,"QG":10125,"bA":10126,"})=&\\":10127,"=+":10128,"))|=":10129,"pres":10130,"cheme":10131,"tmf":10132,"Ly":10133,"ish":10134,"}]_{(":10135,"}_{+}=":10136,"765":10137,"gK":10138,".)\\":10139,">}\\":10140,"\\'{":10141,"jc":10142,"isk":10143,"UW":10144,"389":10145,"}}\\!\\!\\!\\":10146,"Gaus":10147,"^{*}}\\|":10148,"dentity":10149,"cI":10150,"pH":10151,"^{*}}[":10152,"cke":10153,"335":10154,"mitive":10155,"teration":10156,"))}}\\":10157,")\\|(":10158,")&=-":10159,",[-":10160,"ference":10161,"399":10162,"Ġ}}\\\\":10163,"788":10164,"_{-})=\\":10165,"}>|":10166,"}*_{\\":10167,"046":10168,"Ġconstraint":10169,"750":10170,"Ġ}+\\|":10171,"Ġ}^{-\\":10172,"Sv":10173,"Ġ\\},\\":10174,"395":10175,"Ġpos":10176,"}^{-}:=\\":10177,"],|":10178,"+},":10179,"]-(":10180,"ulo":10181,"Ġ*&*&*":10182,"aE":10183,"-},\\":10184,"Ve":10185,"}|}\\,\\":10186,"Lp":10187,"}\\|>\\":10188,"ijt":10189,")]=[\\":10190,"Ġabove":10191,"+}}\\":10192,"251":10193,"gi":10194,"=\\!(":10195,"Ġ_{(\\":10196,"Spd":10197,"334":10198,"eig":10199,"lift":10200,"}]]=":10201,"sR":10202,"hL":10203,"}}^{\\#":10204,")|,|\\":10205,")))}\\":10206,"397":10207,"Ġ\\[\\{\\":10208,"\\|\\!":10209,"Ġ-\\,\\":10210,"RQ":10211,"WH":10212,"}^{{}_{":10213,"\\}))\\]":10214,"}|}|":10215,"rough":10216,"^{*}}}\\]":10217,"Ġ}((":10218,"^{+}|^{":10219,"}\\,-\\":10220,"orth":10221,",\\,\\,\\,\\,":10222,"Ġrandom":10223,"monic":10224,")\\|+":10225,"))}\\,\\":10226,"Seq":10227,")!\\,":10228,"\\!(\\":10229,"379":10230,"ratic":10231,"_{-}}(\\":10232,"tQ":10233,"Ġcos":10234,"}{+}\\":10235,"\\[\\|(-\\":10236,")$.}\\]":10237,"PZ":10238,"}&(-":10239,"Ġ512":10240,"Db":10241,"JB":10242,"^{*}},\\]":10243,":=|\\":10244,"\\}+\\{":10245,";}\\":10246,"\\}})":10247,"ĠQu":10248,"Ġsufficiently":10249,"\\[\\|\\,":10250,")$,}\\\\":10251,"homotopy":10252,"Ġfr":10253,"Ġ}\\}\\":10254,"ĠBi":10255,"}$;}\\\\":10256,");\\,":10257,"yi":10258,"})^{+}":10259,"339":10260,"dens":10261,"Ġinc":10262,"Ġsense":10263,"|)}{\\":10264,"Ġnodes":10265,"Ġell":10266,"\\[\\,{\\":10267,"989":10268,"}_{,\\":10269,"Ġvir":10270,"Part":10271,"vent":10272,"})}]\\":10273,"))\\}\\":10274,"!)^{\\":10275,",{}_{":10276,"))}-":10277,"}}+||":10278,"}{-}\\":10279,"dap":10280,"/\\!/":10281,"644":10282,"{\\{}{\\}}{":10283,",^{":10284,"}^{*}]":10285,"ĠGaus":10286,"ĠSD":10287,"Ġcover":10288,"^{+})-":10289,"}}[|\\":10290,"uptau":10291,"055":10292,"})]}{\\":10293,"}}:[":10294,")\\;\\;":10295,"}}\\{(":10296,"{|}<":10297,"Ġ110":10298,"Ġhyp":10299,")_{+}^{\\":10300,"MX":10301,"))=\\]":10302,"337":10303,"^{[*":10304,"curlywedge":10305,"ated":10306,"yg":10307,"})|,\\":10308,"zA":10309,"Ġob":10310,"\\})+":10311,"}}\\}=":10312,"}_{++}^{":10313,"qQ":10314,"}|:":10315,"mic":10316,"Ġoff":10317,"047":10318,"}}+\\|(":10319,")}}{\\|":10320,"});(":10321,"})=&":10322,"Ġequation":10323,"{}{{":10324,"height":10325,"\\[\\#\\{\\":10326,"Ġ160":10327,":[\\":10328,"Ġnet":10329,"ĠMN":10330,"Ġirreducible":10331,"}}}+\\|\\":10332,"ĠOb":10333,"Ġminimal":10334,"}|)=\\":10335,"ĠLog":10336,"409":10337,"})!\\":10338,"}]})\\":10339,"genera":10340,"_{\\#}":10341,"$}\\}\\]":10342,"|\\)":10343,"}^{*},\\\\":10344,"/_{":10345,"utation":10346,"ĠLS":10347,"1200":10348,"Cq":10349,"}_{!":10350,"ĠPre":10351,"340":10352,"Ġrepresen":10353,"FO":10354,"]\\}_{":10355,"biguplus":10356,",+,":10357,"|\\!|":10358,".)":10359,"}}^{*}-":10360,")\\!-\\!\\":10361,"Ġ\\@@":10362,"}}{((":10363,"spa":10364,"ĠSE":10365,"3749":10366,"Symp":10367,"}\\!:\\!":10368,"HV":10369,"2011":10370,"arac":10371,"\\[(\\{\\":10372,"}(((":10373,"semi":10374,"Ġincreasing":10375,"})}/":10376,")=\\,\\":10377,"Ġnb":10378,"ĠRT":10379,"mA":10380,"})\\!=\\!":10381,")...":10382,"Ġcp":10383,"656":10384,"mw":10385,"}_{*}}":10386,")})_{(":10387,"Ġ)}=\\":10388,")\\!+\\!\\":10389,"{)}>\\":10390,"ĠXY":10391,"}*}":10392,"ĠMSE":10393,"036":10394,"gB":10395,"^{*})\\\\":10396,"}=([":10397,"ĠBA":10398,"Grp":10399,"(\\{(":10400,"}])=[":10401,")}((\\":10402,"Ġ\\{(\\":10403,"^{-}.\\]":10404,"bolic":10405,")^{*})\\]":10406,"}_{<}(":10407,"Minimize":10408,"Ġdomain":10409,"Ġau":10410,"Ei":10411,"}|_":10412,"0005":10413,")))(":10414,"*\\\\":10415,"Ġmultipli":10416,"Ġ\\[+|":10417,"467":10418,"{)}}{(":10419,"_{*})+":10420,"}}|=|":10421,"465":10422,"}_{\\#}(":10423,"325":10424,"DJ":10425,"bT":10426,")}={\\":10427,"MMD":10428,"Ġsample":10429,"Ġ*}(\\":10430,"ĠSC":10431,"Ġeno":10432,"}]\\!]":10433,"MCG":10434,")\\,\\,\\,\\":10435,"})}}(\\":10436,"}))=-\\":10437,"ĠNt":10438,"Ġloop":10439,"Ġ:=\\{(":10440,"}):\\\\":10441,"Ġenough":10442,"})\\}}\\":10443,"del":10444,"]}^{-":10445,"786":10446,"}={}^{\\":10447,"dimensional":10448,")}&-\\":10449,"Ġ}}\\|\\":10450,"):\\|":10451,"GKdim":10452,"ĠSub":10453,"dzd":10454,"Ġ}{|\\":10455,"\\[(-)^{\\":10456,"ĠAverage":10457,"ctions":10458,"=[(":10459,"}=_{":10460,"{\\}},\\\\":10461,"teps":10462,"]\\|^{":10463,"aF":10464,"}}\\})\\]":10465,"bounded":10466,"}^{*}}.\\]":10467,"Ġ}({\\":10468,"Ġinvertible":10469,"Ġinitial":10470,"tJ":10471,"Ġ}:\\":10472,"})*(":10473,"\\}}(-":10474,"))))":10475,"987":10476,"!\\!/\\":10477,"}^{*}}+\\":10478,"1600":10479,"Const":10480,"Ġ)},\\]":10481,"),|\\":10482,"ON":10483,"^{{}_{":10484,")^{(|":10485,"]^{*}\\":10486,"Ġ)}+":10487,"VD":10488,")=\\#\\{":10489,"Ġ$\\{":10490,"\\;,\\\\":10491,"lom":10492,"}}[[":10493,"})}=-\\":10494,")^{**":10495,"SEP":10496,",{}^{\\":10497,"Sign":10498,"}^{+}/":10499,"})],":10500,"}+\\{\\":10501,"}^{*}}}\\":10502,"weight":10503,"Ġtn":10504,"\\[-\\]":10505,"Ġsystem":10506,"Ġ000":10507,"}\\,,&":10508,")}=[\\":10509,"ula":10510,"})}|^{":10511,")\\})\\":10512,">=\\":10513,"aM":10514,"Ġ}\\,.\\]":10515,"\\[||(":10516,",-\\,\\":10517,"058":10518,"Chi":10519,"Ġfo":10520,"_{*}[\\":10521,"_{+})(":10522,"]|\\]":10523,"rest":10524,"Cent":10525,"VT":10526,"WX":10527,"\\|_{*}^{":10528,"}}|+|\\":10529,"7499":10530,"\\}=(":10531,"314":10532,"Hod":10533,"{]},\\\\":10534,"992":10535,"\\},\\,\\":10536,"ĠNN":10537,"]}\\{":10538,"):=(-":10539,"_{\\_}":10540,"UA":10541,"^{*}}^{(":10542,"Ġfield":10543,"$}}(":10544,"yyy":10545,"}|}}{":10546,"ĠAn":10547,"Ġmost":10548,"})-\\{":10549,"^{!}(":10550,"}\\|_{[":10551,"\\[(\\,\\":10552,"&-(\\":10553,"387":10554,"}+}\\":10555,"|_{(\\":10556,"})+[":10557,"}!\\]":10558,"4000":10559,"Beta":10560,"PSp":10561,"Ġaa":10562,"}|<|\\":10563,"crete":10564,"$}=\\":10565,"Ġ=((":10566,"))\\.\\]":10567,"Ġhence":10568,"-)\\]":10569,"phys":10570,"^{*+":10571,"}\\,,&\\":10572,"342":10573,"match":10574,"}^{*}=-\\":10575,"{-(\\":10576,"Ġinequality":10577,"})})(":10578,"(\\(\\":10579,"sical":10580,"ron":10581,"459":10582,"Ġ}}}{\\":10583,"\\!\\{":10584,"negative":10585,"577":10586,"hK":10587,"}\\}}|\\":10588,"|||_{":10589,"xity":10590,"}+\\,":10591,"Ġface":10592,"496":10593,"}_{+}-":10594,"Ġnoise":10595,"Ġ\\;\\;\\":10596,")}{}^{\\":10597,"}}\\,+\\,\\":10598,"gence":10599,"tU":10600,"{*}":10601,"{\\#\\{":10602,"Den":10603,"}}\\,:\\,":10604,"+},\\":10605,"zar":10606,"att":10607,"Ġ})\\,\\":10608,"_{*}}}\\":10609,"}^{+}&":10610,"Pg":10611,"}=||\\":10612,"Ġwor":10613,"dyn":10614,"BY":10615,"}<_{\\":10616,"},\\,{\\":10617,"}}}{{=}}\\{":10618,"*[":10619,"ining":10620,"}})}+":10621,"cok":10622,"aK":10623,"mathchar":10624,"})_{*}\\]":10625,"392":10626,"{[}{\\":10627,"}))),\\]":10628,"351":10629,"Ġrec":10630,"CFK":10631,"kP":10632,"|}{\\(\\":10633,"840":10634,"ĠFig":10635,"374":10636,"+((":10637,"MAP":10638,"cB":10639,"})>(":10640,")}&=":10641,"ZX":10642,"pL":10643,"|}\\|\\":10644,"Ġ\\[+\\,\\":10645,"Ġits":10646,"Ġfg":10647,"xL":10648,"}_{+,\\":10649,"fX":10650,"}};\\\\":10651,"Ġie":10652,"erty":10653,"tran":10654,"Ġbasis":10655,"Nat":10656,"787":10657,"annel":10658,":.\\]":10659,"}\\|[\\":10660,"\\,\\}\\":10661,"569":10662,"Ġfactor":10663,"Mh":10664,"WE":10665,"}_{+}}(\\":10666,"Ġ&&\\\\":10667,"^{*}}}{{\\":10668,"}!}.\\]":10669,"ĠAP":10670,"Ġ-}\\":10671,"})}},\\":10672,"}))=-":10673,"ily":10674,"Ġdev":10675,"wn":10676,"Ġam":10677,"Ġ\\,|\\":10678,"\\%,":10679,"*}=":10680,"\\}}\\|":10681,"039":10682,"zT":10683,"tim":10684,"{)}_{(":10685,"})+\\\\":10686,"ĠMul":10687,"}^{+}).\\]":10688,"^{+}:=\\":10689,"\\}\\},\\]":10690,",...\\":10691,"}})|_{\\":10692,")|^{-\\":10693,"{\\}},":10694,"}}}^{(\\":10695,"{\\|}|\\":10696,"505":10697,"},-)\\]":10698,")}\\,(":10699,"}^{+}:":10700,")})>":10701,"lw":10702,"Ġ)}-":10703,"));\\":10704,"Ġeverywhere":10705,"})([":10706,"ĠRep":10707,"ĠSupp":10708,"986":10709,"\\({}_{\\":10710,"Mc":10711,"}))}+\\":10712,"Ks":10713,"}]}{(":10714,"^{*})\\|^{":10715,"}\\:\\":10716,"}))}+":10717,"},<":10718,"Ġ-$":10719,"2010":10720,"Imm":10721,"Ġ101":10722,")}].\\]":10723,"}\\}),\\]":10724,"}=&-\\":10725,"Ġ}(-\\":10726,")}\\|\\]":10727,"}}^{\\{":10728,"}(||\\":10729,"540":10730,":-\\":10731,"xit":10732,"QN":10733,"Ġ&&-\\":10734,"Ġ)})\\":10735,")^{(-":10736,"}}\\,.\\":10737,"Ġlay":10738,"hq":10739,"Ġiid":10740,"^{(*":10741,"ĠNL":10742,")})/":10743,"}}}]\\":10744,"679":10745,"{\\{}[":10746,"Ġ(\\%)":10747,"088":10748,"])}{":10749,"}]}}\\":10750,"\\!\\!\\!\\!\\":10751,")\\|\\,":10752,")))+\\":10753,"Ġgl":10754,"})^{-}\\":10755,"urce":10756,"face":10757,"rI":10758,"}_{:":10759,"Ġequal":10760,"XU":10761,"})\\|<\\":10762,"ĠPD":10763,"terms":10764,"^{-}|^{":10765,"{--}\\":10766,"})}{}_{\\":10767,"rrr":10768,"Row":10769,"Mz":10770,"\\}-\\{":10771,"ĠLR":10772,"|)}\\]":10773,"}^{*})\\|_{":10774,"ĠHe":10775,"Ġunique":10776,"JP":10777,"Ġip":10778,"386":10779,"ordinate":10780,"}}}}=\\":10781,"zm":10782,"flow":10783,"394":10784,"JW":10785,"Ġ)]":10786,"}))^{*":10787,"}}}/\\":10788,"}]}+\\":10789,"\\,\\|\\,":10790,"{)}\\)":10791,")\\|\\|":10792,"Ġ{+}(":10793,"Pois":10794,"Ġcut":10795,"&\\|\\":10796,"ĠMap":10797,")|}=\\":10798,"Ġmm":10799,"dasharrow":10800,"SDP":10801,"kS":10802,"Ġindu":10803,"):=[\\":10804,"cle":10805,"Image":10806,"Vir":10807,"Ġbelong":10808,"ters":10809,"ey":10810,")\\|+\\|\\":10811,"Ġuu":10812,")}=\\]":10813,"xN":10814,"2500":10815,"Cc":10816,"WZ":10817,"}\\}},\\]":10818,"Ġ111":10819,"{)}-(":10820,"{{?":10821,")}|}\\":10822,"Rig":10823,")}||_{":10824,"655":10825,"xT":10826,"}\\,.\\,\\":10827,"}}),&\\":10828,"Ġ=\\,":10829,"ĠGen":10830,"{|\\{":10831,"Core":10832,"ear":10833,"})}+(":10834,"}\\,^{(":10835,"$}}\\,":10836,"ber":10837,"ĠBx":10838,"\\},\\;":10839,"}):\\|":10840,"667":10841,"+}=":10842,"]})^{\\":10843,"Ġloss":10844,"374903":10845,"}^{-{\\":10846,"boxminus":10847,"100000":10848,"abq":10849,"054":10850,"}|},":10851,"..\\":10852,"261":10853,"cpt":10854,"}}}}{{=}}\\":10855,"tary":10856,"\\})+\\":10857,"qL":10858,"})!(":10859,"}|)|":10860,"checkmark":10861,"Conj":10862,"IJK":10863,"}\\;\\;\\;":10864,"Ġ*&*&":10865,"Tail":10866,")\\}&\\":10867,"}}||^{":10868,"bac":10869,"792":10870,"618":10871,"mE":10872,")]/":10873,"VF":10874,"}|}}{\\":10875,"(-)\\":10876,"bitra":10877,"3000":10878,"Ġ^{*}(\\":10879,"lope":10880,"^{*}_{-":10881,"}\\,:\\":10882,"Ġ}{(\\":10883,"Ġrig":10884,"Ġhyper":10885,"Nef":10886,"^{\\|":10887,"}^{+}:\\":10888,"Ġ*\\":10889,"verse":10890,"{)}=(\\":10891,"Ġcm":10892,"}}^{+}_{":10893,"Car":10894,"Jy":10895,"bB":10896,"))}\\|\\":10897,"316":10898,"_{*})^{\\":10899,"969":10900,"blk":10901,"}\\|)^{":10902,"Rec":10903,"}}\\,,\\\\":10904,"tern":10905,"})||_{\\":10906,"Ġdensity":10907,"Link":10908,"700":10909,"]}}(\\":10910,"|}\\\\":10911,"755":10912,"Ġlk":10913,")!}\\,\\":10914,"994":10915,"}}{=":10916,"rent":10917,"esssup":10918,"ulli":10919,"-}}\\":10920,"VE":10921,"!-\\!":10922,"pK":10923,")\\}+\\":10924,"}}\\#":10925,"}\\}\\!\\":10926,"rees":10927,"}}^{+}}\\":10928,"JV":10929,"Ġ}:":10930,"^{-}}(\\":10931,"^{*}_":10932,"3456":10933,"Ġlocally":10934,"ĠAc":10935,"ssing":10936,"}))\\|^{":10937,"Hy":10938,"Pw":10939,"}\\||\\":10940,"QU":10941,"dddot":10942,"rH":10943,"rX":10944,"^{*}\\|\\]":10945,"unit":10946,"Ġ\\}}":10947,"}}_{*}\\":10948,"}}})^{-":10949,"formation":10950,")!!\\":10951,"-})":10952,"sel":10953,"{|}-":10954,"_{*}|^{\\":10955,"440":10956,"Act":10957,"Vx":10958,"{|}_":10959,")/{\\":10960,"]\\!]_{\\":10961,"blue":10962,")\\|}\\":10963,"Ġ{-}\\":10964,"Bn":10965,"\\{-(":10966,"))}-\\":10967,"_{-}<":10968,"FU":10969,"([-\\":10970,"}^{\\,(":10971,"))].\\]":10972,"057":10973,"749943":10974,"Kp":10975,"Ġ\\[+|\\":10976,"ĠPer":10977,"ĠPGL":10978,"ogonal":10979,"Ġcycle":10980,"))))\\]":10981,"ĠOut":10982,"769":10983,"Riem":10984,"arse":10985,"ĠBP":10986,"noulli":10987,"eA":10988,"\\[+(\\":10989,"dem":10990,"Cb":10991,"My":10992,"lis":10993,"_{*})-\\":10994,"}^{+})-":10995,"380":10996,"^{\\#}_{":10997,"SYT":10998,"}/\\{":10999,"refl":11000,"566":11001,"Hk":11002,"JF":11003,"}}}},\\]":11004,"))=[":11005,"508":11006,")\\}}\\]":11007,"_{+}[":11008,"ĠGS":11009,"}^{+}|\\":11010,"785":11011,"Ġstd":11012,"Ġcomplex":11013,"}}&=&\\":11014,"967":11015,"mmse":11016,"tice":11017,"})}\\.\\]":11018,"}]\\}_{":11019,"ild":11020,"Ġinfinitely":11021,"$}}\\]":11022,"dof":11023,"inary":11024,"509":11025,"MZ":11026,"ĠSR":11027,"Ġ-|\\":11028,"Ġ+}(":11029,"{*}{\\":11030,"Ġbad":11031,"Ġsecond":11032,"swarrow":11033,"Ġsingular":11034,",\\!\\":11035,"valu":11036,"])=[\\":11037,"{}{{}^{*}}{\\":11038,":}&\\":11039,"}=\\|(":11040,"]{(":11041,"zd":11042,"Ġpartition":11043,";=\\;":11044,"kI":11045,"opf":11046,"ĠtA":11047,"ĠGP":11048,")}_{=":11049,"\\[[\\,\\":11050,"kX":11051,"449":11052,"wb":11053,"})=(-\\":11054,"^{*}<\\":11055,"})[[":11056,"sF":11057,"})},&\\":11058,"))|_{\\":11059,"sts":11060,"conf":11061,"}^{+}&\\":11062,"489":11063,"}}}}^{\\":11064,"-\\{\\":11065,"^{*},\\\\":11066,"}])(":11067,"pR":11068,"}}_{=:":11069,"}_{+}\\}\\]":11070,"}}\\|_":11071,"radient":11072,"Ts":11073,"ctr":11074,")}(|\\":11075,"WS":11076,")\\,-\\,":11077,"Ġobj":11078,"ĠTf":11079,"Ġcomponents":11080,"{/\\!\\!/":11081,"\\#(":11082,"Ġts":11083,"_{+})-":11084,"Ġ)\\|^{":11085,"):\\;":11086,"}]}_{\\":11087,"980":11088,"Ps":11089,"}=\\#\\":11090,"racle":11091,"&[\\":11092,"}))}\\\\":11093,"}}},\\\\":11094,"+(|":11095,"_{<}(":11096,"+)\\":11097,"\\,,&":11098,"ĠTN":11099,"uvw":11100,"499931":11101,"+}+":11102,"Xv":11103,"Ġlimit":11104,"fac":11105,"0123":11106,"}\\}}=":11107,"}}]=[":11108,"^{*_{":11109,"}\\|}.\\]":11110,"Ġdiffer":11111,"Ġusing":11112,"usion":11113,"Ġ}}{{\\":11114,"}\\}|":11115,"medi":11116,")\\(":11117,"}-}\\":11118,"_{*};":11119,"^{+}\\}\\]":11120,"))=\\{\\":11121,"))}\\|":11122,"Ġ{*}\\]":11123,"Mm":11124,"^{*}}}(":11125,"}^{-|":11126,"Ġ}|_{":11127,"boxdot":11128,"})](\\":11129,"cart":11130,"}}}\\!\\":11131,"341":11132,"Ġvalues":11133,"lobal":11134,"),\\|":11135,"trn":11136,"XT":11137,"ulation":11138,"}):\\]":11139,"-}=":11140,"simple":11141,"*}_{\\":11142,"Ġnk":11143,"ĠDis":11144,")),\\,":11145,")\\|_{(":11146,"757":11147,"upper":11148,",*}_{\\":11149,"}{((":11150,"lomorphic":11151,"rst":11152,"}||(":11153,"|}{**":11154,"Bad":11155,"lice":11156,":=\\!":11157,"(|(":11158,"xxt":11159,"}|}|\\":11160,"Ġfl":11161,"Ġvi":11162,"Ġoccu":11163,"iU":11164,"pP":11165,"})[(":11166,"phase":11167,"},-)\\":11168,",.)\\":11169,"Rat":11170,"closed":11171,"\\,\\}.\\]":11172,"uA":11173,"{(|\\":11174,"}^{+}),\\":11175,"485":11176,"ments":11177,"Tt":11178,"gon":11179,"naive":11180,"Ġdistance":11181,"}}\\!=\\!\\":11182,")}&-":11183,"Ġem":11184,"xmapsto":11185,"|}_{":11186,"Ġinit":11187,"}}[\\|\\":11188,"therefore":11189,"_{+})}\\":11190,"^{!}_{\\":11191,"^{-})^{\\":11192,"ĠAnn":11193,"_{+}|":11194,"}}|<\\":11195,"758":11196,"}^{\\#}":11197,"&=-\\":11198,"|{}_{":11199,"requ":11200,"\\[{}^{*}\\]":11201,"Bern":11202,"(^{":11203,"DO":11204,"407":11205,"Ġstrictly":11206,")_{*}(":11207,"}}};\\":11208,"}}}((":11209,"958":11210,"}\\,:=\\":11211,"Ġiu":11212,"ĠTF":11213,"Ġvariables":11214,"Ġ)\\]":11215,"}\\,/":11216,"ĠSS":11217,"\\[(\\|":11218,"888":11219,"periodic":11220,")}^{*}":11221,".}}}{{=}}":11222,"Qy":11223,"})&(\\":11224,"\\[]":11225,"))_{(":11226,")-[\\":11227,"arrowleft":11228,"^{\\#}(\\":11229,"}}&=&":11230,"Hyp":11231,".}{\\":11232,")^{[\\":11233,"trivial":11234,"Ġcen":11235,"}},|\\":11236,"elsewhere":11237,"310":11238,"comm":11239,"unr":11240,"Cof":11241,"777":11242,"}}\\;\\;\\":11243,"_{-},\\]":11244,"HFK":11245,"}\\{[":11246,"));":11247,"068":11248,")})}(":11249,"ĠDv":11250,"volu":11251,"MAX":11252,"Cw":11253,"}={}_{":11254,"Ġdiagonal":11255,",\\;\\;\\;":11256,"Cho":11257,"OG":11258,"]}:\\":11259,"dxdz":11260,"ĠNon":11261,")|-|\\":11262,"|||\\":11263,")\\|,\\]":11264,"064":11265,"]&=\\":11266,"|}&\\":11267,"Ġih":11268,"\\{(-":11269,"Ġorth":11270,"Ġ144":11271,"059":11272,"Env":11273,"Star":11274,"Wx":11275,"}^{*}})\\]":11276,"{|}[":11277,"=_{\\":11278,"JE":11279,"507":11280,"}),[\\":11281,"}})\\}\\":11282,",+}^{\\":11283,"808":11284,"]_{+}\\":11285,"}]/(\\":11286,"*})\\]":11287,"hX":11288,")]}(":11289,"Bias":11290,"!}-\\":11291,"Bir":11292,"},\\,\\,\\,\\":11293,"})\\{\\":11294,"&-&":11295,"564":11296,")!}+\\":11297,"@>":11298,"Lan":11299,"Ġarc":11300,"fn":11301,"son":11302,"vartriangleleft":11303,"}^{+}}|":11304,"Ġsep":11305,"rollary":11306,"Bh":11307,"dcl":11308,"mP":11309,"303":11310,"}(_{":11311,"ĠBR":11312,"}}\\!\\!\\!":11313,"EQ":11314,"Fy":11315,"}$}_{":11316,"PK":11317,"}]|_{":11318,"ĠEqu":11319,"],\\;\\":11320,"tW":11321,"_{-}&":11322,"ĠUV":11323,"|+\\|\\":11324,"767":11325,"032":11326,"bR":11327,"urs":11328,"Ġ}}^{-":11329,"Ġic":11330,"Ġcrit":11331,"Ġdual":11332,"^{!}(\\":11333,"[]{":11334,"-\\#":11335,"^{*})|\\":11336,"}|\\)":11337,"},\\,|\\":11338,"Al":11339,"yr":11340,"_{+}/":11341,"}^{*}\\!":11342,"Ġerr":11343,"}}}}{{":11344,"ijm":11345,"ptl":11346,"}))^":11347,"ABCD":11348,"965":11349,"\\[\\#_{":11350,"1122":11351,"\\})=\\{":11352,"RES":11353,"\\})>":11354,"sive":11355,"^{+}_{(":11356,"([(":11357,"$}\\,":11358,"ĠLM":11359,",\\;(":11360,"gP":11361,"\\[=:":11362,".\\|_{":11363,"}[\\{\\":11364,")},...,\\":11365,"{)}+\\]":11366,"xB":11367,"}}|}":11368,"Ult":11369,")]|\\":11370,"390":11371,"}))}(\\":11372,"cycle":11373,"comb":11374,")){\\":11375,"759":11376,"cC":11377,"Ġ\\[=\\{\\":11378,"}_{+}^{(":11379,"Test":11380,"}^{*}<\\":11381,"ĠAA":11382,")}+|\\":11383,"}!}{":11384,")}}}{{=}}\\":11385,"vq":11386,"^{\\|\\":11387,"{|{\\":11388,"}}=+\\":11389,"final":11390,"-}-":11391,"Mk":11392,"Hor":11393,"}(=":11394,"}\\}}^{":11395,"\\|-\\|":11396,"263":11397,"has":11398,"}|)}{":11399,"454":11400,"0002":11401,"766":11402,"fixed":11403,"}))^{*}\\]":11404,"))\\,,\\":11405,"|\\!|\\!|":11406,"}}|^{-":11407,"oci":11408,"qM":11409,"}^{*}}-\\":11410,")$}\\":11411,")*}\\":11412,"cH":11413,"506":11414,"})}>\\":11415,"}}^{*})^{":11416,">}":11417,"yd":11418,"})=-(\\":11419,"}|\\{\\":11420,"ĠHess":11421,"Rem":11422,"grade":11423,"\\|:":11424,"487":11425,"})]\\!":11426,"429":11427,"Lw":11428,"{|}{\\":11429,"Ġbl":11430,"Ġdivides":11431,"RZ":11432,"}^{!}":11433,"}|_{\\{":11434,"ĠTS":11435,"}}^{+}=\\":11436,"Ġeigenvalue":11437,")$},\\]":11438,"relint":11439,"\\#\\{":11440,"ĠPo":11441,"Ng":11442,"ĠCW":11443,"ĠTest":11444,"}_{+}:\\":11445,"Ġ\\,=\\,\\":11446,"565":11447,"JC":11448,"447":11449,"BGL":11450,"Time":11451,"Ġht":11452,"281":11453,"/((":11454,"rich":11455,"Eg":11456,"sM":11457,")}^{[":11458,"Ġinterse":11459,"060":11460,"VG":11461,"{'":11462,"tilt":11463,"ified":11464,"[{":11465,"})}}^{":11466,"}_{+\\":11467,"parti":11468,"065":11469,"Clo":11470,"GX":11471,"Ġ\\!\\!":11472,"^{-\\|":11473,"}):\\,\\":11474,"]+\\]":11475,"CAT":11476,"cF":11477,"}-((":11478,"Ġcx":11479,"},&|":11480,"})}}=":11481,"lection":11482,"child":11483,"]-[\\":11484,"QF":11485,"{\\!\\!":11486,"Ġ\\;\\;":11487,"cura":11488,"ĠBL":11489,"|]\\":11490,"}-(-\\":11491,"Ġscal":11492,",||":11493,"Lc":11494,"Ġps":11495,"qX":11496,"1324":11497,"}_{*}^{(":11498,"HJ":11499}