{"<s>":0,"<pad>":1,"</s>":2,"<unk>":3,"<mask>":4,"!":5,"\"":6,"#":7,"$":8,"%":9,"&":10,"'":11,"(":12,")":13,"*":14,"+":15,",":16,"-":17,".":18,"/":19,"0":20,"1":21,"2":22,"3":23,"4":24,"5":25,"6":26,"7":27,"8":28,"9":29,":":30,";":31,"<":32,"=":33,">":34,"?":35,"@":36,"A":37,"B":38,"C":39,"D":40,"E":41,"F":42,"G":43,"H":44,"I":45,"J":46,"K":47,"L":48,"M":49,"N":50,"O":51,"P":52,"Q":53,"R":54,"S":55,"T":56,"U":57,"V":58,"W":59,"X":60,"Y":61,"Z":62,"[":63,"\\":64,"]":65,"^":66,"_":67,"`":68,"a":69,"b":70,"c":71,"d":72,"e":73,"f":74,"g":75,"h":76,"i":77,"j":78,"k":79,"l":80,"m":81,"n":82,"o":83,"p":84,"q":85,"r":86,"s":87,"t":88,"u":89,"v":90,"w":91,"x":92,"y":93,"z":94,"{":95,"|":96,"}":97,"~":98,"¡":99,"¢":100,"£":101,"¤":102,"¥":103,"¦":104,"§":105,"¨":106,"©":107,"ª":108,"«":109,"¬":110,"®":111,"¯":112,"°":113,"±":114,"²":115,"³":116,"´":117,"µ":118,"¶":119,"·":120,"¸":121,"¹":122,"º":123,"»":124,"¼":125,"½":126,"¾":127,"¿":128,"À":129,"Á":130,"Â":131,"Ã":132,"Ä":133,"Å":134,"Æ":135,"Ç":136,"È":137,"É":138,"Ê":139,"Ë":140,"Ì":141,"Í":142,"Î":143,"Ï":144,"Ð":145,"Ñ":146,"Ò":147,"Ó":148,"Ô":149,"Õ":150,"Ö":151,"×":152,"Ø":153,"Ù":154,"Ú":155,"Û":156,"Ü":157,"Ý":158,"Þ":159,"ß":160,"à":161,"á":162,"â":163,"ã":164,"ä":165,"å":166,"æ":167,"ç":168,"è":169,"é":170,"ê":171,"ë":172,"ì":173,"í":174,"î":175,"ï":176,"ð":177,"ñ":178,"ò":179,"ó":180,"ô":181,"õ":182,"ö":183,"÷":184,"ø":185,"ù":186,"ú":187,"û":188,"ü":189,"ý":190,"þ":191,"ÿ":192,"Ā":193,"ā":194,"Ă":195,"ă":196,"Ą":197,"ą":198,"Ć":199,"ć":200,"Ĉ":201,"ĉ":202,"Ċ":203,"ċ":204,"Č":205,"č":206,"Ď":207,"ď":208,"Đ":209,"đ":210,"Ē":211,"ē":212,"Ĕ":213,"ĕ":214,"Ė":215,"ė":216,"Ę":217,"ę":218,"Ě":219,"ě":220,"Ĝ":221,"ĝ":222,"Ğ":223,"ğ":224,"Ġ":225,"ġ":226,"Ģ":227,"ģ":228,"Ĥ":229,"ĥ":230,"Ħ":231,"ħ":232,"Ĩ":233,"ĩ":234,"Ī":235,"ī":236,"Ĭ":237,"ĭ":238,"Į":239,"į":240,"İ":241,"ı":242,"Ĳ":243,"ĳ":244,"Ĵ":245,"ĵ":246,"Ķ":247,"ķ":248,"ĸ":249,"Ĺ":250,"ĺ":251,"Ļ":252,"ļ":253,"Ľ":254,"ľ":255,"Ŀ":256,"ŀ":257,"Ł":258,"ł":259,"Ń":260,"_{":261,"^{":262,"}\\":263,"ma":264,"th":265,"math":266,"}^{":267,"}(":268,"\\[":269,"ra":270,"ig":271,"})":272,",\\":273,"in":274,"le":275,"}_{":276,"ta":277,"Ġ\\":278,"{\\":279,"al":280,"me":281,"fra":282,"}}":283,"\\]":284,"frac":285,"\\[\\":286,"mathb":287,"ar":288,"_{\\":289,"ft":290,"ti":291,"(\\":292,"igh":293,"de":294,"righ":295,"=\\":296,"}{":297,"eta":298,"ph":299,"am":300,"left":301,"right":302,")\\":303,"}}\\":304,"^{\\":305,"-\\":306,"}(\\":307,"cal":308,"mathcal":309,"+\\":310,"si":311,"ri":312,"},\\":313,".\\]":314,"lo":315,"mathbb":316,"su":317,"|\\":318,"ot":319,"dot":320,"}^{\\":321,"rm":322,"pri":323,"prime":324,"psi":325,"mathbf":326,"}\\]":327,"leq":328,"},":329,"pha":330,"alpha":331,"to":332,"da":333,"amb":334,"ambda":335,"mathrm":336,"var":337,"na":338,"lon":339,"la":340,"})\\":341,"big":342,"sum":343,"lta":344,"lambda":345,"}_{\\":346,"psilon":347,"amma":348,"epsilon":349,"ex":350,"}+":351,"ga":352,"mega":353,"ng":354,"bo":355,"phi":356,"int":357,"til":358,"tilde":359,"igma":360,"qu":361,"}-":362,"cdot":363,"ngle":364,"ext":365,"text":366,"mu":367,"ad":368,"op":369,"par":370,"quad":371,"bol":372,"tial":373,"partial":374,"bm":375,"beta":376,"time":377,"times":378,"^{-":379,"er":380,"theta":381,"ll":382,"eq":383,"at":384,"gamma":385,"sigma":386,"}=":387,"hat":388,"|_{":389,"{(":390,"}+\\":391,"ho":392,"}=\\":393,"fty":394,"infty":395,"tau":396,"tor":397,"lin":398,"era":399,"Ġ&":400,"line":401,"erator":402,"operator":403,"name":404,"operatorname":405,"delta":406,"varepsilon":407,"rho":408,"wi":409,",\\]":410,"}{\\":411,"bar":412,"nd":413,"pi":414,"wide":415,")\\]":416,")^{":417,"xi":418,"}.\\]":419,"}}{":420,"se":421,"}-\\":422,"bla":423,")}\\":424,"nabla":425,"Big":426,"ell":427,"}|":428,"ap":429,"ds":430,"}}(":431,"ver":432,"eg":433,"Omega":434,"omega":435,"ro":436,"maths":437,"sq":438,"Ġ0":439,")=\\":440,"end":441,"beg":442,"begin":443,"over":444,"dots":445,"geq":446,"rt":447,"sqrt":448,"hi":449,")=":450,"})\\]":451,"}}^{":452,"|^{":453,"[\\":454,"rangle":455,"varphi":456,"nu":457,"overline":458,"ym":459,"Ġ\\[":460,"langle":461,"li":462,"De":463,"mathfra":464,"mathfrak":465,"ymbol":466,"bolds":467,"boldsymbol":468,"Delta":469,"^{*":470,"Ġ1":471,"Ġ\\[\\":472,"ldots":473,"set":474,"{)":475,"},\\]":476,"&\\":477,"otimes":478,"tar":479,"co":480,"widetilde":481,"}]":482,"}^{(":483,"Ġ{":484,"\\|":485,"tri":486,"mathsf":487,"Gamma":488,"log":489,"}:":490,"ray":491,"pa":492,"}^{-":493,"\\|_{":494,"Ġx":495,"ĠC":496,"}^{*":497,"matri":498,"matrix":499,"Ġ2":500,"row":501,"))":502,"}}\\]":503,"widehat":504,"min":505,"qquad":506,"\\\\":507,"}\\,":508,"{(}\\":509,"}}{\\":510,"kap":511,"kappa":512,"}}(\\":513,"Ġi":514,"})^{":515,").\\]":516,";\\":517,"Phi":518,"cdots":519,"rc":520,"\\{":521,"Ġf":522,"lim":523,"Ġ}":524,"us":525,"or":526,")-":527,"tarrow":528,"\\,":529,"Ġt":530,"zeta":531,"}}_{":532,"ci":533,"cap":534,"}})":535,"^{(":536,"Ġa":537,"circ":538,"Ġ}\\":539,"un":540,"Lambda":541,"{|":542,"),\\":543,"}\\|":544,")+":545,"chi":546,"),":547,"bigg":548,"sim":549,"Ġ=\\":550,"Ġn":551,")}":552,"rightarrow":553,"ve":554,"der":555,"Ġu":556,"under":557,"})=":558,"\\|\\":559,"Ġ=":560,"{(}":561,"nt":562,"sla":563,"cu":564,"}\\|_{":565,"}|\\":566,"array":567,"})=\\":568,"]\\":569,"sup":570,"Sigma":571,"pro":572,"}[":573,"Ġd":574,")(":575,")}{":576,"max":577,"sub":578,"cup":579,"re":580,"ca":581,"Ġ_{":582,"}\\\\":583,":=\\":584,"}\\,\\":585,"subset":586,"Ġ\\\\":587,"slant":588,")+\\":589,"\\[(":590,"cr":591,")-\\":592,"ed":593,"\\{\\":594,"case":595,"cases":596,"}/":597,"mathscr":598,"sp":599,"underline":600,"),\\]":601,"ĠL":602,"{)}\\":603,"dx":604,")^{\\":605,"pmatrix":606,"Ġk":607,"ge":608,"ck":609,"Ġ(":610,"prod":611,"ij":612,"lit":613,"id":614,"}&":615,"top":616,"ĠA":617,"ĠB":618,"<\\":619,"Ġc":620,"}},\\":621,"split":622,"^{-\\":623,"di":624,"pm":625,"}}^{\\":626,"Psi":627,"ss":628,"Ġs":629,"it":630,"ĠS":631,"!\\":632,"ĠT":633,"Ġ\\(":634,"_{*":635,"Ġe":636,"ĠH":637,".\\":638,"Ġ\\[=":639,"bf":640,"12":641,"))\\":642,"Ġv":643,"box":644,"}}.\\]":645,"Ġp":646,")}(":647,"leqslant":648,"edge":649,"fo":650,"})}\\":651,"wedge":652,"\\,\\":653,"colon":654,"rall":655,"forall":656,"}).\\]":657,"exp":658,"{[":659,"neq":660,"Ġ\\[=\\":661,"lus":662,"_{-":663,"})-":664,"..":665,"}}+\\":666,"star":667,")|":668,"vec":669,"less":670,"ĠN":671,"}}=\\":672,"lesssim":673,"oplus":674,"om":675,"minus":676,"}}}\\":677,"}|^{":678,"subar":679,"subarray":680,"ĠX":681,"ĠI":682,"}),\\":683,"setminus":684,"mid":685,"00":686,"_{(":687,"}\\|\\":688,"{]":689,"ĠM":690,"ul":691,"(-":692,"bmatrix":693,"}^{+":694,")\\,":695,"Ġy":696,"}:=\\":697,"dt":698,"})_{":699,"Ġ{\\":700,"sin":701,"bul":702,"}[\\":703,")_{":704,"/\\":705,"Ġr":706,"Pi":707,"\\}\\]":708,"Ġm":709,"ĠV":710,"}}=":711,"st":712,"Th":713,"Ġj":714,"}&\\":715,"ĠE":716,"ĠR":717,":\\":718,"})+":719,"hline":720,"ĠD":721,"\\[(\\":722,"Theta":723,"ĠF":724,"\\[\\|":725,"}},":726,"11":727,"cos":728,"limit":729,"]\\]":730,"}}+":731,"})(":732,"limits":733,"}})\\":734,"Ġ-":735,"})-\\":736,"10":737,"})^{\\":738,"}),":739,"mbox":740,")}{\\":741,"ĠP":742,"_{+":743,"Ġh":744,"if":745,"})+\\":746,"\\)":747,"Ġb":748,"\\|_{\\":749,")^{-":750,"{\\|":751,"Ġg":752,"^{+":753,"};":754,"ĠK":755,"\\[|":756,"Ġw":757,"cc":758,"Ġ^{":759,"\\}\\":760,"tfrac":761,"on":762,"ĠG":763,"flo":764,"floor":765,"Ġz":766,"):=\\":767,"}}_{\\":768,"pt":769,"}},\\]":770,"ps":771,":=":772,"}),\\]":773,"Ġ3":774,")}\\]":775,"long":776,"sh":777,"}}-":778,"}}|":779,"maps":780,"let":781,"mapsto":782,"subseteq":783,"}}-\\":784,"{|}\\":785,"Ġand":786,"Ġq":787,"}}}{":788,"bullet":789,"}\\)":790,"\\[\\|\\":791,"ln":792,"cong":793,"ce":794,"sta":795,"rel":796,"per":797,")|\\":798,"iv":799,"gg":800,"{\\{":801,"}:\\":802,"ĠU":803,"Ġ$":804,"|_{\\":805,"}=(":806,"}]\\":807,"{)}\\]":808,"bin":809,"^{*}\\":810,"};\\":811,"binom":812,"od":813,"stack":814,"stackrel":815,"))\\]":816,"longrightarrow":817,"})}{":818,"perp":819,",\\\\":820,"}>":821,"Ġ\\(\\":822,"gger":823,"dagger":824,"ĠW":825,"for":826,"}\\}\\]":827,"{-":828,"{[}\\":829,"\\[|\\":830,"Ġfor":831,"and":832,",\\,":833,"}))\\":834,"equ":835,"tr":836,"io":837,"\\|^{":838,"(-\\":839,"}^":840,"equiv":841,"vee":842,"iota":843,"Ġ&\\":844,"{)}":845,"inf":846,"Ġ(\\":847,"}\\|^{":848,"}(-":849,"\\}.\\]":850,"Ġ4":851,")\\|_{":852,"eqq":853,"16":854,"coloneqq":855,"vartheta":856,"bra":857,")]":858,"ch":859,"}_{+":860,"})^{-":861,"})}":862,"tt":863,",-":864,"13":865,"il":866,"...":867,"}\\|_{\\":868,")|^{":869,"dy":870,"}}\\,":871,"}^{*}\\":872,"((":873,"ĠQ":874,"Re":875,")\\,\\":876,"}})\\]":877,"dim":878,"ĠJ":879,"}+(":880,"}<":881,"ĠY":882,"Bigg":883,")/":884,")(\\":885,"Ġ-\\":886,"}{(":887,")}(\\":888,"}}}":889,")}_{":890,"^{*}":891,"}:=":892,"det":893,"22":894,"})|":895,"varrho":896,"xrightarrow":897,"}))\\]":898,"{)}^{":899,"+|":900,"}{|":901,"meq":902,"simeq":903,")\\\\":904,"^{*}(":905,"**":906,"Ġal":907,")}^{":908,"}/\\":909,")},\\":910,"]}\\":911,"tria":912,"-(":913,"}^{(\\":914,"}}{(":915,"{{\\":916,"+(":917,"mathds":918,"},\\\\":919,"ab":920,"\\[\\{":921,"Ġl":922,"bigcup":923,"Ġin":924,"Ġall":925,"Ġ}(":926,"}}|\\":927,"}_{(":928,"})\\,":929,"geqslant":930,"}}^{(":931,"lfloor":932,"Ġo":933,"ĠZ":934,"=(":935,")}=\\":936,"rfloor":937,"21":938,"Tr":939,"}}\\|":940,"Ġ\\[+\\":941,"}_":942,"]_{":943,"ble":944,"not":945,")=(":946,"}<\\":947,"vdots":948,"})}{\\":949,"]^{":950,"ol":951,")}.\\]":952,">\\":953,"Ġ+":954,",(":955,"23":956,"et":957,"}=\\{":958,"})}\\]":959,"].\\]":960,"24":961,"Ġ_{\\":962,"14":963,"&-":964,"div":965,",\\,\\":966,"}((":967,"mathtt":968,"_{[":969,"}]\\]":970,"arp":971,"em":972,"}.\\":973,"15":974,"\\[[":975,"bular":976,"tabular":977,"Ġ^{\\":978,"}|_{":979,"bigr":980,"ba":981,"bigl":982,"})(\\":983,"20":984,"Hom":985,"table":986,"Ġ}^{":987,"{[}":988,")}=":989,"Ġif":990,"}\\}\\":991,"(|":992,"{(\\":993,"}}\\,\\":994,")_{\\":995,"}}^{-":996,"ing":997,"}\\,.\\]":998,"})_{\\":999,"Ġ+\\":1000,"{)}.\\]":1001,"}^{*}":1002,"}=-\\":1003,")},":1004,"}([":1005,"Xi":1006,"Ġis":1007,"_{-\\":1008,"):=":1009,"\\[=\\":1010,"))^{":1011,"\\!\\":1012,")}+\\":1013,"|^{\\":1014,"Ġ5":1015,"prox":1016,"^{(\\":1017,"\\[=":1018,"{{":1019,"}_{-":1020,"|\\]":1021,"),(":1022,")&":1023,"}^{-\\":1024,"\\},\\]":1025,"triangle":1026,"}^{*}(":1027,"...,":1028,"dz":1029,"ker":1030,"deg":1031,"})}^{":1032,"}=(\\":1033,"slash":1034,"}-(":1035,"}}[":1036,"hbar":1037,"}}\\|\\":1038,"|}\\":1039,"mp":1040,"back":1041,"Ġ}_{":1042,"]=":1043,"}}^{*":1044,"backslash":1045,"{\\{}\\":1046,"Ġ10":1047,"}))":1048,"]=\\":1049,"{}_{":1050,"\\[{\\":1051,"pty":1052,"_{|":1053,"{|}":1054,"bigoplus":1055,"ec":1056,"ut":1057,"empty":1058,"Ġ|\\":1059,"Im":1060,"brace":1061,"{|\\":1062,"\\[-\\":1063,")}}\\":1064,"emptyset":1065,"}}}{\\":1066,"Ġ6":1067,"}_{*":1068,"approx":1069,"||":1070,")!":1071,"))=":1072,"brack":1073,"32":1074,"bracket":1075,"})|\\":1076,"ĠO":1077,"xy":1078,"Ġ)\\":1079,"}}{{\\":1080,"/(":1081,"}\\!\\":1082,"Ġof":1083,"underbrace":1084,"ref":1085,"ist":1086,"{}^{\\":1087,"}}}(":1088,"sharp":1089,"Ġth":1090,"}}\\\\":1091,"{]}\\":1092,"tion":1093,"}=-":1094,"},\\,":1095,"}\\{":1096,"Ġ}{":1097,"25":1098,"],":1099,"})\\|_{":1100,"hoo":1101,"varpi":1102,"):":1103,"01":1104,"che":1105,"ast":1106,"pre":1107,"overset":1108,"\\!":1109,"{\\|}\\":1110,"Ġ|":1111,"}*":1112,"))=\\":1113,"=-\\":1114,"sma":1115,"}}}\\]":1116,"Sp":1117,")}-":1118,"check":1119,")}+":1120,"du":1121,"],\\]":1122,"en":1123,"arrow":1124,"{\\{}":1125,"as":1126,"})\\\\":1127,"small":1128,"jk":1129,"{=":1130,"],\\":1131,"ag":1132,"\\[\\{\\":1133,"18":1134,"}({\\":1135,"arg":1136,"}\\,,\\]":1137,"}^{[":1138,"\\,.\\]":1139,"Upsilon":1140,"}\\}_{":1141,"exist":1142,"|\\,":1143,"ik":1144,"}):=\\":1145,"ert":1146,"([":1147,"Ġ\\[+":1148,"})}(":1149,"_{*}\\":1150,"dr":1151,"sc":1152,")})\\":1153,"underset":1154,"rr":1155,"exists":1156,")}-\\":1157,"99":1158,")>":1159,"+|\\":1160,"_{(\\":1161,"^{*}_{":1162,"|=":1163,"}\\!":1164,"prec":1165,"})\\,\\":1166,"Vert":1167,"limsup":1168,"with":1169,")&\\":1170,"oth":1171,"ign":1172,")},\\]":1173,"ow":1174,")).\\]":1175,"}+\\|":1176,"es":1177,"\\;":1178,",&\\":1179,"})=(":1180,"mod":1181,"Ġ:=\\":1182,"ip":1183,"}})^{":1184,"17":1185,")\\|":1186,")=-\\":1187,"xx":1188,"{\\|}_{":1189,"\\},\\":1190,"\\}}\\":1191,"Ġ}}\\":1192,"]}":1193,"}\\;":1194,"-|":1195,"=-":1196,"dfrac":1197,"mn":1198,"rce":1199,"Ġ}(\\":1200,"[-":1201,"{)},\\]":1202,"rceil":1203,"{)}^{\\":1204,"34":1205,"ceil":1206,"27":1207,"})]":1208,"lceil":1209,"vert":1210,"}$":1211,"((\\":1212,"Ġ8":1213,"con":1214,"own":1215,"}+\\|\\":1216,"Ġ\\,\\":1217,"}]_{":1218,"!}\\":1219,"Ġ\\|":1220,")<":1221,"19":1222,"\\[[\\":1223,"{]}\\]":1224,"are":1225,"Ġ[":1226,"33":1227,"ii":1228,"}\\;\\":1229,"down":1230,"^{*}(\\":1231,"odot":1232,"Righ":1233,"Bigr":1234,"tan":1235,"}(|":1236,"Rightarrow":1237,"smallmatrix":1238,"Bigl":1239,"})}.\\]":1240,"{(}(":1241,"Id":1242,"ere":1243,")+(":1244,"},\\,\\":1245,"}]=":1246,"}}&":1247,")\\)":1248,"}}\\|_{":1249,"diag":1250,"textbf":1251,"Ġ&=\\":1252,"[(":1253,"64":1254,"Ġ**":1255,"is":1256,"}+|":1257,"wise":1258,"dist":1259,"Ġ\\,":1260,"bigcap":1261,";\\]":1262,"}|_{\\":1263,"an":1264,"supp":1265,"ral":1266,"}}{|":1267,"tin":1268,"lef":1269,")^{-\\":1270,"tiny":1271,"}+(\\":1272,"},...,":1273,"bold":1274,"notin":1275,"boldmath":1276,"mul":1277,"erwise":1278,"^{-(":1279,"45":1280,"Ġ7":1281,"}\\}.\\]":1282,"Ġon":1283,"limin":1284,"sqcup":1285,"liminf":1286,")})":1287,"{|}_{":1288,")^{*":1289,"_{\\{":1290,"Ġdx":1291,"|}":1292,"kl":1293,")}_{\\":1294,"II":1295,"leftarrow":1296,"sf":1297,"}})=\\":1298,"28":1299,"Pr":1300,"*{":1301,"}{|\\":1302,"}\\{\\":1303,"ddots":1304,"),\\\\":1305,"},(":1306,"}|}\\":1307,")}}{":1308,"|(":1309,"dv":1310,"Ġ\\|\\":1311,"up":1312,"\\,,\\]":1313,"30":1314,"36":1315,"Lo":1316,"diam":1317,"leftrightarrow":1318,"\\{(":1319,"pr":1320,"iint":1321,"GL":1322,"}}[\\":1323,"_{*}(":1324,"}^{+}\\":1325,"}}&\\":1326,"squ":1327,"Co":1328,"downarrow":1329,"te":1330,"})/":1331,")\\|_{\\":1332,"(|\\":1333,"cd":1334,"56":1335,"\\[-":1336,")\\}\\]":1337,"Ġ9":1338,"ff":1339,"Ġ\\[-\\":1340,"}^{*}(\\":1341,"}}:=\\":1342,"rl":1343,"!\\!\\":1344,"}_{[":1345,")}|":1346,"hook":1347,"Ġ$\\":1348,"triang":1349,"000":1350,")}\\,":1351,"}})=":1352,"|\\,\\":1353,"hookrightarrow":1354,"({\\":1355,"triangleq":1356,"^{[":1357,"}>\\":1358,"](":1359,"48":1360,"here":1361,"}^{+}(":1362,"}}}(\\":1363,"}(-\\":1364,"}|=":1365,"|}{":1366,"40":1367,"{)}=\\":1368,")<\\":1369,"im":1370,"xt":1371,")\\|\\":1372,"]+":1373,"{}^{":1374,"35":1375,"(\\|":1376,"lor":1377,")\\,.\\]":1378,"nk":1379,"_{|\\":1380,"ac":1381,"multi":1382,"varsigma":1383,"cccc":1384,"biggr":1385,"llbracket":1386,")=-":1387,"Ġde":1388,"iff":1389,"|+":1390,")}}":1391,"{)}=":1392,"})|^{":1393,"igned":1394,"$\\":1395,"loc":1396,".}\\":1397,",|":1398,"ic":1399,"inter":1400,"square":1401,"pan":1402,"Var":1403,"}||":1404,"aligned":1405,"}]=\\":1406,"\\}":1407,"biggl":1408,"}=\\{\\":1409,"}^{+\\":1410,"AB":1411,"hbox":1412,"]_{\\":1413,"Ġ=-\\":1414,")=(\\":1415,"sk":1416,")}{(":1417,"sinh":1418,")]\\":1419,"rrbracket":1420,"Le":1421,"}|\\]":1422,"02":1423,"^{*},":1424,"cosh":1425,"):\\":1426,"},&\\":1427,"05":1428,"_{*}":1429,",&":1430,"Ġthe":1431,"{\\}}\\]":1432,"vol":1433,"]+\\":1434,"*\\":1435,"{\\}}.\\]":1436,"Ġ}^{\\":1437,")})\\]":1438,"=(\\":1439,"}}}{{\\":1440,"\\;\\":1441,"}}).\\]":1442,"dash":1443,"{\\|}":1444,"))}\\":1445,"31":1446,"|^{-":1447,",[":1448,"37":1449,"otherwise":1450,"]^{\\":1451,"}):":1452,"parrow":1453,"},-":1454,"boxtimes":1455,"))-":1456,",*":1457,"uparrow":1458,"})&":1459,"|-":1460,")),\\]":1461,"}}}^{":1462,"{)}\\,":1463,"eqref":1464,"#\\":1465,").\\":1466,"Ġwith":1467,"ni":1468,"100":1469,"lat":1470,"|+\\":1471,"]}(":1472,"{(-":1473,"{)}+\\":1474,"+}\\":1475,"Spec":1476,"})\\|^{":1477,"}))^{":1478,")}^{\\":1479,"26":1480,"}))=":1481,")[":1482,"intercal":1483,"&\\\\":1484,"\\}}":1485,"_{{}_{":1486,"\\%":1487,"{]}":1488,")/\\":1489,"Ġan":1490,"}((\\":1491,"{\\}}\\":1492,"75":1493,")=\\{":1494,"})}(\\":1495,"}\\,,\\":1496,"{|}^{":1497,"04":1498,"{=}}\\":1499,"}_{\\{":1500,"Ġco":1501,")-(":1502,"}}(-":1503,"sg":1504,"})).\\]":1505,"Ġ=(":1506,"}|^{\\":1507,"Ġ{-":1508,"}]^{":1509,"}))=\\":1510,"lel":1511,"curl":1512,"}+|\\":1513,"rallel":1514,"=\\{":1515,"96":1516,"parallel":1517,"&&":1518,"Long":1519,"^{*})\\":1520,",-\\":1521,"Du":1522,"supset":1523,");":1524,"}}}.\\]":1525,"Ġor":1526,"\\[+\\":1527,"succ":1528,"}),(":1529,"Ġto":1530,"})}=\\":1531,"Ġ}{\\":1532,"ct":1533,"ix":1534,"flat":1535,"mathop":1536,"cl":1537,"ring":1538,"(\\|\\":1539,"pmod":1540,"rad":1541,"||\\":1542,"}-(\\":1543,"Ġ:=":1544,"}}:":1545,"pq":1546,")),\\":1547,",+":1548,"-(\\":1549,"\\}^{":1550,"+\\|":1551,"03":1552,"lVert":1553,")\\|^{":1554,"Ġ},\\":1555,"Left":1556,"ly":1557,"])\\":1558,"_{+}(":1559,"Leftrightarrow":1560,"rVert":1561,"Ġ\\{":1562,"}:=\\{":1563,")\\,,\\]":1564,"^{*}}\\":1565,"Ġ)":1566,"^{+}(":1567,"50":1568,"Ġ\\|_{":1569,"},{\\":1570,"_{{\\":1571,"29":1572,"})>":1573,"imp":1574,"upsilon":1575,"+(\\":1576,"}{}^{":1577,",(\\":1578,"ddot":1579,"mathring":1580,"ond":1581,"}_{(\\":1582,",...,":1583,"Bo":1584,":\\,":1585,"Ext":1586,"lies":1587,")|_{":1588,"|.\\]":1589,"^{{}^{\\":1590,"arpo":1591,"hoose":1592,"uv":1593,"))-\\":1594,"choose":1595,"}&=":1596,"bre":1597,"lu":1598,"}})^{\\":1599,"no":1600,"Ad":1601,"}=[":1602,"})},\\]":1603,"}})_{":1604,"}||_{":1605,".}\\]":1606,"span":1607,"|=\\":1608,"ne":1609,"))+":1610,"44":1611,"}}:\\":1612,"38":1613,"out":1614,"ven":1615,"Ġ^{-":1616,"{(}-\\":1617,"98":1618,"skip":1619,"}].\\]":1620,"})&\\":1621,"})<":1622,"Sym":1623,"mo":1624,"Ġ})\\":1625,"{)}+":1626,"odd":1627,"}}]":1628,"{)}_{":1629,"implies":1630,"{\\|\\":1631,"rank":1632,"kern":1633,"ome":1634,"_{*}^{":1635,"\\,,\\":1636,"})=(\\":1637,"||_{":1638,"Mod":1639,"}]}\\":1640,"\\}_{":1641,"Box":1642,"Aut":1643,"sgn":1644,"},&":1645,"^{*}_{\\":1646,"]{":1647,"lvert":1648,"}||\\":1649,"))+\\":1650,"})+(":1651,"ji":1652,"Gr":1653,"}):=":1654,"}(\\{":1655,"60":1656,"[-\\":1657,"}_{+}^{":1658,"breve":1659,"]-\\":1660,",{\\":1661,"}{(\\":1662,"tu":1663,"}(|\\":1664,"rvert":1665,"Ġ}_{\\":1666,"-|\\":1667,"*}\\":1668,"ord":1669,"&-\\":1670,"Ġ},":1671,"}^{*},\\":1672,"};\\]":1673,"))^{\\":1674,"{(}(\\":1675,")\\;":1676,"}](":1677,"}\\},\\":1678,"}^{-}(":1679,"}&=\\":1680,"})\\}\\]":1681,"ir":1682,"})]\\":1683,"]\\\\":1684,"}}^{+":1685,"bigwedge":1686,"hskip":1687,"}^{-}\\":1688,"}}\\,.\\]":1689,"oint":1690,"bc":1691,")^":1692,"_{+}\\":1693,")}}{\\":1694,"{-\\":1695,"}*\\":1696,"where":1697,"}):\\":1698,"he":1699,"Ġ}}":1700,"=\\,\\":1701,"{$":1702,"{)}(":1703,"varkappa":1704,"bb":1705,"gr":1706,"KL":1707,"Ġ\\[=-\\":1708,"Ġ}+\\":1709,"SL":1710,"06":1711,"(\\{":1712,"})\\|":1713,"Ġ}-":1714,"}.":1715,"overrightarrow":1716,"{]}.\\]":1717,"res":1718,"ze":1719,"Res":1720,"}}<\\":1721,"def":1722,"}^{*},":1723,"_{*}(\\":1724,")^{(":1725,"78":1726,"}/(":1727,"Ġas":1728,"79":1729,")|\\]":1730,"})}=":1731,"08":1732,"76":1733,"}{}_{":1734,")}\\\\":1735,"ect":1736,"Ġ{(":1737,"Ġ\\((":1738,"))(":1739,"}}/":1740,"))_{":1741,"+\\|\\":1742,"dxdt":1743,"}\\},\\]":1744,"{|}_{\\":1745,"}\\,(":1746,"preceq":1747,"lumn":1748,"^{*}-":1749,"Ġsome":1750,"ev":1751,"End":1752,")}|\\":1753,"}})(":1754,"vdash":1755,";\\;\\":1756,"}}|^{":1757,"Ġ\\[-":1758,"Ġ}+":1759,"dV":1760,"})}+\\":1761,"55":1762,"{)}-\\":1763,"^{+}_{":1764,"|<":1765,"Ġthat":1766,"{}_{\\":1767,"!}":1768,"}}{(\\":1769,"neg":1770,"mathit":1771,"ts":1772,"![":1773,"Ġ&+\\":1774,"ind":1775,"ru":1776,"})\\|\\":1777,"diamond":1778,"column":1779,"}}},\\":1780,"\\}=\\":1781,"^{+}\\":1782,"]-":1783,"rtimes":1784,"multicolumn":1785,"];":1786,"})/\\":1787,"TV":1788,"49":1789,");\\":1790,"}^{*})\\":1791,"longmapsto":1792,"Ind":1793,"^{-}(":1794,"lg":1795,"})<\\":1796,"})},\\":1797,"{)},\\":1798,"Ġ&=":1799,"el":1800,"}|+":1801,"...,\\":1802,"kj":1803,"_{-}(":1804,"}&-":1805,"}|+|":1806,")]\\]":1807,"\\|\\]":1808,"}],":1809,"}})}\\":1810,"},(\\":1811,"texttt":1812,"39":1813,"Ġ/":1814,"}}<":1815,"pth":1816,"|(\\":1817,"arc":1818,"ess":1819,"))\\,":1820,")}\\,\\":1821,"...\\":1822,"})^{*":1823,"Ġ=-":1824,"|)\\":1825,"Ġ:\\":1826,"Ġ}|":1827,"dW":1828,"})=-\\":1829,"Ġany":1830,"othing":1831,"gcd":1832,"{\\}},\\]":1833,"\\,(":1834,"]}\\]":1835,"}}),\\]":1836,"46":1837,"}^{+}":1838,"varn":1839,"varnothing":1840,"Ġcon":1841,"88":1842,"})\\,.\\]":1843,"}]+":1844,"}=\\{(":1845,"Ġ)^{":1846,"_{+}^{":1847,"^{+}}\\":1848,"{)}^{-":1849,")})^{":1850,",|\\":1851,"rk":1852,"]\\!":1853,"np":1854,"}],\\":1855,"Ġ*":1856,"}}+\\|":1857,"}\\.\\]":1858,"{|}\\]":1859,"dxdy":1860,"}),\\\\":1861,"Ġdt":1862,"Ġ\\[=(":1863,"}}),\\":1864,"{=}}":1865,"}[(":1866,"!\\!":1867,"ax":1868,"gen":1869,"}}>":1870,"tanh":1871,"^{*})":1872,"]}{":1873,"}}}=\\":1874,"\\|(":1875,",\\;":1876,"ijk":1877,"}}}^{\\":1878,"}}\\}\\]":1879,"}}\\)":1880,"07":1881,"))}{":1882,"{)}\\\\":1883,"proj":1884,"^{*},\\":1885,"Ġsu":1886,"{)}\\,\\":1887,"|+|":1888,"Vol":1889,"}^{*}\\]":1890,")|=":1891,"ymp":1892,"SO":1893,"}}^":1894,"}}^{(\\":1895,"[(\\":1896,"Ax":1897,"dw":1898,"bbk":1899,"Bbbk":1900,"\\},":1901,")}\\|_{":1902,"\\[\\{(":1903,":\\,\\":1904,"hom":1905,"triangleright":1906,"|}{\\":1907,"Lip":1908,"Li":1909,"Ġ}-\\":1910,"}]_{\\":1911,")}{|":1912,"80":1913,"}}=(":1914,"}}{|\\":1915,"42":1916,"\\[+":1917,"reg":1918,"}}]\\":1919,"very":1920,"|)^{":1921,"rs":1922,"},-\\":1923,"})),\\]":1924,")>\\":1925,"Ġre":1926,")}\\|":1927,")^{|":1928,"),&":1929,"|>":1930,"Ric":1931,"])\\]":1932,"textsc":1933,"})\\)":1934,"Ġ{*":1935,"})=\\{":1936,"Ġ\\[(":1937,"ccc":1938,"mathbin":1939,"}:=(":1940,"72":1941,"_{-}\\":1942,"gtr":1943,"imath":1944,"_{[\\":1945,"}}^{*}\\":1946,"dm":1947,"Ġevery":1948,"})\\|_{\\":1949,"95":1950,"Ġodd":1951,"43":1952,"}}},\\]":1953,"})[":1954,"})-(":1955,"}_{+}\\":1956,"pe":1957,"}^{*}}\\":1958,"}|}{":1959,"del":1960,"asymp":1961,"tharpo":1962,",+\\":1963,"}}}+\\":1964,"\\},\\{":1965,"-\\!":1966,"}^{{}^{\\":1967,"})]\\]":1968,"gtrsim":1969,"hd":1970,"})}{(":1971,"}|-":1972,"{-}\\":1973,"})}+":1974,"=\\,":1975,"41":1976,"\\}=":1977,"sign":1978,")\\}\\":1979,"bigvee":1980,"}]^{\\":1981,"{)}-":1982,"}})-":1983,"}})^{-":1984,"Ġeven":1985,"Ker":1986,"hen":1987,"df":1988,"}^{*}=\\":1989,")}}\\]":1990,"nm":1991,"}}}{{=}}\\":1992,"}})+\\":1993,"}{\\|":1994,"}-|":1995,"wp":1996,"^{*}}":1997,"}})-\\":1998,"dR":1999,"eigh":2000,"}{}^{\\":2001,")&=":2002,"qed":2003,"bmod":2004,"rn":2005,"_{+}":2006,"ise":2007,"vbox":2008,")]^{":2009,"Di":2010,"},[":2011,"}})+":2012,"}\\}}\\":2013,")\\!":2014,"nolimits":2015,"47":2016,"yy":2017,"}}+\\|\\":2018,"tw":2019,"}\\|\\]":2020,"),&\\":2021,"Ġ)}\\":2022,"sym":2023,"onu":2024,"Longrightarrow":2025,"66":2026,"}};\\":2027,"tharpoonu":2028,"tharpoonup":2029,"}],\\]":2030,"nn":2031,")\\}.\\]":2032,")),":2033,";\\\\":2034,"09":2035,"{(}|":2036,"\\{|":2037,"Cov":2038,"\\,|\\,":2039,"}).\\":2040,"HS":2041,"}\\,\\]":2042,"so":2043,"XY":2044,"}}\\,,\\]":2045,"wt":2046,"|<\\":2047,"{\\|}_{\\":2048,"tive":2049,"}]+\\":2050,"Ġds":2051,"58":2052,"bigotimes":2053,")!}\\":2054,"]}(\\":2055,"}))}\\":2056,"^{*}}(":2057,"Sh":2058,")_{+":2059,"{,":2060,"}|.\\]":2061,"dp":2062,"red":2063,"}(\\|":2064,"dom":2065,"},\\;":2066,"{(}-":2067,")&=\\":2068,"^{|":2069,"}|=\\":2070,"}}{\\|":2071,"Ġ12":2072,"})=-":2073,"val":2074,"}}:=":2075,"})^{-\\":2076,"}}}_{":2077,"grad":2078,"cline":2079,"})}^{\\":2080,"ction":2081,"Ġ=(\\":2082,"123":2083,"Longleftrightarrow":2084,"Ġdef":2085,"rightharpoonup":2086,"}^{*}_{":2087,"}=[\\":2088,"\\{-":2089,"}^{+}(\\":2090,"mk":2091,"}{*":2092,"sm":2093,"](\\":2094,"CS":2095,"}!":2096,";\\;":2097,"\\.\\]":2098,"\\})\\":2099,"77":2100,"Ġ\\(-":2101,"}&-\\":2102,"}|+\\":2103,"dg":2104,"Ġâ":2105,"})\\,,\\]":2106,"Pro":2107,"Ġ}}{":2108,"))}{\\":2109,"dS":2110,")}[":2111,"multirow":2112,"mb":2113,"Ġwhere":2114,"av":2115,"ty":2116,"}}.\\":2117,"}|(":2118,"}\\}":2119,"+\\!":2120,"SE":2121,"tx":2122,"&(":2123,"rule":2124,":(":2125,"ia":2126,"Ġ16":2127,"([\\":2128,"tra":2129,"}\\,|\\,":2130,"^{+}":2131,"\\[||":2132,"ki":2133,"gh":2134,")}}(":2135,"Op":2136,"eight":2137,"}}\\|_{\\":2138,"ent":2139,"{]},\\]":2140,"})|_{":2141,"54":2142,"))^{-":2143,"}}{{":2144,"}))_{":2145,"Ġsuch":2146,"68":2147,",\\{":2148,"ea":2149,"}_{>":2150,"eff":2151,"|^{-\\":2152,"}])\\":2153,")}&":2154,"57":2155,"BC":2156,"0000":2157,"=[":2158,"{(}\\|":2159,"Ġ})":2160,"}}}=":2161,"{-}":2162,"{{(":2163,"\\(\\":2164,"})|\\]":2165,"succeq":2166,"low":2167,")/(":2168,"}^{*}-":2169,"}}((":2170,"argmin":2171,"opt":2172,"supseteq":2173,"}}=-\\":2174,")}:=\\":2175,"})}_{":2176,"_{\\{\\":2177,"Alg":2178,"Ġ^{(":2179,"})^{*}\\":2180,"}|}":2181,"bigsqcup":2182,"}]-":2183,"}};":2184,"|-\\":2185,"97":2186,"po":2187,"}}+(":2188,")}\\|\\":2189,"}=\\|":2190,"}}/\\":2191,")^{+":2192,"})\\}_{":2193,"kn":2194,"}([\\":2195,"\\[\\|(":2196,"}))-":2197,"jj":2198,"^{\\#":2199,"wid":2200,"ree":2201,"^{*}+":2202,"prop":2203,"dd":2204,"$,":2205,"ib":2206,"dA":2207,"^{-}\\":2208,"\\[(-":2209,")}&\\":2210,"})^{(":2211,"\\|(\\":2212,")+(\\":2213,"}:(":2214,"Con":2215,"triangleleft":2216,"}}}}\\":2217,"Ġ}\\,":2218,"{|}\\,\\":2219,"Pic":2220,"model":2221,"}={\\":2222,"width":2223,"cy":2224,"}}]\\]":2225,"},...,\\":2226,"}}\\{":2227,"CP":2228,"67":2229,"}_{\\{\\":2230,"}),(\\":2231,"ub":2232,"[\\![":2233,"&=":2234,")^{*}\\":2235,"),\\,":2236,"}^{*}-\\":2237,"59":2238,"{(}\\|\\":2239,"Ġ(-":2240,"dX":2241,"}}\\!\\":2242,"natu":2243,"|\\!":2244,"_{-}":2245,"raise":2246,"iz":2247,"){\\":2248,"}:=\\{\\":2249,"|,\\]":2250,"{]}^{":2251,"^{-(\\":2252,"&&\\":2253,"^{*}=\\":2254,"yz":2255,"!(":2256,"BM":2257,"Coh":2258,")))\\":2259,"[[":2260,"Ġ[\\":2261,"}}=(\\":2262,"Ġ11":2263,"}=(-":2264,"}|+|\\":2265,"natural":2266,"Ġdepth":2267,"})}}\\":2268,"Ġ|^{":2269,"\\{-\\":2270,")))\\]":2271,"52":2272,"}}}+":2273,"St":2274,"))\\,\\":2275,"Ch":2276,"}\\,(\\":2277,"erm":2278,"{\\|}^{":2279,"))}":2280,"by":2281,"}))+":2282,"Ġdy":2283,"}}|_{":2284,"Ġ14":2285,"\\|_":2286,"})),\\":2287,"-$":2288,"SS":2289,"TM":2290,"}^{|":2291,"\\(":2292,"):=\\{":2293,"models":2294,"_{-}^{":2295,"conv":2296,"}}_{(":2297,";.\\]":2298,"}^{(-":2299,"}},\\\\":2300,"}}}{(":2301,"ĠRe":2302,"{[}(":2303,"{(}|\\":2304,")\\,,\\":2305,"Ġ}}(":2306,"gets":2307,")=\\{\\":2308,"vrule":2309,"Ġ20":2310,"^{-}_{":2311,"}^{*}=":2312,")[\\":2313,"|\\!\\":2314,"Map":2315,"}]}":2316,"{|}\\,":2317,"^{|\\":2318,"})^":2319,"}{}{":2320,"],[":2321,"}(\\|\\":2322,"ue":2323,"|,\\":2324,"AC":2325,"\\#":2326,"lk":2327,"au":2328,"}:=(\\":2329,"Ġoth":2330,"})}\\|":2331,"=|":2332,"}_{{\\":2333,"128":2334,")|_{\\":2335,"rcl":2336,"63":2337,"}))+\\":2338,"})+(\\":2339,"Ġ\\{\\":2340,"65":2341,"}))^{\\":2342,"}))-\\":2343,"/(\\":2344,")*":2345,"Ġwidth":2346,"90":2347,"}})_{\\":2348,"_{*},":2349,"{\\}}":2350,"Ġheight":2351,")\\;\\":2352,"}])\\]":2353,"smallsetminus":2354,",\\;\\":2355,"Ġat":2356,"})}-\\":2357,"dn":2358,"),(\\":2359,"Ġse":2360,"}}{{=}}\\":2361,"{$-$":2362,"})}-":2363,"}]-\\":2364,"}}{\\|\\":2365,"}\\|(":2366,"dB":2367,"propto":2368,"51":2369,"^{*}\\]":2370,"}))(":2371,"Ġ28":2372,"ns":2373,"kk":2374,"}}),":2375,"}[\\|\\":2376,"iy":2377,"bs":2378,"],\\\\":2379,"|)":2380,"},|":2381,"^{+}_{\\":2382,"ur":2383,"}-{\\":2384,")$":2385,"}=|":2386,"ĠCh":2387,"-\\!\\":2388,"\\{(\\":2389,"}^{-}":2390,"69":2391,"]\\,":2392,"Ġdi":2393,"+}":2394,"xz":2395,"{]}=\\":2396,"\\})\\]":2397,")-(\\":2398,"ter":2399,",\\|":2400,"In":2401,"{\\{}(":2402,"},\\{":2403,"\\,\\]":2404,"\\}\\\\":2405,"}\\,{\\":2406,"];\\":2407,"^{*})\\]":2408,"NR":2409,"84":2410,"Ġtr":2411,"});\\":2412,"}+{\\":2413,"sl":2414,"}}))\\]":2415,")}^{(":2416,"}}}-\\":2417,"70":2418,"=\\{\\":2419,"cop":2420,"oly":2421,"}^{*})^{":2422,"HH":2423,";(":2424,"Ġ=&\\":2425,"Ġ}|\\":2426,"}\\,\\,\\":2427,"}|<":2428,"cale":2429,"\\,(\\":2430,"}{}_{\\":2431,"uu":2432,"_{*}^{\\":2433,"CH":2434,"erf":2435,"}}))\\":2436,"81":2437,"&=\\":2438,"\\[((":2439,"}|^{-":2440,"}[\\|":2441,"}}},":2442,"}{*}{":2443,"Gal":2444,"}^{*}+":2445,"uph":2446,"onright":2447,"arpoonright":2448,"upharpoonright":2449,"dk":2450,"53":2451,"89":2452,")=(-":2453,"}|>":2454,"Ġotherwise":2455,"{}":2456,"}^{*})\\]":2457,"jl":2458,"$}\\":2459,"))}\\]":2460,"init":2461,"}\\;\\;":2462,"Fro":2463,"}[|":2464,"}}=\\{":2465,"+\\!\\":2466,"Ġ=\\{":2467,"86":2468,")})=\\":2469,"km":2470,"|+|\\":2471,"}[(\\":2472,"}=\\|\\":2473,"und":2474,"]}{\\":2475,"rner":2476,"kh":2477,"},\\;\\":2478,")]=":2479,"}\\,|":2480,"})>\\":2481,"bot":2482,"Ġdiv":2483,"Ex":2484,"^{**":2485,"}_{+}(":2486,"raisebox":2487,"corner":2488,"]^{-":2489,"Ġ<":2490,"}_{-\\":2491,")]=\\":2492,"}[-":2493,"Rep":2494,"&*":2495,"200":2496,"\\[||\\":2497,"&&\\\\":2498,"}}\\|^{":2499,"}}}-":2500,"\\}}\\]":2501,".\\\\":2502,"ach":2503,")})_{":2504,"inv":2505,"|}\\]":2506,")\\.\\]":2507,"}_{|":2508,"NN":2509,"Biggr":2510,"}}^{*}":2511,"$}.\\]":2512,"};\\\\":2513,"pace":2514,"when":2515,"Ġ&-\\":2516,"}](\\":2517,"\\_":2518,"cot":2519,"),\\,\\":2520,")=[":2521,"}}\\!":2522,"PS":2523,"dh":2524,"fg":2525,")})=":2526,"mi":2527,"})-(\\":2528,"RS":2529,"}})(\\":2530,"})[\\":2531,"Ġ\\[=(\\":2532,"angle":2533,"}\\!\\!\\":2534,"bd":2535,"))(\\":2536,")|=\\":2537,"^{*})^{":2538,"}]\\!":2539,"ĠCe":2540,"Ġun":2541,"Ġ\\[=-":2542,"_{+}(\\":2543,"74":2544,"acu":2545,"tab":2546,")|}\\":2547,"85":2548,"}^{+}}\\":2549,"Ġij":2550,"{]}=":2551,"\\|=\\":2552,"=\\!\\":2553,"rhd":2554,"#\\{":2555,"[\\|\\":2556,"+(-":2557,"}^{+},\\":2558,"}}^{*}(":2559,"acute":2560,"}^{*})":2561,"Biggl":2562,"gl":2563,"^{*}-\\":2564,"dq":2565,"dle":2566,"}\\,|\\,\\":2567,"}}})\\":2568,"arctan":2569,"black":2570,"Fun":2571,");\\]":2572,"\\}}(":2573,"Ġma":2574,"\\[{}_{":2575,"Ġ}[":2576,"}-|\\":2577,"^{*}=":2578,"ment":2579,"head":2580,"$}_{":2581,"}+(-":2582,"III":2583,"rd":2584,"scale":2585,"}^{|\\":2586,"}}}{{=}}":2587,"rod":2588,"}^{*}+\\":2589,"})\\}\\":2590,"Ġby":2591,")]_{":2592,"two":2593,"*}":2594,"]}^{":2595,"\\,{\\":2596,"ĠTr":2597,"Ġ13":2598,")})^{\\":2599,"Df":2600,"_{*}}\\":2601,"})}+\\|":2602,"]{\\":2603,"-}\\":2604,"87":2605,"Ġme":2606,"Ġ}\\,\\":2607,"}^{+}_{":2608,"genfrac":2609,"Ġ\\[(\\":2610,"Ġra":2611,"colim":2612,"\\[\\|(\\":2613,"fin":2614,"Ġ100":2615,"ror":2616,"}|}{\\":2617,"yx":2618,"Ġ&+":2619,")}}{{\\":2620,"coprod":2621,"Diff":2622,")(-":2623,"ay":2624,"Ġ}}^{":2625,"{]}+\\":2626,"):=(":2627,"]:":2628,")|}{":2629,"SA":2630,"\\|.\\]":2631,"size":2632,"Ġ}=\\":2633,"}_{*}\\":2634,"middle":2635,"]}|":2636,"ST":2637,"|>\\":2638,"Fil":2639,"CA":2640,"{$\\":2641,"+\\,\\":2642,"SU":2643,"}-\\|":2644,"twohead":2645,"twoheadrightarrow":2646,"\\,,":2647,"{(}[":2648,"subsetneq":2649,"})},":2650,"_{+}^{\\":2651,"});":2652,"[\\|":2653,")}+\\|":2654,"})}\\\\":2655,"ard":2656,"_{+},":2657,"^{(-":2658,")|^{\\":2659,"}=|\\":2660,"mber":2661,"AA":2662,"61":2663,")\\}_{":2664,"=\\!":2665,"^{*}\\|^{":2666,"ale":2667,"bi":2668,"Ġ<\\":2669,"Av":2670,"sion":2671,"scalebox":2672,"_{\\|":2673,")}}.\\]":2674,"mal":2675,"73":2676,"}\\})\\]":2677,"$-":2678,"}}_":2679,"})}|":2680,"}^{+},":2681,"))\\\\":2682,"atop":2683,"inj":2684,"ML":2685,")}).\\]":2686,"}|)\\":2687,"alg":2688,"^{*}\\|_{":2689,"^{+}}":2690,"}^{\\#":2691,"})^{*}":2692,"Ġ\\|_{\\":2693,"comp":2694,"}\\}=\\":2695,"94":2696,")|\\,":2697,"LS":2698,"))}^{":2699,"Ġ}}{\\":2700,"tic":2701,"}\\,\\,":2702,"_{<":2703,"ran":2704,"IJ":2705,"Ġeach":2706,"}+\\]":2707,"CC":2708,"PT":2709,"}^{-}(\\":2710,"^{+}(\\":2711,"}}\\}\\":2712,"}}\\;":2713,"}\\},":2714,"Ġ&&":2715,"}\\,:\\,":2716,"upp":2717,"sn":2718,"[|":2719,"499":2720,"Ġ}^{(":2721,"Ġ15":2722,":=\\{":2723,"_{*})\\":2724,"})}\\|\\":2725,"}_{+}}\\":2726,"BK":2727,"]=[":2728,"Int":2729,"}\\|(\\":2730,"}})}{":2731,"_{\\#":2732,"lm":2733,"}}([":2734,"Ġ\\|^{":2735,"}})}":2736,"}^{[\\":2737,"}\\}}":2738,"Ġ)-":2739,"}\\}=":2740,"Ġid":2741,")}<\\":2742,"![\\":2743,"be":2744,"ys":2745,"})}}{":2746,"\\}^{\\":2747,")\\},\\]":2748,"{)}\\,.\\]":2749,"92":2750,"=\\{(":2751,"Ġ}=":2752,"doteq":2753,"Cl":2754,"\\|=":2755,"}:|":2756,"searrow":2757,"}}=-":2758,"Lie":2759,"]}=\\":2760,"}\\;\\;\\":2761,")^{|\\":2762,"ltimes":2763,":,":2764,"nh":2765,"}^{*}}":2766,"Ġmod":2767,"=|\\":2768,"\\{|\\":2769,"}\\;.\\]":2770,"dP":2771,"4527":2772,"pp":2773,"}})\\,":2774,"}(\\{\\":2775,"\\!-\\!":2776,"ih":2777,"}}})\\]":2778,"}{$\\":2779,"aa":2780,"\\|+\\":2781,"!}{":2782,"{)}_{\\":2783,")|.\\]":2784,"378":2785,"Ġare":2786,"))|\\":2787,"})\\;":2788,"^{*}}{":2789,"ject":2790,"}^{+}\\]":2791,"CF":2792,"}|<\\":2793,"Stab":2794,"\\}+\\":2795,"}})}{\\":2796,"_{{}_{\\":2797,"Ġad":2798,")!\\":2799,"Ġno":2800,"sing":2801,"ation":2802,"Ġ)-\\":2803,"}}({\\":2804,"Ġop":2805,"62":2806,"}\\|=\\":2807,"||^{":2808,"}\\})\\":2809,"Ġmin":2810,"71":2811,"Cat":2812,"}|=|":2813,"=\\;\\":2814,"depth":2815,"}}\\{\\":2816,"+\\,":2817,"AP":2818,"|}{|":2819,"]},\\":2820,"}}}|":2821,"=}\\":2822,"\\,|\\,\\":2823,"cn":2824,"}\\#":2825,"{)}(\\":2826,"Ġpa":2827,"CR":2828,"}{\\|\\":2829,"Ġ}\\\\":2830,"}_{*}(":2831,"SD":2832,"}||^{":2833,"cs":2834,")].\\]":2835,"^{*}+\\":2836,"}}}{{":2837,")}=(":2838,"_{,":2839,"|^":2840,"93":2841,"})}\\,\\":2842,"][":2843,")^{*}":2844,")=|":2845,"}^{*}_{\\":2846,"226":2847,"}...":2848,"}_{[\\":2849,"Ġint":2850,"cm":2851,"]\\)":2852,"Ġ{+":2853,")})-":2854,"})^{+":2855,"}&(":2856,"ĠâĢ":2857,"<+\\":2858,"MN":2859,"^{*}}^{":2860,"Tor":2861,"})\\}.\\]":2862,"})_{+":2863,"DR":2864,"|/":2865,"}})}\\]":2866,"\\[(-\\":2867,"ull":2868,"}^{*}\\|_{":2869,"}|\\,":2870,"\\{\\|":2871,"_{+}-":2872,")\\,\\]":2873,"_{+}}\\":2874,"{/":2875,"aq":2876,"\\}&\\":2877,"]}_{":2878,".,":2879,"lr":2880,")}}^{":2881,"{)}}{\\":2882,"Ġ:":2883,"tom":2884,"ie":2885,"}\\|_":2886,"120":2887,"001":2888,").":2889,"))=(":2890,"})_{(":2891,"^{-}":2892,"projlim":2893,")}{(\\":2894,"^{+},":2895,"varprojlim":2896,"*{\\":2897,"<|":2898,"256":2899,"83":2900,"MC":2901,"})=\\{\\":2902,"kt":2903,"|\\\\":2904,"ens":2905,"Ġ),\\":2906,"vmatrix":2907,"})]^{":2908,")}\\,.\\]":2909,"$}\\\\":2910,")}}(\\":2911,"Ġbo":2912,"Ġtime":2913,"{)}}{":2914,"sr":2915,"$},\\\\":2916,")}[\\":2917,"CN":2918,"Span":2919,")||_{":2920,";\\,":2921,")!}":2922,"*_{":2923,"ominus":2924,"}}(-\\":2925,"}\\,\\|":2926,"PD":2927,")||":2928,"ype":2929,"}}^{[":2930,")\\!\\":2931,"*}(":2932,")}:":2933,"pn":2934,"}},&\\":2935,"inite":2936,"}|}{|":2937,"Ġdz":2938,"}^{\\,":2939,"Ġ18":2940,",\\,-":2941,"triangledown":2942,"}\\,|\\":2943,"abc":2944,"},\\{\\":2945,"}^{-(":2946,"nr":2947,"}|,\\]":2948,"BB":2949,"HF":2950,"Ġ&&&":2951,"curly":2952,"Supp":2953,"kx":2954,"Ġ>":2955,",\\|\\":2956,"zz":2957,"})})\\]":2958,"DG":2959,"Ġâľ":2960,"ple":2961,"\\[{}^{":2962,"}}-(":2963,"DF":2964,"nx":2965,"}|}\\]":2966,"|\\{":2967,"}|,\\":2968,"mm":2969,"Ġ)+\\":2970,"\\!\\!":2971,"ĠDe":2972,"}]=[":2973,"}\\,,":2974,"rea":2975,"||_{\\":2976,"IS":2977,"MM":2978,"111":2979,"bj":2980,"plus":2981,"]\\,\\":2982,"Ġ}\\]":2983,"dF":2984,"_{-}(\\":2985,"ld":2986,"}}(|":2987,"BS":2988,"])":2989,"Tx":2990,"Au":2991,"opy":2992,"}}}_{\\":2993,"}:=\\{(":2994,"{:":2995,"Ġloc":2996,"curlyeq":2997,"}\\,=\\,\\":2998,"Ġle":2999,":=(":3000,"}\\},\\{":3001,"even":3002,")|}{|":3003,"))_{\\":3004,"Ġ;\\":3005,"ize":3006,"})})\\":3007,")})-\\":3008,"kr":3009,"tions":3010,"RT":3011,")|+|":3012,"ep":3013,"Ġst":3014,")}]":3015,"cx":3016,"ity":3017,"Ġnot":3018,"tv":3019,"Ġ}^{-":3020,"jmath":3021,"\\[\\#":3022,"91":3023,"})}_{\\":3024,"})]_{":3025,"},[\\":3026,"ave":3027,"_{{":3028,"Ġpro":3029,"can":3030,"}|(\\":3031,"]\\}\\]":3032,"ccccc":3033,"Ġ})^{":3034,")}{|\\":3035,"form":3036,"\\,|":3037,"longleftrightarrow":3038,"cb":3039,"}}}\\|":3040,"{]}\\\\":3041,"}\\}_{\\":3042,"}}\\;\\":3043,"}/(\\":3044,"iu":3045,"}\\!\\!":3046,"}[|\\":3047,"}]}(":3048,"452756":3049,"])=\\":3050,"}]\\\\":3051,"}}\\,,\\":3052,"CD":3053,"}),&\\":3054,"Ġ{-\\":3055,"}_{{}_{":3056,"AD":3057,"CB":3058,"act":3059,"IC":3060,"{}\\":3061,"|,":3062,"]},":3063,"|}.\\]":3064,"\\[|(":3065,"SP":3066,"Ġ}}(\\":3067,"TC":3068,"})),":3069,"subject":3070,"tA":3071,".}":3072,")}+\\|\\":3073,"Ġ\\[+(":3074,"ak":3075,")}),\\":3076,"Hess":3077,"\\|^{\\":3078,"}\\|.\\]":3079,"}}}}":3080,"nge":3081,"}^{+}}":3082,"Dv":3083,"BV":3084,"})}|\\":3085,")_{(":3086,"new":3087,"\\),":3088,"}){\\":3089,"nc":3090,"}|,|":3091,"))\\|_{":3092,"BMO":3093,"ms":3094,"_{>":3095,"Set":3096,"})}\\,":3097,"^{-|":3098,"overleftarrow":3099,")}>":3100,",\\,\\,\\":3101,"Reg":3102,"Ġ\\([":3103,",[\\":3104,"Diam":3105,"kp":3106,"Mat":3107,"^{*}}(\\":3108,"})&=":3109,"}+[":3110,"mult":3111,"]}\\|":3112,"ded":3113,"Ġ\\#":3114,"}||_{\\":3115,"(\\{\\":3116,"bx":3117,"CT":3118,"})))\\]":3119,"sd":3120,"ngth":3121,"boxplus":3122,"lity":3123,"pk":3124,"!}(":3125,"}}||":3126,"cri":3127,"Ġ)^{\\":3128,"Ġ\\!\\":3129,"-\\|":3130,"Ġ}\\|":3131,"vi":3132,"}-\\|\\":3133,"}:(\\":3134,"})}+\\|\\":3135,")}/":3136,"82":3137,"|-|":3138,"}}}\\,":3139,"].\\":3140,"}]}\\]":3141,"{)}}\\":3142,"_{\\|\\":3143,"1000":3144,"}))}\\]":3145,"ĠCo":3146,"])=":3147,"{[\\":3148,"}}}\\,\\":3149,"})|_{\\":3150,"tit":3151,"}[[":3152,"}^{-},":3153,".+\\":3154,"rb":3155,"all":3156,"Br":3157,"}}((\\":3158,"010":3159,"jn":3160,"\\[\\#\\":3161,"}}{{=}}":3162,"Ġwhen":3163,"\\;.\\]":3164,"est":3165,"}_{*}^{":3166,"},\\|\\":3167,"}],[":3168,"Ġch":3169,")=\\]":3170,"Ġ-(":3171,"RF":3172,"ces":3173,"SH":3174,"Ġmax":3175,"Ġ^{-\\":3176,"cov":3177,"Ġ)=\\":3178,":|":3179,"Diag":3180,"cur":3181,"Ġ)=":3182,"Ġho":3183,"suit":3184,"bu":3185,"ks":3186,"NS":3187,"226378":3188,"tex":3189,"tal":3190,"err":3191,"LM":3192,"XX":3193,"GD":3194,"Ġ)+":3195,"tot":3196,"varPhi":3197,"}^{*}.\\]":3198,"textit":3199,"nearrow":3200,"]}=":3201,"Ġ&&\\":3202,"sed":3203,"Fix":3204,"tz":3205,"}\\|+\\":3206,"injlim":3207,"}),\\,":3208,"varinjlim":3209,"db":3210,"ae":3211,"125":3212,"\\|}\\":3213,"CM":3214,"app":3215,"Sq":3216,"Ġout":3217,"kly":3218,"Irr":3219,")!(":3220,"rom":3221,"Ġnu":3222,"eakly":3223,",}\\\\":3224,"{]}_{":3225,"Ġ)(":3226,"\\[\\{(\\":3227,"Ġdist":3228,"Ġset":3229,"})/(":3230,"|{\\":3231,"^{*})=\\":3232,"075":3233,"ilb":3234,"-(-":3235,"Spin":3236,"iq":3237,"the":3238,")!}{":3239,"SM":3240,")}|^{":3241,"+[":3242,"\\,:\\,":3243,"phan":3244,"}+...":3245,")})(":3246,"}}>\\":3247,"}\\,:\\,\\":3248,"}:\\,":3249,"BD":3250,"}^{+}-":3251,"phantom":3252,"}&\\\\":3253,"Ġ24":3254,"{]}^{\\":3255,"110":3256,"art":3257,"}},\\,\\":3258,"]:\\":3259,"|}(":3260,"Ġnon":3261,")}^{-":3262,"\\}\\,.\\]":3263,"})|=":3264,"BA":3265,"ĠHom":3266,"gx":3267,")={\\":3268,"}\\),":3269,"]}.\\]":3270,"(\\,\\":3271,"error":3272,"{]}+":3273,"Ġ\\}\\":3274,"}|-\\":3275,"AX":3276,"ĠSp":3277,"Ġdu":3278,"\\}+":3279,"-}":3280,"imize":3281,"}_{*}(\\":3282,")}(-":3283,"}^{\\{":3284,")|<\\":3285,"homot":3286,"_{-}^{\\":3287,"ht":3288,"[|\\":3289,"Ġ)}{":3290,"_{*},\\":3291,"))|":3292,"yp":3293,")}<":3294,"}}\\}_{":3295,"}}\\.\\]":3296,"}_{<":3297,"_{-},":3298,":(\\":3299,"\\}\\}\\]":3300,"trace":3301,"}^{-},\\":3302,"Proj":3303,"FS":3304,"Ġ17":3305,"}^{+})\\":3306,"}=\\]":3307,"aleph":3308,"\\))":3309,"}}]_{":3310,")\\,=\\,\\":3311,"homotopy":3312,"_{+},\\":3313,"br":3314,"Per":3315,"LT":3316,"!}\\]":3317,"des":3318,"}_{+}(\\":3319,"Ġ}\\|\\":3320,"!)^{":3321,"}]}{":3322,"112":3323,"nj":3324,"{[}(\\":3325,"Ġonly":3326,"})\\!":3327,"))}.\\]":3328,"td":3329,"sa":3330,"^{[\\":3331,"},\\|":3332,"Ġ\\!":3333,"Exp":3334,")|+\\":3335,"raph":3336,"]).\\]":3337,",:":3338,"ke":3339,"^{-}}\\":3340,")||\\":3341,"}_{|\\":3342,"]/(":3343,"\\},\\\\":3344,"meter":3345,"Ġ32":3346,"col":3347,"}}|_{\\":3348,"_{(-":3349,"})]=\\":3350,"}|-|":3351,"overbrace":3352,"})\\,,\\":3353,")]^{\\":3354,"SC":3355,"Ġ\\[<":3356,"Ġit":3357,"})]=":3358,"lement":3359,"794":3360,"{[}{":3361,"}_{+}}":3362,"}},\\,":3363,"=\\;":3364,"}_{-}\\":3365,"\\,\\,\\":3366,"}}+(\\":3367,"{)}.\\":3368,"}^{+}_{\\":3369,"]+[":3370,"rot":3371,"pl":3372,"{)},":3373,"avg":3374,"_{-}}\\":3375,"}!\\":3376,"Ġ21":3377,"512":3378,"^{*}.\\]":3379,"aw":3380,"lt":3381,"),\\;":3382,";\\,\\":3383,"unction":3384,"jm":3385,"scri":3386,"\\[{":3387,"}}^{-\\":3388,"varGamma":3389,"const":3390,")}}=\\":3391,"dc":3392,"ĠII":3393,"})=(-":3394,"}\\!+\\!":3395,"LR":3396,"Ġ;":3397,"=:":3398,"AR":3399,"BP":3400,"|=|":3401,"}})\\\\":3402,"boxed":3403,"\\}-\\":3404,")}\\|_{\\":3405,"}^{*}}(":3406,"LP":3407,"}\\,\\|\\":3408,"}|)^{":3409,"$},\\]":3410,"^{-}(\\":3411,"}}}{|":3412,"Ġcomp":3413,"Ġab":3414,"Ġ\\(-\\":3415,"preccurlyeq":3416,"}))^{-":3417,"Ġ}\\|_{":3418,"\\}=\\{":3419,"ai":3420,")}:\\":3421,"},|\\":3422,"adj":3423,"rg":3424,"{)}\\,,\\]":3425,"nl":3426,"ĠThe":3427,")}),\\]":3428,"Vect":3429,"char":3430,"MSE":3431,"âĢ":3432,"\\[=-\\":3433,"{[}{]}{":3434,"lhd":3435,"}!}\\":3436,"MF":3437,"fd":3438,"}))}":3439,"}),\\,\\":3440,"osi":3441,"Ġ19":3442,"}_{-}(":3443,"}}^{*}(\\":3444,"}^{+}=\\":3445,"Diamond":3446,"}}}|\\":3447,"BL":3448,")|+":3449,"\\[=(":3450,"}))}{":3451,"]})\\":3452,"tf":3453,"ice":3454,"}\\;,\\]":3455,":[":3456,"-[":3457,"os":3458,"Ġ\\[\\|\\":3459,"Ce":3460,"ee":3461,"Ġsa":3462,"}\\|=":3463,"asu":3464,"nmid":3465,"})\\.\\]":3466,"$,}\\\\":3467,"enspace":3468,"Ġsp":3469,"Log":3470,"DP":3471,"Ġ))\\":3472,"Fr":3473,"|,|":3474,"osc":3475,"}}+|":3476,"DE":3477,"]/":3478,"dL":3479,"nq":3480,"|)\\]":3481,"ĠMe":3482,"ijkl":3483,"ine":3484,"]\\,.\\]":3485,"pd":3486,"Ġlo":3487,"MP":3488,"|)^{\\":3489,"CE":3490,"SI":3491,"dN":3492,"poly":3493,"lrcorner":3494,"Ġ\\[\\|":3495,"Ġ=[":3496,"}}=\\{\\":3497,"Ġterm":3498,"ime":3499,"ase":3500,"Ġ=\\{\\":3501,"ĠIm":3502,"})}{|":3503,"}\\!-\\!":3504,"Hilb":3505,"}|\\,\\":3506,"ition":3507,"500":3508,")}\\)":3509,"\\{\\|\\":3510,"xxx":3511,"GW":3512,"}}^{+}\\":3513,"rown":3514,"+{\\":3515,"+}(":3516,"tX":3517,"\\)}":3518,"^{\\{":3519,"})}<\\":3520,"]}|\\":3521,"})))\\":3522,"^{*})=":3523,"Ġ30":3524,"}<+\\":3525,"}&=&":3526,")))":3527,"\\,|\\":3528,"Bu":3529,"tn":3530,"rong":3531,"rameter":3532,"144":3533,"}\\|\\|\\":3534,"}}\\!\\!\\":3535,"})}}":3536,"-\\,\\":3537,"$}}":3538,"}),&":3539,"able":3540,")})+\\":3541,"rx":3542,"_{*}-":3543,"Ġ50":3544,"]}}\\":3545,"cho":3546,"dl":3547,"}:[":3548,"({":3549,"Ġfrom":3550,"frown":3551,")}_{(":3552,"Com":3553,"499794":3554,"-{\\":3555,")|\\,\\":3556,"lj":3557,"ob":3558,"$.}\\]":3559,"]}\\|\\":3560,")\\;.\\]":3561,"go":3562,"}},&":3563,"})_{*}\\":3564,"}\\|^{\\":3565,"\\!+\\!":3566,"Ġ&-":3567,"*}^{":3568,")}\\}\\]":3569,"}_{+},\\":3570,"rop":3571,")=|\\":3572,")}\\|^{":3573,"{|}.\\]":3574,"Tf":3575,"})\\;\\":3576,"fi":3577,"Ġ}}_{":3578,"coth":3579,"else":3580,"vw":3581,"Ġ\\;\\":3582,"}=-(":3583,")+|":3584,"FF":3585,"\\,\\,":3586,"bab":3587,"AT":3588,"Div":3589,"Pa":3590,"sec":3591,"cle":3592,"Ġâľĵ":3593,"Qu":3594,"mix":3595,"\\,\\|":3596,"_{*,":3597,"}))}{\\":3598,")=\\{(":3599,"RR":3600,")],\\]":3601,"Ġtimes":3602,"ĠNo":3603,"TX":3604,"}\\|}\\":3605,"{]}-\\":3606,"^{+},\\":3607,"}))\\\\":3608,"}}}\\\\":3609,"resp":3610,",*}(":3611,"}}}{{=":3612,"}\\|+":3613,".&":3614,"-\\,":3615,"md":3616,"\\[{}^{\\":3617,"])}\\":3618,"((-":3619,"data":3620,"^{-}_{\\":3621,"stant":3622,")}},\\]":3623,"!}{(":3624,"FP":3625,"dY":3626,"disc":3627,"Sub":3628,"Ġ),":3629,"Ġ)}":3630,";-":3631,"BG":3632,"Ct":3633,"af":3634,"}}*\\":3635,"Ġexists":3636,")_{-":3637,"arccos":3638,"vv":3639,"}]}{\\":3640,"^{-},":3641,"minimize":3642,"{|}+\\":3643,"\\}_{\\":3644,"SR":3645,")}\\,,\\]":3646,"iT":3647,",}\\":3648,"}\\|\\|":3649,"})}}{\\":3650,"_{+,":3651,"ĠGL":3652,"]:=\\":3653,")|+|\\":3654,"})&=\\":3655,"]}^{\\":3656,"}}(|\\":3657,"Ġxy":3658,"\\[((\\":3659,"tp":3660,"):=\\{\\":3661,")};":3662,"101":3663,"$}}\\":3664,"}}*":3665,"_{+}+":3666,"}},(":3667,"Tu":3668,"...&":3669,"\\[|(\\":3670,"ility":3671,"Ġhas":3672,"ĠCr":3673,"Ġpoint":3674,"}|>\\":3675,"))/":3676,"}}}\\|\\":3677,"Sw":3678,"Ġ23":3679,"uplus":3680,"ous":3681,"\\[({\\":3682,"ence":3683,"\\;\\;\\":3684,"});\\]":3685,"sw":3686,"um":3687,"}^{*}}{":3688,"Ġ=(-":3689,"az":3690,")}]\\":3691,"Der":3692,"mr":3693,"|}}\\":3694,"xleftarrow":3695,"Ġ25":3696,"}\\,.\\":3697,"}\\,\\,\\,":3698,"Ġfunction":3699,"\\|+":3700,"SW":3701,"mathrel":3702,"MA":3703,"})].\\]":3704,"}\\,=\\,":3705,"RE":3706,"ther":3707,")})^{-":3708,")}},\\":3709,"}^{-}}\\":3710,"})}{}_{\\":3711,"qt":3712,")](":3713,"lem":3714,"{$-$}}\\":3715,"Vdash":3716,"})^{*}(":3717,"CV":3718,"pw":3719,",*}\\":3720,"_{*}^{-":3721,"tisf":3722,")!}{(":3723,"Ġex":3724,"Ai":3725,"Ġ}\\{":3726,")((":3727,"))>":3728,"):=(\\":3729,"uw":3730,"choice":3731,"QCoh":3732,"}|)\\]":3733,"PU":3734,"ary":3735,")}=-\\":3736,"^{{\\":3737,")};\\":3738,"Ġuni":3739,"\\,,\\\\":3740,"Ġsub":3741,"^{*})^{\\":3742,"bt":3743,"}\\}=\\{":3744,"{[}-\\":3745,"eri":3746,"_{*})":3747,"Ġdr":3748,"{[}|":3749,"ml":3750,"most":3751,")\\,|\\,":3752,"mathchoice":3753,"}=:":3754,"IP":3755,"}_{*,\\":3756,"{\\#":3757,"den":3758,"}})|\\":3759,"ĠâĢĵ":3760,"sech":3761,"}|=|\\":3762,"{[}\\|\\":3763,"/|":3764,"=}":3765,")}:=":3766,"lip":3767,"Ġ22":3768,")|>":3769,"Da":3770,"aR":3771,"]\\|_{":3772,"_{[-":3773,"Jac":3774,"eu":3775,"ew":3776,"}])":3777,"sy":3778,"cf":3779,"Ġ\\;":3780,"!|\\!":3781,"{\\}},\\":3782,"}]^{-":3783,"Ġmo":3784,"}_{*}":3785,"dashrightarrow":3786,"^{*})-":3787,"\\#\\":3788,"ĠCN":3789,"arge":3790,")\\|\\]":3791,"NT":3792,"lex":3793,"tation":3794,")|}{\\":3795,"rf":3796,"BR":3797,"124":3798,"):=-\\":3799,"Ġ]\\":3800,"Ġ+(":3801,"_{-,":3802,"free":3803,"}}\\,\\]":3804,"Ġtra":3805,"}([-":3806,"Ġdiag":3807,"{/}\\":3808,"}}}}{":3809,"DD":3810,")=[\\":3811,"LL":3812,"}][":3813,"_{-},\\":3814,"Ġ\\[=:":3815,"=\\|":3816,"{]}(":3817,"^{+}-":3818,"Shv":3819,"ef":3820,"dec":3821,"cont":3822,"}^{-}_{":3823,"sep":3824,"igarrow":3825,"rightsqu":3826,"rightsquigarrow":3827,"HP":3828,"Ġet":3829,"ective":3830,"mj":3831,"Ġ)_{":3832,")}\\}_{":3833,"_{*}}":3834,"}^{+}+":3835,"}[\\![":3836,"LE":3837,":\\;":3838,"wr":3839,"},\\,-":3840,"dvol":3841,"}):=\\{":3842,":=\\,\\":3843,"*}(\\":3844,"Ġreg":3845,"kN":3846,"Ġla":3847,"}^{+}-\\":3848,"&(\\":3849,"}(\\,\\":3850,"TT":3851,"}}}[":3852,"emma":3853,"[\\,\\":3854,"Ġ(\\(":3855,"cond":3856,"}}]=":3857,"})\\|\\]":3858,"HC":3859,"aff":3860,"}\\,,\\\\":3861,"qx":3862,"}\\{(":3863,"}{-":3864,"}}|\\]":3865,"<-":3866,"mc":3867,"xyz":3868,")})}\\":3869,"WF":3870,"argmax":3871,"Ġnumber":3872,"Ġbe":3873,")^{+}\\":3874,"}|)":3875,"jp":3876,"*(":3877,"Ġ&=-\\":3878,")}.\\":3879,"}=&\\":3880,"zI":3881,"rongly":3882,"}|^{-\\":3883,"^{+})\\":3884,"Ġsupp":3885,"Ġ})}\\":3886,"})(-":3887,"}=\\{(\\":3888,"Ġ64":3889,"ĠCt":3890,"LU":3891,"}}=\\|":3892,"\\[|\\{":3893,"ux":3894,"Ġ]":3895,"Ġ{(\\":3896,"ular":3897,"test":3898,"{)}\\|":3899,"\\}}|":3900,"dashv":3901,"\\}&\\{":3902,"linear":3903,"lower":3904,"}-\\{":3905,"perf":3906,"DM":3907,"}})}^{":3908,",\\{\\":3909,"]})\\]":3910,"{|}(":3911,"\\}\\)":3912,"Ġcont":3913,"-}(":3914,"Rm":3915,"do":3916,"AS":3917,"Ann":3918,"sx":3919,"}$}.\\]":3920,"Bl":3921,"Ġ)}{\\":3922,"Ġorder":3923,"-}^{":3924,"Ġ40":3925,"\\|\\|":3926,"Ġ\\[|":3927,"^{*}}\\]":3928,"]<\\":3929,"}&&\\\\":3930,"}})\\|_{":3931,"nor":3932,"}{*}{\\":3933,"{}^{(":3934,"Ġ/\\":3935,"gy":3936,"ori":3937,"160":3938,"]}_{\\":3939,"\\|,\\]":3940,"SNR":3941,";,\\]":3942,"DL":3943,"Po":3944,"})^{*}\\]":3945,"\\|_{(":3946,"Ġik":3947,"Sing":3948,"cz":3949,"ĠCon":3950,"_{+})\\":3951,"Ġ(\\(\\":3952,"At":3953,"}}_{+":3954,"inc":3955,"qp":3956,"IV":3957,"}\\|+\\|":3958,"}_{+}":3959,"DA":3960,"Ġequ":3961,"))|^{":3962,"}^{+}+\\":3963,"Cr":3964,"TP":3965,"\\}}(\\":3966,"Ġ}}^{\\":3967,"}})|":3968,"192":3969,"Ġ\\((\\":3970,"}|^":3971,"})\\,\\]":3972,"Ġ\\[|\\":3973,"}^{**":3974,"}^{*})=\\":3975,"Cap":3976,"))<\\":3977,"=(-":3978,"Ġcom":3979,"RM":3980,")}}=":3981,"}\\))":3982,"$}\\]":3983,"Pf":3984,"gn":3985,"mt":3986,"NL":3987,"Err":3988,"tain":3989,"132":3990,"}};\\]":3991,"{]},\\":3992,"{\\{}-\\":3993,";}\\\\":3994,")}}{(":3995,"ny":3996,"RP":3997,"qr":3998,"\\,=\\,":3999,"GF":4000,"}-[":4001,")},\\\\":4002,"IN":4003,"Ġ[]{":4004,"_{+}}":4005,"EM":4006,"}}]=\\":4007,"codim":4008,"Prob":4009,"itH":4010,"}})\\,\\":4011,":=(\\":4012,"}-(-":4013,"}^{-})\\":4014,"Ġ\\(\\{":4015,"})=[":4016,")|=|":4017,"}))\\,":4018,"\\,.\\":4019,"ĠId":4020,"bability":4021,"_{,\\":4022,"dM":4023,"\\!\\!\\!\\":4024,"}((-":4025,"_{*}+":4026,"Ent":4027,")}),":4028,"tq":4029,"Ġ\\[[":4030,"})|=\\":4031,"}]\\|_{":4032,"px":4033,"\\,:\\,\\":4034,")^{-(":4035,"ka":4036,"spt":4037,"^{-|\\":4038,"rev":4039,"dH":4040,"hk":4041,"obs":4042,"}}\\}.\\]":4043,"Area":4044,"xe":4045,":\\!":4046,")})+":4047,"})))":4048,"tors":4049,"}}||\\":4050,"_{-})\\":4051,"})](":4052,"curve":4053,"Ġpar":4054,"Ġ))":4055,"_{\\,":4056,"ample":4057,"script":4058,"PC":4059,"TS":4060,"^{*})-\\":4061,"iii":4062,"]\\,,\\]":4063,"(-(":4064,"}_{+},":4065,"..\\]":4066,"Ġ}}}\\":4067,"}^{-}\\]":4068,"dxd":4069,"Ġeff":4070,"{|}=\\":4071,"})}:=\\":4072,"Ġac":4073,"}}=[":4074,"vir":4075,"Ġerror":4076,"400":4077,"}\\}}\\]":4078,"}).":4079,"})|}\\":4080,"NC":4081,"}^{*},\\]":4082,"unded":4083,")]+":4084,"\\[[(":4085,"Np":4086,"Dom":4087,"ule":4088,"_{\\{|":4089,"Ġdo":4090,"{]}\\,":4091,"})|.\\]":4092,"\\;,\\]":4093,"}))(\\":4094,"Ġ=|\\":4095,"olu":4096,"MT":4097,"Ġtype":4098,"}}{}^{":4099,"Ġ=&":4100,"RL":4101,"Ġ}|^{":4102,"alue":4103,"^{!":4104,"]}+\\":4105,"thod":4106,"such":4107,"},+":4108,"})={\\":4109,")]-\\":4110,"}:=-\\":4111,"\\}.\\":4112,"Ġ27":4113,")\\,(":4114,"}}})":4115,")]+\\":4116,"}^{*}}{\\":4117,"kd":4118,"{]}\\,\\":4119,"Cor":4120,"}]}(\\":4121,")]_{\\":4122,"<(":4123,"Ġ{*}\\":4124,"}}^{+}(":4125,"\\}|\\":4126,"011":4127,"^{*})+\\":4128,"~{}":4129,"Ġ\\[<\\":4130,"})|+|":4131,"orb":4132,"pf":4133,",\\,\\,\\,\\":4134,"=\\]":4135,"]]\\]":4136,"zw":4137,"cent":4138,"PI":4139,"bigm":4140,"}_{+}\\]":4141,"{[}\\|":4142,"}+...+":4143,"THH":4144,"coh":4145,"...\\]":4146,")|,\\]":4147,"xp":4148,"varOmega":4149,"134":4150,"Mo":4151,"))}(":4152,"_{+}+\\":4153,")=\\|":4154,"}^{*})^{\\":4155,"Ġ\\[=(-":4156,"&*\\\\":4157,"Ġvar":4158,")}=(\\":4159,"cone":4160,"inu":4161,"^{*}).\\]":4162,"}}_{-":4163,"\\,\\|\\":4164,"sti":4165,"{(}\\{":4166,"_{+}-\\":4167,"})}{(\\":4168,"CL":4169,"Ae":4170,"}|/":4171,"}]=[\\":4172,"}]+[":4173,"sv":4174,"Ab":4175,"gs":4176,"Ġrate":4177,"PQ":4178,"dis":4179,"Ġ}},\\":4180,"\\[-(":4181,"js":4182,"):(":4183,")*\\":4184,"Ġexp":4185,"}})=(":4186,"}^{+})\\]":4187,"nf":4188,"|)}\\":4189,"rig":4190,")}}{{=}}\\":4191,"012":4192,"\\}}{":4193,"DT":4194,"Ġ)}(":4195,"longleftarrow":4196,"234":4197,"#}\\":4198,"cat":4199,"{*":4200,"Ġ$(":4201,"nb":4202,"})\\},\\]":4203,"{\\{}(\\":4204,")}+(":4205,"{|}=":4206,"\\})":4207,"})}\\|_{":4208,"Ġ\\[>":4209,"Sel":4210,"there":4211,"{[}|\\":4212,"Swap":4213,"Ġsym":4214,"Ġthen":4215,")\\}":4216,"}^{*}\\|^{":4217,")|<":4218,"trn":4219,"OT":4220,"})}[":4221,"}):=(":4222,"ddagger":4223,"mx":4224,")|(":4225,"})}}\\]":4226,")_{+}\\":4227,"Ran":4228,"Bx":4229,")}}^{\\":4230,"nT":4231,"hg":4232,"GH":4233,"!\\!\\!\\!\\":4234,"Ġsatisf":4235,")-|":4236,"iso":4237,"jh":4238,"}|,":4239,"=[\\":4240,"])^{":4241,"Ġ\\{(":4242,"}+[\\":4243,"Ġ}}+\\":4244,"240":4245,"PA":4246,"$},\\":4247,"}],[\\":4248,"]&\\":4249,"ers":4250,"\\|,\\":4251,"str":4252,"TN":4253,"\\}-":4254,"],\\,":4255,"}))_{\\":4256,"{\\}}_{":4257,"rep":4258,"+\\]":4259,"Ġsta":4260,"\\!\\!\\":4261,"Leb":4262,"HK":4263,")|-":4264,"thm":4265,"Ġthere":4266,"blacksquare":4267,"GM":4268,"_{!":4269,"Ġdis":4270,"}|}.\\]":4271,"}\\,_{":4272,"}\\|+\\|\\":4273,"Ġ=|":4274,"formly":4275,"})})^{":4276,"PL":4277,")}]\\]":4278,"{(}{\\":4279,"\\}}.\\]":4280,"]|\\":4281,"pen":4282,"}:\\,\\":4283,")}}+\\":4284,"-\\|\\":4285,"_{-}-":4286,"^{-})\\":4287,"}}{[":4288,"}^{+}=":4289,"ever":4290,"circle":4291,"]}-\\":4292,"135":4293,"})]-\\":4294,"cp":4295,"}^{+})^{":4296,"}=:\\":4297,"{)}|":4298,"]},\\]":4299,"),-":4300,"Ġdeg":4301,".-\\":4302,",+}(":4303,"Ġ>\\":4304,"}({":4305,"}\\!-\\!\\":4306,"!}{\\":4307,"ici":4308,"\\,,\\,":4309,"}&=&\\":4310,"scriptsize":4311,"300":4312,"we":4313,"ĠCR":4314,"))<":4315,"}},(\\":4316,"GS":4317,"\\[\\,\\":4318,"}^{*}\\\\":4319,"sb":4320,"},...":4321,"Ġfinite":4322,"cccccccc":4323,"ĠPa":4324,"]/\\":4325,"{\\}}=\\":4326,"MS":4327,")):":4328,"card":4329,"ry":4330,"}{[":4331,"Ġ26":4332,"Ġdv":4333,"1234":4334,")**":4335,"}\\}}(":4336,"}])=\\":4337,"Bun":4338,"SN":4339,"\\}\\,,\\]":4340,"}_{*,":4341,"Ġ=\\|":4342,"dG":4343,"},*":4344,"LF":4345,"lcm":4346,"_{*}=\\":4347,"Det":4348,"uni":4349,"$}.\\":4350,"IM":4351,"ja":4352,"}^{{\\":4353,"!\\!/":4354,"Ġ=\\|\\":4355,"!}.\\]":4356,"Nm":4357,"ls":4358,"}\\#\\":4359,"_{*}}(":4360,"Ġ36":4361,"vu":4362,"Ġ)\\,":4363,"),\\;\\":4364,"\\,=\\,\\":4365,"}}]^{":4366,"CAlg":4367,"cut":4368,"}\\!+\\!\\":4369,"ies":4370,"non":4371,"};\\,\\":4372,"KK":4373,"}|{\\":4374,"{|}\\;":4375,"dex":4376,"eak":4377,"Ġprobability":4378,"Bi":4379,"{(}\\,\\":4380,"train":4381,"CK":4382,"rp":4383,"Ġper":4384,"}*_{":4385,")^{*}\\]":4386,")\\},\\":4387,"orphi":4388,"ure":4389,"}|}{|\\":4390,"^{({\\":4391,"}}-(\\":4392,"}}}}\\]":4393,"Cx":4394,"{|}\\\\":4395,"}}&-\\":4396,"cyc":4397,"}_{-}^{":4398,"}|-|\\":4399,"zx":4400,"}:|\\":4401,"}\\,,\\,":4402,"Ġ:=\\{":4403,"}:\\|":4404,"}}+|\\":4405,"108":4406,"umber":4407,")+(-":4408,"Cu":4409,"orm":4410,"}}^{-}\\":4411,"Ġprime":4412,"gap":4413,")(|":4414,"\\!-\\!\\":4415,")\\,:\\,":4416,"}}&=\\":4417,"'{":4418,"tm":4419,"EP":4420,"xf":4421,"Ġso":4422,"Perf":4423,"side":4424,"[\\![\\":4425,"~{}\\":4426,"^{*})+":4427,"inuous":4428,"sto":4429,"tric":4430,"_{*}\\]":4431,"}]=-":4432,")+\\]":4433,"Ġcurl":4434,"RC":4435,"xu":4436,"ww":4437,"|},\\]":4438,"coker":4439,"121":4440,"nce":4441,"LC":4442,"..,":4443,"}}=\\|\\":4444,"Ġ}{(":4445,"}\\,\\,\\,\\":4446,"fr":4447,"vt":4448,"|)^{-":4449,"ha":4450,"Ġ||":4451,")=&\\":4452,"Ġweakly":4453,".+":4454,"asi":4455,"}-\\]":4456,"}))}^{":4457,"lock":4458,"{)}\\|\\":4459,"dxds":4460,"true":4461,"}}}^{(":4462,"{)}^{-\\":4463,"\\})=\\":4464,"ected":4465,"UV":4466,"\\%\\)":4467,"}\\,,\\,\\":4468,"}\\!=\\!\\":4469,"acc":4470,")\\;,\\]":4471,"Me":4472,"mon":4473,"Ġ=\\{(":4474,")^{[":4475,"_{(-\\":4476,"288":4477,"{)}&\\":4478,"tb":4479,"|=|\\":4480,"sat":4481,")|=|\\":4482,"hv":4483,"Ġ)^{-":4484,")\\,{\\":4485,"length":4486,"Ġ}[\\":4487,"}^{\\,\\":4488,"ĠTime":4489,"LD":4490,"}}|(":4491,"Ġext":4492,"={\\":4493,"MR":4494,"005":4495,"(-\\)":4496,"Conv":4497,"lp":4498,",.":4499,"}})}.\\]":4500,"{+}":4501,"uc":4502,"}^{*\\":4503,"]}+":4504,"{)}|\\":4505,"}}\\|(":4506,"nv":4507,"}))=(":4508,")^{(\\":4509,"}}(\\{":4510,"}\\}+\\":4511,")]-":4512,"ĠVar":4513,";[":4514,"By":4515,"Cy":4516,"Dw":4517,"\\|}{":4518,"))).\\]":4519,"Ġ56":4520,"^{*},\\]":4521,"Ġconstant":4522,"ei":4523,"homotopylimit":4524,"213":4525,"|},\\":4526,"ate":4527,"^{*}}^{\\":4528,"FT":4529,"bn":4530,"}}}}{\\":4531,"^{-}}":4532,"}])=":4533,"dQ":4534,"^{\\,":4535,"trop":4536,"}^{*})=":4537,"ĠLemma":4538,"Ra":4539,"ES":4540,"tg":4541,"_{{(":4542,"-\\{":4543,"}}_{(\\":4544,"}))\\,\\":4545,"\\{\\,":4546,"]]\\":4547,"aj":4548,"tN":4549,"\\(-\\)":4550,"ĠdW":4551,"Lu":4552,"Ġrank":4553,"map":4554,"cris":4555,"}})/":4556,"}}](":4557,"tk":4558,"orem":4559,"}}))":4560,"nK":4561,"^{*}:":4562,"Ġdxdt":4563,"}])^{":4564,"))&\\":4565,"}}[(":4566,"}^{*}}(\\":4567,")))=":4568,"})=\\]":4569,"kT":4570,"})*":4571,"}^{-}=\\":4572,"spec":4573,"Ġinteg":4574,"PP":4575,"``":4576,":=\\{\\":4577,")&(":4578,"}})}(":4579,"BT":4580,"}\\}^{":4581,"Ġ{|":4582,")(-\\":4583,")\\,=\\,":4584,"^{-},\\":4585,"{)}>":4586,"})||_{":4587,"[{\\":4588,"zy":4589,"[\\,":4590,"Ġover":4591,"))=(\\":4592,"Fl":4593,"\\}:":4594,"122":4595,"Cone":4596,".\\,":4597,"Cn":4598,"OPT":4599,"\\}}{\\":4600,"Ġ31":4601,"}+{":4602,"}\\|,\\]":4603,"105":4604,"^{*})}\\":4605,"}]/":4606,"113":4607,"YZ":4608,"dE":4609,"})_":4610,"Ġ29":4611,"Lin":4612,")}/\\":4613,"Ġ200":4614,"}:=[":4615,"Max":4616,"NA":4617,"NE":4618,"bigcirc":4619,"oc":4620,"rror":4621,"fix":4622,"lation":4623,"hf":4624,")}{\\|":4625,"iw":4626,"ear":4627,"Ġinf":4628,"Inv":4629,"}))|\\":4630,")<+\\":4631,"PV":4632,"Ġ((":4633,"restri":4634,"ĠSO":4635,"Ġ-(\\":4636,"BF":4637,"]}-":4638,"vx":4639,"lass":4640,"{||":4641,"})]^{\\":4642,"La":4643,"PSL":4644,":|\\":4645,"put":4646,"Ġ^{*}\\":4647,")!}\\]":4648,"Ġterms":4649,"qz":4650,"\\({":4651,"Rx":4652,"\\|<\\":4653,"})}{}_{":4654,")_":4655,"Ġ})+\\":4656,"Sch":4657,"ted":4658,"com":4659,"\\,,\\,\\":4660,"}=((":4661,"MD":4662,"Ġ_{(":4663,")/(\\":4664,"}}&=":4665,"JX":4666,")}}}\\":4667,"^{*}:\\":4668,"}&=-\\":4669,"Un":4670,"hy":4671,"Mor":4672,"}}_{[":4673,"}]]\\]":4674,"}&(\\":4675,"\\})=":4676,"yn":4677,"})}\\,.\\]":4678,"})((":4679,"Ġ}),\\":4680,"men":4681,"^{*}}}\\":4682,"\\{[":4683,"}^{+}.\\]":4684,",\\!":4685,"las":4686,"Sol":4687,"Top":4688,"]|":4689,"}_{\\#":4690,"frame":4691,"add":4692,"Ġ)\\,\\":4693,"}$-":4694,"Ġro":4695,"}_{+}^{\\":4696,"vel":4697,"002":4698,"Ġ*}\\":4699,"}=&":4700,"Ġmeasu":4701,"Ge":4702,"})|+":4703,"Bin":4704,"=:\\":4705,"IF":4706,"{{(\\":4707,"Ġ}).\\]":4708,"^{+})^{":4709,"one":4710,"LO":4711,"})})":4712,"}]\\,\\":4713,"}^{<":4714,"Ġnt":4715,"})/(\\":4716,".(":4717,"ĠCn":4718,"\\}\\,":4719,"Ġgen":4720,"|\\;":4721,"}_{/":4722,"AW":4723,"}}([\\":4724,")}},":4725,"arrowright":4726,"GC":4727,")}))\\":4728,"dT":4729,"Nt":4730,"{\\}}=":4731,")))=\\":4732,"^{+}\\]":4733,"}}\\,(":4734,"varLambda":4735,"CO":4736,"Ġvec":4737,"ini":4738,"^{*}),":4739,"**}":4740,"}}:=\\{":4741,"}}):=\\":4742,"]]":4743,"triv":4744,"))}{|":4745,"ret":4746,"})|^{\\":4747,"heart":4748,"bigtriangledown":4749,"}|,|\\":4750,",+}\\":4751,")\\}^{":4752,"ĠAx":4753,")]}\\":4754,"heartsuit":4755,"pc":4756,"}}{{=":4757,"rable":4758,"ĠPro":4759,")}}{{=}}":4760,"KM":4761,"UU":4762,"}^{>":4763,"}}{}_{":4764,"_{*}+\\":4765,"Is":4766,"rac":4767,")|^{-":4768,"icient":4769,"|_{[":4770,"}}{}^{\\":4771,"since":4772,"}}|}\\":4773,"{,}\\]":4774,"bp":4775,"dZ":4776,"}^{*})^{-":4777,"&&&\\\\":4778,")}}_{":4779,"=\\|\\":4780,":\\;\\":4781,"AE":4782,"|).\\]":4783,"_{+}=\\":4784,".,\\]":4785,"pol":4786,"^{*})^{-":4787,"_{{}_{(":4788,"Ġ\\(-\\)":4789,"TR":4790,"})],\\]":4791,"}^{*}}\\]":4792,"Ġim":4793,"good":4794,"Ġ})^{\\":4795,"\\|}{\\":4796,")|>\\":4797,"{-(":4798,"va":4799,"})]+\\":4800,")}}-":4801,"hu":4802,"}}^{*}\\]":4803,"gp":4804,")],\\":4805,"fib":4806,"Ġ})-\\":4807,"^{+}+":4808,"roup":4809,")=:":4810,"\\)-":4811,"};\\,":4812,"&=&":4813,"|\\|":4814,"))+(":4815,"1111":4816,"Vec":4817,"lb":4818,"^{+}}(":4819,"]),\\]":4820,"ile":4821,"}_{*}^{\\":4822,"Ġ}\\;":4823,"998":4824,"HT":4825,"Dash":4826,"}$,":4827,"mh":4828,"{)},\\\\":4829,"BE":4830,"Tw":4831,"})=|":4832,"restriction":4833,"Orb":4834,"}\\!=\\!":4835,"Ġedge":4836,"^{*}}{\\":4837,"}[-\\":4838,"BU":4839,"LB":4840,"RG":4841,"\\};\\]":4842,"fe":4843,"abcd":4844,")&=&":4845,")=-(":4846,"]),\\":4847,"ĠRes":4848,"_{+}}{":4849,"zt":4850,"FG":4851,"off":4852,"}))\\|_{":4853,"Ġ&(":4854,"180":4855,"Ġcontain":4856,"bigtriangle":4857,"core":4858,"})|}{":4859,"bigtriangleup":4860,"lds":4861,"999":4862,"{}{":4863,"Ġix":4864,"{]}-":4865,"}}}{(\\":4866,"\\!+\\!\\":4867,"ĠNumber":4868,"Ġlog":4869,"150":4870,"vDash":4871,"Ġposi":4872,"DC":4873,"Dg":4874,"of":4875,"}\\}\\\\":4876,"\\|_{*":4877,"231":4878,"Ġbounded":4879,"DS":4880,"rid":4881,"})||":4882,"Ġ\\[+(\\":4883,"nN":4884,"bl":4885,"}_{\\{|":4886,"126":4887,"Ġinter":4888,"iiint":4889,"}}=[\\":4890,"]{}":4891,"PF":4892,"hh":4893,"Ġ\\%":4894,"),[":4895,"})}{|\\":4896,"ĠIn":4897,"rv":4898,"tH":4899,"ku":4900,"_{+}^{-":4901,"weakly":4902,")}=-":4903,"+}^{":4904,"Frob":4905,"))\\,.\\]":4906,"PR":4907,"pact":4908,"KT":4909,"\\{\\{":4910,"onent":4911,"ĠAlg":4912,"Ġbound":4913,"}}}^{-":4914,"}})\\|":4915,"Ġ33":4916,"Af":4917,"ĠDu":4918,"qs":4919,"{|}^{\\":4920,",\\,\\,":4921,"\\}(":4922,"\\[<":4923,"})^{*}(\\":4924,"}^{*}|\\":4925,"SV":4926,"}))}.\\]":4927,"}|}(":4928,"}\\,+\\,\\":4929,"ABC":4930,"Ġ\\[-(":4931,")),\\\\":4932,"&|":4933,"{.}\\]":4934,"}_{(-":4935,"aug":4936,"AM":4937,"Min":4938,"bq":4939,"}:\\\\":4940,"rec":4941,"_{*}}{":4942,"abs":4943,"ection":4944,"]-[":4945,"^{{}^{":4946,"}]).\\]":4947,"}];":4948,"{|}(\\":4949,"_{-(":4950,"erage":4951,"145":4952,"olution":4953,",...":4954,"321":4955,"}}}[\\":4956,"mooth":4957,"ial":4958,"ption":4959,"Def":4960,"Ġav":4961,"})=\\{(":4962,"TL":4963,"}})>":4964,"]=-\\":4965,"AV":4966,"hr":4967,"rj":4968,"iH":4969,":\\|":4970,"QP":4971,"\\|^":4972,"})\\,|\\,":4973,"ah":4974,"}...\\":4975,"ram":4976,"}}\\|(\\":4977,"OD":4978,"gf":4979,"Ġ34":4980,"},\\,-\\":4981,"ĠDi":4982,"}},...,":4983,"384":4984,"rit":4985,"\\|\\,\\":4986,"_{+}^{(":4987,"})}&\\":4988,"}\\},\\{\\":4989,"}}].\\]":4990,"SB":4991,";{\\":4992,"Tv":4993,"sible":4994,"leave":4995,"Ay":4996,"456":4997,"Ġ1000":4998,"}^{*}}^{":4999,"Ġ_{-":5000,"Ġ\\[=\\|":5001,"216":5002,"pT":5003,"uq":5004,"Ġar":5005,"{(-\\":5006,"[\\{":5007,"Fin":5008,"^{<":5009,"iA":5010,"iable":5011,"Mon":5012,"TF":5013,"bal":5014,"ero":5015,"hx":5016,"{\\}}^{":5017,"))},\\]":5018,"Ġcond":5019,"\\}}=\\":5020,"}}.":5021,"^{*}|\\":5022,"^{*}(-":5023,"}]\\,":5024,"320":5025,",\\,\\,\\,":5026,"Na":5027,"]=(":5028,"fl":5029,"}\\)}":5030,")\\}=\\":5031,"_{-}+":5032,")}}+":5033,"norm":5034,":}\\":5035,"_{\\!":5036,")|}":5037,"\\}).\\]":5038,"SG":5039,"Ġsize":5040,"_{*}-\\":5041,"xa":5042,"len":5043,"arcsin":5044,"}]-[":5045,"]&":5046,"Ġ\\&\\":5047,")))^{":5048,")_{+}^{":5049,"211":5050,"AU":5051,"BW":5052,"})_{*}":5053,"dent":5054,"|\\;\\":5055,"}\\!\\!\\!\\":5056,")):=\\":5057,"^{*}|":5058,"Ġ60":5059,"NM":5060,"tch":5061,"|}=\\":5062,"As":5063,"{[}-":5064,"Ġ35":5065,"Ġ})-":5066,"}}\\!\\!":5067,"}\\|}{":5068,"He":5069,"ĠMo":5070,"}^{*(":5071,"}^{-}=":5072,"dydx":5073,"\\|+\\|":5074,"Out":5075,"{}{}{":5076,"pu":5077,"_{+}\\]":5078,"}=-(\\":5079,"\\;\\;":5080,"sqsubseteq":5081,"]\\!\\":5082,"RD":5083,"}})\\|\\":5084,"})\\;.\\]":5085,"}\\|<\\":5086,"Ġconv":5087,"=-(":5088,">-":5089,"sen":5090,"Loc":5091,"){":5092,"PE":5093,"dsdt":5094,"_{*})\\]":5095,"_{*}:\\":5096,"CI":5097,"{[}\\,\\":5098,"LA":5099,"{)}<\\":5100,"Ġ80":5101,"Ġconn":5102,"tc":5103,"Ġ37":5104,"}_{+}.\\]":5105,"ower":5106,")+|\\":5107,"]\\!]\\":5108,"PM":5109,"its":5110,"}):=(\\":5111,"DN":5112,"\\}\\,\\":5113,"]^{(":5114,"})||\\":5115,"WP":5116,"))-(":5117,"}\\|^":5118,"Ġda":5119,"uptau":5120,"mode":5121,"\\||":5122,":=\\{(":5123,"Ġsign":5124,"PGL":5125,"}\\:":5126,"ĠAd":5127,"ĠYes":5128,"))}=\\":5129,"diff":5130,"....":5131,"345":5132,"csc":5133,"|}(\\":5134,")}})\\":5135,"Tot":5136,"Ġ99":5137,"1024":5138,"\\({}_{":5139,"ĠSL":5140,"Ġ48":5141,"Iso":5142,"bz":5143,"nL":5144,"}}}}{{\\":5145,"FM":5146,"ace":5147,"{)}^":5148,"Ġ(-\\":5149,"ĠCom":5150,"}}||_{":5151,"ĠSpec":5152,"Pe":5153,"bw":5154,"}^{-}-":5155,"),(-":5156,"Poly":5157,"Ġcontinuous":5158,"}]|\\":5159,"})|<\\":5160,"}|_{[":5161,"Ġ}}.\\]":5162,"}^{*}:":5163,"Ġalmost":5164,"rw":5165,"}+\\\\":5166,"Ma":5167,"ou":5168,"!}(\\":5169,"^{+}=\\":5170,"2000":5171,"Ġcase":5172,"Ġ)|^{":5173,"\\|{\\":5174,"}^{*}\\|_{\\":5175,"}:\\|\\":5176,"}_{+})\\":5177,"Aff":5178,"ĠAv":5179,"_{-}}":5180,"cccccc":5181,"complement":5182,">(":5183,"^{*}|^{":5184,"}&&":5185,"ama":5186,"sj":5187,"\\[\\,":5188,"}_{+})\\]":5189,")}})":5190,"Cs":5191,"dU":5192,"main":5193,"}_{,":5194,"0001":5195,"}$},\\\\":5196,"}_{-}(\\":5197,"Iw":5198,"jt":5199,"ined":5200,")})}{":5201,"}{}^{(":5202,")|,\\":5203,"tep":5204,"Hol":5205,"qq":5206,"Ġ)\\|_{":5207,"post":5208,"SF":5209,"{((":5210,")})(\\":5211,")]^{-":5212,"Pu":5213,"aus":5214,"360":5215,"$.}\\":5216,"ort":5217,"}}...":5218,"}^{*})_{":5219,")}((":5220,"}^{-}+":5221,"unds":5222,"_{!}\\":5223,"})}^{(":5224,"amp":5225,"}),\\;":5226,"}((-\\":5227,"004":5228,"}):=\\{\\":5229,"ross":5230,"Ġopen":5231,"Ġqu":5232,"008":5233,",-}(":5234,")&-\\":5235,"Ġ})(":5236,"},+\\":5237,"(.":5238,"Ġ})=\\":5239,")}|_{":5240,"ĠAut":5241,"nR":5242,"}^{*}).\\]":5243,"{|(":5244,"156":5245,"}$.}\\]":5246,"^{\\#}":5247,"})_{-":5248,"}}]^{\\":5249,"{\\|}\\]":5250,":=-\\":5251,"xv":5252,"dK":5253,"{(}[\\":5254,"]\\}\\":5255,"{]}_{\\":5256,"})|-":5257,"}*(":5258,"$}":5259,"}]\\}\\]":5260,"|-|\\":5261,"âĢĻ":5262,"UE":5263,",\\;\\;\\":5264,"Dh":5265,"varDelta":5266,"Ġ&=(":5267,"blacktriangleright":5268,"ality":5269,"}^{*,":5270,"}|\\!":5271,"std":5272,"\\}}+\\":5273,"104":5274,"framebox":5275,",\\;\\;":5276,"}\\,+\\,":5277,"Az":5278,"}\\}+":5279,"}|}}\\":5280,"}},-":5281,"GA":5282,"NP":5283,"qn":5284,"Ġ\\,\\]":5285,")}=\\{":5286,"Ġ)(\\":5287,"{\\|}(":5288,"_{-}}{":5289,"))^{*":5290,",(-":5291,"Ber":5292,"mL":5293,"}^{*})+\\":5294,"ĠSym":5295,",\\,(":5296,"erfc":5297,"wx":5298,"})\\!\\":5299,"\\|\\,":5300,"omial":5301,"})]_{\\":5302,"Ġ95":5303,"Ġresp":5304,"})^{+}\\":5305,"ĠdB":5306,")&-":5307,"),{\\":5308,"FE":5309,"Tra":5310,"hss":5311,"Ġelement":5312,"LG":5313,"Ġ\\[:=":5314,"Ġdiff":5315,"}*|":5316,")}))\\]":5317,"),\\,(":5318,"curvearrowright":5319,"+}^{\\":5320,"(\\,":5321,"))[":5322,"003":5323,"{\\'{":5324,"}}})^{":5325,"\\}>":5326,"{\\}}\\\\":5327,"emp":5328,"Ġfix":5329,"Ġsh":5330,"ĠIII":5331,"smile":5332,"|)|":5333,");\\\\":5334,"CZ":5335,"ko":5336,"tL":5337,"}{=}\\":5338,"verti":5339,"cT":5340,"cq":5341,"Ġpri":5342,"}^{-}}":5343,"136":5344,"025":5345,"jr":5346,")=:\\":5347,"}}^{+\\":5348,"Term":5349,"hyp":5350,"Ġge":5351,"Be":5352,"rdr":5353,"}}]_{\\":5354,")}\\!":5355,"dxdv":5356,"Ġ42":5357,"dVol":5358,"amalg":5359,"}+||":5360,"}]/(":5361,"}^{(+":5362,"}^{*})-":5363,"}^{*})-\\":5364,"),-\\":5365,"})=[\\":5366,"};(":5367,"168":5368,"zq":5369,"|}+\\":5370,"}{{\\":5371,"^{*}\\\\":5372,"mskip":5373,"ĠCM":5374,"_{+}=":5375,"cv":5376,"}}_{*":5377,"}_{+}+":5378,",*}(\\":5379,")}}-\\":5380,"\\[\\#\\{":5381,"^{*}\\|_{\\":5382,"Ġ)|\\":5383,"lead":5384,"))/\\":5385,"kq":5386,"Ġref":5387,"Ġ{}_{":5388,"\\[=(\\":5389,"Rf":5390,"}})).\\]":5391,"kb":5392,"}}\\;.\\]":5393,"}^{+})":5394,"lax":5395,"}-{":5396,"ĠTheorem":5397,"EE":5398,"|}^{":5399,"^{*})(":5400,"aux":5401,"+[\\":5402,"sA":5403,"}[{\\":5404,"\\[|{\\":5405,"}))<\\":5406,"Ty":5407,"Ġ})_{":5408,"Ġ\\[=[":5409,"}<(":5410,"}$}\\":5411,"use":5412,"Ġcy":5413,"312":5414,"{|},\\]":5415,"cation":5416,"Law":5417,"MO":5418,"^{*}),\\":5419,"}_{+,":5420,")\\,\\,\\":5421,"}<|":5422,"ĠOp":5423,"}\\;=\\;\\":5424,"Prox":5425,"\\[([":5426,"Ġ96":5427,"|\\!|\\!":5428,"graph":5429,"mg":5430,"Ġdet":5431,"losed":5432,"222":5433,"Ġ||\\":5434,"mq":5435,"}^{-})\\]":5436,"))]\\":5437,"})|=|":5438,"}}[(\\":5439,"Ġ94":5440,")}}^{(":5441,"PG":5442,"ws":5443,"{|}\\;\\":5444,"NO":5445,"}-[\\":5446,"Ġ})+":5447,"oslash":5448,"Ġel":5449,"}))>":5450,"}],\\\\":5451,"}}))=":5452,"Ġsgn":5453,"),&(":5454,"\\}}^{":5455,"varSigma":5456,"MU":5457,"]}^{(":5458,"Ġ}/":5459,"Ġcl":5460,"}$},\\]":5461,"Ġ\\}}\\":5462,"sqcap":5463,"221":5464,"type":5465,"mum":5466,"Ġ=[\\":5467,"Ġen":5468,"measu":5469,"RHom":5470,"Ġ})=":5471,"^{*}\\|\\":5472,"ikx":5473,"Ġuniformly":5474,"\\}}=":5475,"\\}|\\]":5476,"KS":5477,"varlimsup":5478,")},&\\":5479,"dual":5480,"MW":5481,"qk":5482,"pounds":5483,"\\}<\\":5484,"}\\,^{":5485,"ĠLo":5486,"}})=(\\":5487,"orphism":5488,"|}|\\":5489,"meas":5490,"Ġup":5491,"Ġpre":5492,"Ġ\\[=\\|\\":5493,"\\}},\\":5494,"qc":5495,"})|\\,":5496,".&.&":5497,"kg":5498,"{)}}\\]":5499,"_{*}^{(":5500,"}},{\\":5501,"jq":5502,"}}}&\\":5503,"}})/\\":5504,"))}=":5505,"vs":5506,"}^{*}&":5507,"Ġvol":5508,"sinc":5509,"irst":5510,"}\\}\\}\\]":5511,")_{|":5512,"iB":5513,"}^{*}\\,\\":5514,"Ġ}})\\":5515,"}\\|}{\\":5516,"dI":5517,"Ġ|_{":5518,"})}}.\\]":5519,"}\\|{\\":5520,"}},\\|\\":5521,"))=-\\":5522,"ĠâĢĶ":5523,"HL":5524,"}}\\},\\]":5525,"Ġimp":5526,"]=[\\":5527,"}\\{|":5528,"-[\\":5529,"<|\\":5530,"}^{+,":5531,"}{$":5532,"}},\\|":5533,"Ġspan":5534,"_{*,\\":5535,"pos":5536,"iven":5537,"Ġpr":5538,"102":5539,"}+||\\":5540,"QR":5541,"pj":5542,"{<":5543,"})\\|+\\":5544,"_{*}=":5545,"})}[\\":5546,"Ġone":5547,"{.":5548,"ĠLe":5549,"}},-\\":5550,"}}|=":5551,"#_{":5552,"$}}}":5553,"905":5554,"{$-$}}":5555,"ian":5556,"{+":5557,"|}{|\\":5558,"^{*}_{(":5559,"fu":5560,"tB":5561,")})}{\\":5562,"rightrightarrow":5563,"}}))=\\":5564,"rightrightarrows":5565,"Eq":5566,"wf":5567,"tj":5568,"_{-}^{(":5569,"CG":5570,"Ġ=-(":5571,"Ġsin":5572,"mark":5573,")\\}=":5574,"Ġ128":5575,"}^{*}:=\\":5576,"Ru":5577,"ail":5578,"})*\\":5579,"full":5580,"Ġ}}-\\":5581,"))]":5582,"Ġlarge":5583,"243":5584,"}}^{-}(":5585,"Ġmodel":5586,"mension":5587,")=&":5588,"^{*}}=\\":5589,"}})|^{":5590,")}{\\|\\":5591,")).\\":5592,")+{\\":5593,"250":5594,"Ġholds":5595,"|\\|\\":5596,"^{*}[":5597,"}\\,[":5598,"}=(-\\":5599,"140":5600,"eld":5601,"ses":5602,")\\,|":5603,"AG":5604,"\\,[":5605,"Ġmatrix":5606,"_{!}":5607,")+\\|":5608,"aX":5609,"num":5610,"\\|-\\":5611,"strongly":5612,"Ġ90":5613,"+}(\\":5614,"}|)^{\\":5615,")\\,|\\":5616,"^{{":5617,"}(.":5618,"Ne":5619,"Ġlinear":5620,"mall":5621,"ĠâľĹ":5622,"Par":5623,"\\,\\,\\,\\":5624,"cts":5625,"Ġ00":5626,"Ġiz":5627,"}}=(-":5628,"Ġpositive":5629,"OP":5630,"{\\}}\\,.\\]":5631,"}^{*}[":5632,"Ġbc":5633,"reasing":5634,"rq":5635,"xleftrightarrow":5636,"city":5637,"GP":5638,"HR":5639,"maxi":5640,"})|}{|":5641,"\\[=-":5642,"crit":5643,"]\\}.\\]":5644,")||_{\\":5645,"^{*};":5646,"Ġ\\[=|":5647,"!\\!\\!\\":5648,"PW":5649,")\\{":5650,"}^{*}:\\":5651,"iL":5652,"{|}|":5653,"Qx":5654,"We":5655,"area":5656,"RB":5657,")||^{":5658,"}}|^{\\":5659,")\\|_":5660,"015":5661,"HM":5662,"Ob":5663,"]})":5664,"]}^{[":5665,")\\,|\\,\\":5666,"#(":5667,"\\}|":5668,"]}}":5669,"ugh":5670,"bow":5671,"hort":5672,"\\{\\,\\":5673,"}^{+},\\]":5674,"ĠProp":5675,"})|+\\":5676,"}}\\,\\|":5677,"Sc":5678,"}}(\\|":5679,"\\|\\|\\":5680,"stance":5681,"}\\;(":5682,"}{*}{\\(":5683,"|}|":5684,"sity":5685,"},{":5686,"<-\\":5687,"ON":5688,"\\}}|\\":5689,"{\\,":5690,"Ġ{[":5691,"!\\!\\!":5692,"ud":5693,"}}}&":5694,"ork":5695,"^{+}.\\]":5696,"})!":5697,"Avg":5698,"YX":5699,"\\:":5700,"uf":5701,"wv":5702,"tie":5703,"}})&\\":5704,"}_{*},\\":5705,"Ġcompact":5706,"lative":5707,"Ġ&.":5708,"})]+":5709,"720":5710,"kG":5711,"Ġsing":5712,"ĠKer":5713,"nel":5714,"}}{-":5715,")}>\\":5716,"Ġ\\[=:\\":5717,"osition":5718,"IR":5719,"Ġ)\\\\":5720,"Ġ&&&\\":5721,"Ġ38":5722,".-":5723,"\\}}+":5724,"\\}:\\":5725,"}}}}(":5726,"dev":5727,"}^{*})(":5728,"}^{+}}(":5729,"}$}\\\\":5730,"Sk":5731,"))|_{":5732,"crys":5733,"133":5734,"No":5735,"ZF":5736,"}\\})=\\":5737,"ric":5738,"))]\\]":5739,"}\\|^{-":5740,"}}{(-":5741,"DB":5742,"KP":5743,"Sf":5744,"Ġlin":5745,"}}{=}\\":5746,")}\\}\\":5747,"}}}{|\\":5748,"}}\\,|":5749,"[[\\":5750,"mf":5751,"Ġ}}+":5752,"^{*\\":5753,"Ht":5754,"Nk":5755,"hp":5756,"}})<\\":5757,"lv":5758,"}_{{}_{\\":5759,"Ġconst":5760,"KU":5761,"Ġres":5762,"006":5763,"mize":5764,"}^{-(\\":5765,"Ġdf":5766,"lf":5767,"}&=-":5768,"_{-}=\\":5769,"\\})^{":5770,"^{*}/":5771,"}[[\\":5772,"Subset":5773,"zu":5774,"Ġ+|":5775,"{]}\\,.\\]":5776,",...,\\":5777,"}:{\\":5778,"old":5779,")^{*}(":5780,"FL":5781,"kL":5782,"|}-":5783,"Ġinv":5784,"(||":5785,"TA":5786,"^{*}}_{":5787,"}\\,=\\":5788,"))\\}\\]":5789,"\\!=\\!":5790,"Ġ)}^{":5791,"}|}=\\":5792,"{\\{}|":5793,"246":5794,"Ġdxdy":5795,"orithm":5796,"yt":5797,"Ġ\\&":5798,"^{\\,\\":5799,"}<-":5800,"^{*}&":5801,"})+|":5802,"Conf":5803,"})$":5804,"}))/":5805,"stab":5806,"soft":5807,"}(*":5808,",\\,-\\":5809,"Ġ500":5810,"Ġ}(-":5811,")=\\\\":5812,"AH":5813,"pb":5814,"|^{(":5815,"Te":5816,"cof":5817,"007":5818,"})\\,=\\,\\":5819,"jkl":5820,"bowtie":5821,"PB":5822,"\\}},\\]":5823,"ND":5824,"]>":5825,"xq":5826,"}^{{}^{":5827,"Eu":5828,"Ġtop":5829,"ĠEnd":5830,"020":5831,"vmode":5832,"|&\\":5833,"erence":5834,"{)}=-\\":5835,"}&&\\":5836,"leavevmode":5837,")_{*}\\":5838,";(\\":5839,"gd":5840,"})_{*}(":5841,"})^{[":5842,"smash":5843,"!}=\\":5844,"PH":5845,"gH":5846,"qa":5847,"Ġspace":5848,"ĠError":5849,"Fx":5850,"Gap":5851,"sys":5852,"}}}\\,.\\]":5853,"\\|)\\":5854,"))|\\]":5855,"}(-,":5856,"Kt":5857,"atch":5858,"^{*}),\\]":5859,"Poi":5860,"xw":5861,"\\[<\\":5862,"}:\\{":5863,"OM":5864,"}},...,\\":5865,"Mx":5866,"nz":5867,"})],\\":5868,"^{*}:=\\":5869,"Ġparameter":5870,"âĢĵ":5871,"}}]}\\":5872,")=\\|\\":5873,"\\|[":5874,"Ġ\\[=|\\":5875,"zf":5876,"Ġta":5877,"{\\}}+\\":5878,"ĠCL":5879,")}({\\":5880,"Ġwhi":5881,"UB":5882,"^{>":5883,"etwe":5884,"etween":5885,"013":5886,"}/{\\":5887,"ĠInt":5888,"|)\\,":5889,"}^{-}+\\":5890,")}^":5891,"}\\|=\\|":5892,"Ġstrongly":5893,"*}_{":5894,"_{-}^{-":5895,"_{+}}(":5896,"onal":5897,"Ġ44":5898,"pendent":5899,"})}>":5900,"circled":5901,".},\\]":5902,"}{(-":5903,"}^{*})+":5904,"))\\|_{\\":5905,"*_{\\":5906,"FD":5907,"Ġ\\[{\\":5908,"})=|\\":5909,"Ġ\\,,\\":5910,"!}+\\":5911,"^{!}\\":5912,"textcircled":5913,"}]=(":5914,"&&&&\\\\":5915,"IT":5916,"sol":5917,"mathord":5918,"})}&":5919,"}})^{*}\\":5920,",*}":5921,"break":5922,"576":5923,"|}\\,":5924,"|_{(":5925,".}&\\":5926,"An":5927,"For":5928,"})\\}":5929,"})]-":5930,"}):(":5931,"Rad":5932,"ick":5933,"Ġ\\,(":5934,"}}):":5935,"})}=\\|":5936,"Unif":5937,"Ġsim":5938,"_{*}:":5939,"^{[*":5940,"Ġ:=(":5941,"epi":5942,"otal":5943,"})_{*}(\\":5944,"llll":5945,"upbeta":5946,"}\\}^{\\":5947,"^{*}})\\":5948,");(":5949,"}]:":5950,"}]}=\\":5951,"Ġ}&\\":5952,"^{(+":5953,"Ġ45":5954,"Ġ}}=\\":5955,"mation":5956,"}}\\,{\\":5957,"Ri":5958,"sph":5959,"ration":5960,"Ġ\\([(":5961,"{]}.\\":5962,"Type":5963,"{)}^{(":5964,"}]/\\":5965,"nse":5966,"|)(":5967,"Ġsolution":5968,")\\,,\\\\":5969,"KO":5970,"\\[{}_{\\":5971,"{\\{\\":5972,"Arg":5973,"Crit":5974,"ID":5975,"MK":5976,")}\\;":5977,"}^{-}-\\":5978,"114":5979,"]=-":5980,"({}^{":5981,"016":5982,"800":5983,"kin":5984,"Ġdata":5985,"))}+\\":5986,")}})\\]":5987,"}|\\!|\\!":5988,"})]^{-":5989,"Ġlength":5990,"}]=-\\":5991,")\\;=\\;\\":5992,"})}).\\]":5993,"{\\,\\":5994,"gph":5995,"}^{{":5996,"^{-}|^{":5997,"ĠMethod":5998,"ua":5999,"),...,":6000,"}}}{\\|":6001,"@@":6002,"}\\|,\\":6003,"\\[+(":6004,"{)}+(":6005,"))^{-\\":6006,"9998":6007,"$}^{":6008,"_{-}=":6009,"}\\;,\\":6010,"Ġ{*}":6011,"_{\\#}\\":6012,"Rc":6013,"Ġval":6014,"Ġsatisfies":6015,"QM":6016,"}}(\\|\\":6017,"}})[":6018,"Ġev":6019,"TD":6020,"cite":6021,"\\}},":6022,"]:=":6023,"))}{(":6024,"ons":6025,"((-\\":6026,"YY":6027,"\\,-":6028,"Ġ_{+":6029,"\\({}^{":6030,"|}+":6031,"}|},\\]":6032,"Ġtw":6033,"leadsto":6034,"}),\\;\\":6035,"eqqcolon":6036,"})}{\\|":6037,"Ġuv":6038,"}/\\|\\":6039,"127":6040,"225":6041,"rue":6042,"ning":6043,"Ġ}}_{\\":6044,"})}<":6045,"})|+|\\":6046,"Ke":6047,"XZ":6048,"^{*,":6049,"^{*}},":6050,"Ġ({\\":6051,"ĠTh":6052,"Ġprop":6053,")}]_{":6054,"Ġpath":6055,"Ass":6056,"_{<\\":6057,"{)}\\.\\]":6058,"ĠTM":6059,"\\,\\}\\]":6060,"}{||":6061,"Ġiff":6062,")!}.\\]":6063,"ĠOr":6064,"VR":6065,"ying":6066,"almost":6067,"}]}.\\]":6068,"},\\,\\,":6069,"{)}=(":6070,"vertex":6071,"Comp":6072,"sz":6073,"\\,+\\,":6074,"{||\\":6075,")|^":6076,")}}{|":6077,"rz":6078,"}:=\\|":6079,"})}\\,,\\]":6080,"loze":6081,"ling":6082,"CW":6083,"Ġ39":6084,"}}|(\\":6085,"lozenge":6086,"JY":6087,"Ġvalue":6088,"\\[(\\{":6089,"Sx":6090,"ug":6091,"|[":6092,")=+\\":6093,"\\{{\\":6094,"^{+}=":6095,"245":6096,"Geo":6097,"Ġ&=-":6098,"using":6099,")+[":6100,"ĠExt":6101,"DV":6102,"xg":6103,"Ap":6104,"Ġ)_{\\":6105,"}\\|_{(":6106,"ĠSU":6107,"^{+}}^{\\":6108,",<":6109,"|}\\,\\":6110,"raint":6111,"{)}}.\\]":6112,")}{=}\\":6113,"{\\|}(\\":6114,",+}(\\":6115,"\\({}^{-":6116,"+-":6117,"VaR":6118,"Ġ}),\\]":6119,"Ġ=\\,\\":6120,"ting":6121,"igen":6122,"\\|_{[":6123,"Ġpoly":6124,"{\\{}-":6125,"Ġ49":6126,"})\\,|\\,\\":6127,"\\[-(\\":6128,"efficient":6129,"212":6130,">\\]":6131,"Jv":6132,"Pol":6133,"Ġ_{*":6134,"}>(":6135,"GR":6136,"nH":6137,"wu":6138,"cost":6139,"uct":6140,"ight":6141,")}_{-":6142,"640":6143,"Ġpoints":6144,"Ġvariable":6145,"210":6146,"inal":6147,"{(}(-":6148,"Ġ+(\\":6149,")}\\,,\\":6150,"noise":6151,"{)}}":6152,"stable":6153,"414":6154,">-\\":6155,"EL":6156,"YT":6157,"}!}":6158,"ves":6159,")})_{\\":6160,"ĠCase":6161,")|)\\":6162,"})_{+}\\":6163,"^{+}-\\":6164,"})}.\\":6165,"ential":6166,"}}:=\\{\\":6167,"EG":6168,"ass":6169,"},\\;\\;":6170,"tribu":6171,"Ġform":6172,"}})<":6173,"ĠBV":6174,")\\,,":6175,"{)}<":6176,")<(":6177,"EH":6178,"gt":6179,"AF":6180,"}\\{(\\":6181,"}\\|_{*":6182,"ĠEx":6183,"235":6184,"}))<":6185,"):\\,":6186,"drd":6187,"Cost":6188,"|)+":6189,"}={":6190,"Ġ\\[\\{":6191,"}^{*}\\)":6192,"Ġ};\\":6193,"}/\\|":6194,"})&=&":6195,"Ho":6196,")|}\\]":6197,"ĠKL":6198,",&(":6199,"Ġ:=-\\":6200,"Nn":6201,"bigodot":6202,"}|\\\\":6203,"}),...,":6204,"}}[-":6205,"upmu":6206,"}}\\,\\,\\":6207,"}]]\\":6208,")&=&\\":6209,"whenever":6210,"pv":6211,"deal":6212,"Ġ\\[>\\":6213,"rect":6214,"}_{-}":6215,"768":6216,"ov":6217,"^{+})\\]":6218,"([-":6219,"Ġ{*}(":6220,"HD":6221,"NK":6222,"mage":6223,")}\\.\\]":6224,"}]<\\":6225,"/|\\":6226,"Rob":6227,"|(|":6228,")})}":6229,"Ar":6230,"SQ":6231,"Ġ}},":6232,"))\\,,\\]":6233,"}}],\\":6234,"cally":6235,"}][\\":6236,"})|=|\\":6237,"EX":6238,"\\}}^{\\":6239,"range":6240,"}|}+\\":6241,")-{\\":6242,"ED":6243,"EF":6244,"Ġhi":6245,"},\\;\\;\\":6246,"RIS":6247,"])^{\\":6248,"cw":6249,"dependent":6250,"009":6251,"Ġdegree":6252,">_{":6253,"_{*}.\\]":6254,"_{+})":6255,"fore":6256,"}})\\,.\\]":6257,"Ġ}{|":6258,"}_{\\,":6259,"}]}^{":6260,"qe":6261,"llcorner":6262,"Ġcd":6263,"Ġhave":6264,"333":6265,")}-(":6266,"]+(":6267,"_{\\_":6268,"})_{|":6269,"115":6270,"\\}\\}.\\]":6271,"center":6272,"NI":6273,"weak":6274,"varliminf":6275,"sqsubset":6276,"\\}\\.\\]":6277,"ky":6278,"wz":6279,"}\\}\\)":6280,"leqq":6281,"Ġ{|\\":6282,"}}=\\{(":6283,"stem":6284,"ĠDiff":6285,"(||\\":6286,"Ġconnected":6287,"+}_{":6288,":-":6289,"Lx":6290,"}\\})=":6291,",-}\\":6292,"MMD":6293,"({}_{":6294,"QC":6295,"}^{*}),\\":6296,"{|}+":6297,")|}{|\\":6298,"OR":6299,"Ġdw":6300,"\\[[[":6301,")},&":6302,"Ġ98":6303,"Su":6304,"dC":6305,"Ġ^{*":6306,"inct":6307,"\\,;":6308,"}}:=(":6309,"Ġmulti":6310,"Ġ}\\|^{":6311,"Ġ^{(\\":6312,"Isom":6313,"!\\,":6314,"ĠGr":6315,"Ġ41":6316,"})|}{\\":6317,"014":6318,"fx":6319,")\\;\\;\\":6320,")\\,.\\":6321,"fv":6322,"ju":6323,"metric":6324,"ĠCC":6325,")},\\,":6326,"Dt":6327,"UL":6328,"}^{*}|^{":6329,"{]}<\\":6330,"236":6331,"leftarrows":6332,"})}^{-":6333,"}{+}":6334,")\\}}\\":6335,"{(}\\{\\":6336,"116":6337,"}_{+},\\]":6338,"Ġ\\|(":6339,"]\\!]":6340,"]\\!]\\]":6341,",{":6342,"EC":6343,"bk":6344,"varPi":6345,"^{*}}=":6346,"Ġir":6347,"Ġpo":6348,"ĠParameter":6349,"}|},\\":6350,"ĠCT":6351,"Ġ}))\\":6352,"}}}\\|_{":6353,"rightleftarrows":6354,"Ġwe":6355,"\\)\\":6356,"}})&":6357,"univ":6358,"Ġdm":6359,"gebra":6360,"dic":6361,"RK":6362,"Ġ\\(|\\":6363,")_{[":6364,"{]}^{-":6365,"480":6366,",*}_{":6367,"IG":6368,"|/\\":6369,"}^{-})^{":6370,"}\\|<":6371,"Ġgenera":6372,"Lv":6373,"\\|^{-":6374,"}})}(\\":6375,"}}}<\\":6376,"))=-":6377,"\\;(":6378,"Ġ93":6379,"}]+[\\":6380,")[-":6381,"Ġ)}(\\":6382,"})^{(\\":6383,"\\[\\|{\\":6384,"maximize":6385,"!(\\":6386,"Ġ(|":6387,"...+":6388,"]{}\\":6389,"Kl":6390,"fh":6391,"fw":6392,"+\\\\":6393,"^{*}))\\":6394,"{]}(\\":6395,"117":6396,",}\\]":6397,"NF":6398,"uk":6399,"Ġopt":6400,"}|).\\]":6401,"})}{\\|\\":6402,"})\\;,\\]":6403,"MV":6404,"|),\\]":6405,"}))|":6406,"}^{*,\\":6407,"}&:=\\":6408,")}=\\|":6409,"&*&":6410,"obj":6411,"}\\}|\\":6412,"}})},\\]":6413,",-(":6414,"Ġ72":6415,"RA":6416,"dD":6417,"Ġ}},\\]":6418,"}{-\\":6419,"usp":6420,"ĠdV":6421,"-)\\":6422,"}\\}-\\":6423,"}=\\\\":6424,"get":6425,"}^{*}\\}\\]":6426,"Ġtran":6427,"trianglelefteq":6428,"Emb":6429,"Nd":6430,"|}=":6431,"Ġ)|":6432,"}]\\)":6433,"Ġtot":6434,"{--":6435,"}_{+};":6436,"\\|=\\|":6437,"tK":6438,"}]},\\":6439,"}})]\\":6440,"ReLU":6441,"Ġ70":6442,"}}^{+}(\\":6443,"Col":6444,"jb":6445,"nil":6446,"}}...\\":6447,"))\\|\\":6448,"dtdx":6449,"Ġfixed":6450,"#\\{\\":6451,".}}}{{\\":6452,"ZZ":6453,"}^{*}|":6454,"\\,+\\,\\":6455,"_{-})":6456,"103":6457,"^{+})":6458,"}:\\;":6459,")\\!=\\!\\":6460,"=((":6461,"Lf":6462,"RH":6463,"}\\})":6464,"loop":6465,"^{-}}(":6466,"Cd":6467,"tl":6468,"}^{-}_{\\":6469,"Ġsqu":6470,"}})]\\]":6471,"Ġconvex":6472,")})\\|_{":6473,"DX":6474,"1728":6475,"soc":6476,")}}\\,":6477,"Ġcr":6478,"perfect":6479,")\\,:\\,\\":6480,"]=\\{":6481,"021":6482,"mN":6483,"|}}{":6484,"Ġ\\(\\|":6485,"}}:=(\\":6486,"rh":6487,"ren":6488,"}}\\,\\|\\":6489,")]\\),":6490,"{|}>\\":6491,"ĠAu":6492,"sideset":6493,"dj":6494,"}}$":6495,"vartriangle":6496,"ĠCd":6497,"Spc":6498,"Ġcomponent":6499,"Ġmn":6500,"ization":6501,"|:":6502,"\\[\\{\\{":6503,"_{*}}^{":6504,"$}_{\\":6505,"]}{(":6506,"bv":6507,"Ġ&=&\\":6508,"!},\\]":6509,"RW":6510,"Ġ=\\]":6511,"_{*})^{":6512,"}}={\\":6513,"]}[":6514,"!^{":6515,"Ns":6516,"ues":6517,"les":6518,"}:=[\\":6519,"TU":6520,")\\:":6521,"Ġnx":6522,"GG":6523,"Nx":6524,"))&":6525,"))),\\]":6526,"Ġ+\\|\\":6527,"618":6528,"Att":6529,"RN":6530,"tes":6531,"Ġeq":6532,"}}})=\\":6533,"Ġ([":6534,"}},\\;":6535,"}}^{*}=\\":6536,"sI":6537,"|}-\\":6538,"^{*}=(":6539,"^{*};\\":6540,"Ġ}&":6541,"Mf":6542,"que":6543,"Ġ256":6544,"OL":6545,"Ġap":6546,"],[\\":6547,"(.,":6548,")})\\\\":6549,"Aw":6550,"}}}).\\]":6551,"liz":6552,"}}}(-":6553,"}]:=\\":6554,"})+\\]":6555,"*(\\":6556,"Dist":6557,"lc":6558,"lcl":6559,"Ġ})^{-":6560,"\\}<":6561,"\\[\\{[":6562,"},\\,\\,\\":6563,"^{*}\\|":6564,"ĠdX":6565,"162":6566,"^{*}}+":6567,"Kn":6568,"Ġ}}-":6569,"}\\}=\\{\\":6570,"cause":6571,"ĠRic":6572,"Ġgrad":6573,"Ġ:=\\{\\":6574,"DW":6575,"Kh":6576,"}})\\)":6577,"109":6578,"Vu":6579,"|^{-(":6580,"{|}_{(":6581,"Ġdp":6582,"ges":6583,",\\,|":6584,"131":6585,"gu":6586,"{\\|}|":6587,"Ġ43":6588,"dudv":6589,"Robba":6590,"ulcorner":6591,"_{+})\\]":6592,"}_{*})\\":6593,"}}<+\\":6594,"600":6595,"iN":6596,"}}&-":6597,"}=\\{\\{":6598,"cen":6599,"dyds":6600,"})\\,(":6601,"gk":6602,"hol":6603,"}\\;=\\;":6604,":\\{":6605,"}\\}\\,.\\]":6606,"}_{[-":6607,"{\\}}\\,\\":6608,"fold":6609,"\\[[-":6610,"Ġmaxi":6611,"Px":6612,"ye":6613,"rely":6614,")}}}{{\\":6615,"Net":6616,"{(}\\,":6617,"Ġ\\[[\\":6618,"}]&":6619,"}];\\":6620,")+\\|\\":6621,"anti":6622,"$;}\\\\":6623,"\\[(|":6624,"}.\\\\":6625,"iant":6626,"alent":6627,"$}}}\\":6628,"FR":6629,"Mr":6630,"fil":6631,"|,|\\":6632,"})_{*":6633,"}}],\\]":6634,"^{-})^{":6635,"}^{-,":6636,"})|,\\]":6637,"):=-":6638,"|}{(":6639,"}{}^{-":6640,"}^{*}}^{\\":6641,"ĠAB":6642,"}))},\\]":6643,"Ġ*}(":6644,"356":6645,"<_{":6646,"}^{*-":6647,"Sht":6648,"$}}_{":6649,"KR":6650,"}|}-":6651,"}}))^{":6652,"}}=|":6653,"Ġinc":6654,"cN":6655,"varPsi":6656,"Ġmon":6657,"Ġ97":6658,"960":6659,"KN":6660,"Mul":6661,"Ġ\\.\\]":6662,"\\|<":6663,"}})+(":6664,"Ġdim":6665,"ĠLi":6666,"\\!:\\!":6667,"432":6668,"KH":6669,"OC":6670,"}{=}":6671,"lan":6672,"lll":6673,"}|/\\":6674,"cor":6675,"Ġ\\[=\\{":6676,"+}\\]":6677,"hl":6678,"kc":6679,"118":6680,"Ġhy":6681,"\\},&\\":6682,"mot":6683,"}}/(":6684,"}}=\\]":6685,")]}{":6686,"measure":6687,"EA":6688,"mes":6689,"{|}<\\":6690,"Ġsc":6691,"})(-\\":6692,"}|_{(":6693,"Ġnp":6694,"spin":6695,"}}\\|\\]":6696,"}_{-,":6697,"}}^{*})\\":6698,"sian":6699,"Ġ};":6700,"}})}=\\":6701,")}|\\]":6702,"QT":6703,"ced":6704,"}_{=":6705,"\\|}":6706,"}\\,{":6707,"}})\\}\\]":6708,"106":6709,"201":6710,"LHS":6711,"NB":6712,"lh":6713,"radi":6714,")=((":6715,"_{-}+\\":6716,")|-\\":6717,"Spf":6718,"},\\,\\,\\,":6719,"Ġwhenever":6720,"]<":6721,"}\\},\\\\":6722,"hift":6723,"ĠHF":6724,"}*(\\":6725,"ant":6726,"tiv":6727,"}},\\;\\":6728,"};{\\":6729,"\\}\\}\\":6730,"Ġrad":6731,")\\|=":6732,";\\,\\,":6733,"_{*})=\\":6734,"\\[[(\\":6735,"905512":6736,"tC":6737,"^{*}}-":6738,"^{+}}^{":6739,"ood":6740,")}\\{":6741,")):\\":6742,"{{*":6743,"Sm":6744,"Ġjk":6745,"Ġ54":6746,"ute":6747,"Ġleft":6748,"Ġpt":6749,"}})^{-\\":6750,"Coker":6751,"{)}\\,,\\":6752,"])+\\":6753,"}{-}":6754,"Wh":6755,"climit":6756,"))}(\\":6757,"_{**":6758,"Ġinteger":6759,":\\\\":6760,"}^{*}=(":6761,"\\,-\\,":6762,"Ġker":6763,"BH":6764,"RHS":6765,"gv":6766,"{.}\\":6767,"{\\{}\\|":6768,"succcurlyeq":6769,"}})|\\]":6770,")}{}_{":6771,"ĠBo":6772,"\\}\\!\\":6773,"Rel":6774,"ann":6775,"^{**}(":6776,"MI":6777,"}\\}(":6778,"}=+\\":6779,"_{[-\\":6780,"Pre":6781,"high":6782,"Ġsup":6783,"})}}(":6784,"Ġct":6785,")|-|":6786,"ĠInd":6787,"homotopyclimit":6788,"SINR":6789,"$}^{\\":6790,"024":6791,"JM":6792,"Mt":6793,"dep":6794,"}_{\\,\\":6795,"}^{*}\\|\\":6796,"ĠDa":6797,")](\\":6798,")]\\\\":6799,"138":6800,"conn":6801,"Ġcost":6802,"324":6803,"Ġ}]\\":6804,"}:=\\{(\\":6805,"107":6806,"skew":6807,"Ġpair":6808,"Xt":6809,"}^{*})}\\":6810,"}\\,^{\\":6811,"};-":6812,"147":6813,"}^{[-":6814,"Quot":6815,"xI":6816,"}\\)-":6817,"{(|":6818,"167":6819,"cyl":6820,"!/":6821,"!\\]":6822,"+(-\\":6823,"\\};\\":6824,"fp":6825,"|}}{\\":6826,"textsf":6827,"})+(-":6828,"175":6829,"}}\\;,\\]":6830,"Hz":6831,"}}}:\\":6832,"))^":6833,"{)}\\,\\]":6834,"))\\)":6835,"224":6836,"019":6837,"Ġequiv":6838,"FC":6839,"{)}&":6840,"Ġfi":6841,"\\,;\\":6842,"Ġ47":6843,"AN":6844,"Ck":6845,"ris":6846,"ĠSh":6847,"018":6848,"}$,}\\\\":6849,"ain":6850,"iid":6851,"ory":6852,"))=\\{":6853,"Ġ75":6854,",*}^{":6855,"311":6856,"bh":6857,"tical":6858,"}|&\\":6859,"^{*}},\\":6860,"_{-}\\]":6861,"Ġ+\\|":6862,"-}^{\\":6863,"Or":6864,"XA":6865,"\\|>":6866,"inear":6867,"ĠAlgorithm":6868,"Scal":6869,"\\}),\\]":6870,"}}})=":6871,"ĠMean":6872,"Ġvector":6873,"vf":6874,"thick":6875,"(\\!\\":6876,"}}):\\":6877,"Ġ46":6878,"130":6879,"Ġ81":6880,"Ġsurely":6881,"yl":6882,"}}}:=\\":6883,"}}{}_{\\":6884,"00000":6885,"}[\\{":6886,"}:=-":6887,"\\;(\\":6888,"ormal":6889,"LoS":6890,")}&=\\":6891,")}}\\,\\":6892,"Ġ}\\|_{\\":6893,"_{+})^{":6894,"})\\,=\\,":6895,"Ġsi":6896,"hor":6897,"})=\\|\\":6898,"Ġ}]":6899,"}|\\}\\]":6900,"Ġwhich":6901,".}}\\":6902,":{\\":6903,"Ba":6904,"]|^{":6905,"|_":6906,"}\\,-\\,":6907,"order":6908,"))\\|^{":6909,"}\\|\\,":6910,"):=\\{(":6911,"diamondsuit":6912,"Ġinfinite":6913,"Ġcondition":6914,"%)":6915,")})}\\]":6916,"|)}":6917,"Ġexist":6918,"Ġ\\[+\\|\\":6919,"}}}{\\|\\":6920,"})&(":6921,"Ġ*}":6922,"Ca":6923,"Ġ}\\{\\":6924,"}&=(":6925,"_{+,\\":6926,"{\\{}\\,":6927,"\\;,\\":6928,")\\|.\\]":6929,"{\\#\\":6930,"Ġfac":6931,"}}\\,(\\":6932,"1498":6933,"stima":6934,"ĠCl":6935,"ĠTra":6936,"})|>":6937,"}}^{*},\\":6938,",*,":6939,"space":6940,"{>":6941,"}})|_{":6942,"}^{+}\\\\":6943,"|\\,.\\]":6944,"Ġelse":6945,"KG":6946,"iY":6947,"Ġ^{*}":6948,"lay":6949,"Ġ\\(|":6950,")&:=\\":6951,"=&\\":6952,"QD":6953,"}+\\{":6954,"))}+":6955,")-(-":6956,"ĠLip":6957,"Ġcn":6958,"emph":6959,"Ġ\\|(\\":6960,"BN":6961,"cfrac":6962,"}}^{(-":6963,"/[":6964,"AI":6965,"PX":6966,"{``":6967,"prim":6968,"^{-}=\\":6969,"}{\\(":6970,"\\|-":6971,"}),-":6972,"146":6973,")}+(\\":6974,"EI":6975,"bg":6976,")}_":6977,"\\[\\||":6978,"}>\\]":6979,"++":6980,"Je":6981,"ton":6982,"{)}\\|_{":6983,"129":6984,"_{-}}(":6985,"}]\\!]\\]":6986,"centerdot":6987,"022":6988,"pli":6989,"Ġ|}\\":6990,"Ġproj":6991,")\\,\\,":6992,"total":6993,"}].\\":6994,"}&\\|\\":6995,"Ġba":6996,"Ġbetween":6997,"}$}\\]":6998,"Case":6999,"qb":7000,"Ġind":7001,"})\\,:\\,":7002,")^{*}=\\":7003,"IK":7004,"RV":7005,"]})=\\":7006,"]}\\\\":7007,"hD":7008,":\\!\\":7009,"ĠPr":7010,"Disc":7011,"023":7012,"Des":7013,"}[\\![\\":7014,"})|\\,\\":7015,"&&&&":7016,"Regret":7017,".}}}{{=}}\\":7018,"Gx":7019,"Ġvertex":7020,"then":7021,"rand":7022,"dangle":7023,"Ġ{}^{":7024,"))},\\":7025,"}\\|}\\]":7026,"Ġclosed":7027,"Ġsy":7028,"_{*}}(\\":7029,"729":7030,"HN":7031,"ang":7032,"fa":7033,"}\\}-":7034,"tho":7035,"ĠCE":7036,"\\,_{":7037,"]\\.\\]":7038,"Hd":7039,")^{*}=":7040,"}}^{+}":7041,"}\\|=\\|\\":7042,"measuredangle":7043,"][\\":7044,"irr":7045,"Ġ}),":7046,"^{*}}-\\":7047,"ĠCF":7048,"Ġ66":7049,"(*":7050,"UC":7051,"Ġ\\,\\,\\":7052,")-|\\":7053,"_{-}-\\":7054,"ĠMod":7055,"Ġ)}.\\]":7056,"ining":7057,"^{*})}{":7058,"Ġdom":7059,"}},[":7060,"}}+\\]":7061,"Ġred":7062,")}}|":7063,"Nh":7064,"kz":7065,"pz":7066,"})\\|=\\":7067,"ergy":7068,"})|<":7069,"precsim":7070,"Ġ78":7071,"Dol":7072,"]^":7073,"kA":7074,"}}\\#\\":7075,"Ġgraph":7076,"{|}\\!\\":7077,"}}^{*}}\\":7078,"Trace":7079,"199":7080,"Grad":7081,"])+":7082,"mis":7083,"}+(-\\":7084,"JK":7085,"mv":7086,"Ġ{}^{\\":7087,"path":7088,"}}+[":7089,"625":7090,"tD":7091,"gather":7092,"root":7093,"^{*}}+\\":7094,"lux":7095,"\\}=\\{\\":7096,"bit":7097,"wist":7098,"unif":7099,"(-(\\":7100,")\\,(\\":7101,"Ġdistinct":7102,"999863":7103,"scal":7104,")}\\;\\":7105,"\\|\\!\\":7106,"ĠSet":7107,"Ġord":7108,"!|":7109,"Ro":7110,"VA":7111,"])-":7112,"Ġ[-":7113,"tio":7114,"Ġ\\[:=\\":7115,"}:\\]":7116,"}^{*}),\\]":7117,"blem":7118,"152":7119,"{/}":7120,"322":7121,"Ġsol":7122,"gathered":7123,"hG":7124,"},\\,(":7125,"Ġ}\\;\\":7126,"\\|\\\\":7127,"_{-})\\]":7128,"}^{+};":7129,"ĠReg":7130,"}>-\\":7131,"142":7132,")\\!.\\]":7133,"ĠData":7134,"=\\\\":7135,"}}\\,=\\,\\":7136,"}|<|":7137,"])_{":7138,"mK":7139,"qm":7140,"uz":7141,"})}}^{":7142,"}))).\\]":7143,"Ġ\\((-":7144,"}}:(":7145,"CVaR":7146,"DH":7147,"}|}+":7148,"omorphism":7149,"}^{+}\\|_{":7150,")\\,:=\\,\\":7151,"^{\\#}(":7152,".,\\":7153,"027":7154,"Ġ)},\\":7155,"land":7156,"}|\\{":7157,"Ġms":7158,"}\\}&\\":7159,")\\|=\\":7160,"648":7161,"CY":7162,"|)+\\":7163,"~{":7164,"&=&\\":7165,"Ġ&&&&":7166,"#(\\":7167,"Kx":7168,"aN":7169,"}{{":7170,"ĠCPU":7171,"Ġsmooth":7172,"_{*}\\|_{":7173,"{]}}{\\":7174,"aba":7175,"&*&*\\\\":7176,"}]\\,.\\]":7177,"}})^":7178,",-}(\\":7179,"either":7180,"Ġsquare":7181,"-,":7182,"AY":7183,"^{*}}.\\]":7184,"term":7185,"udx":7186,"}\\}}{":7187,"}}\\}_{\\":7188,"}^{-})":7189,"119":7190,"}}\\,|\\":7191,"}<...":7192,"Lk":7193,"MH":7194,"Pri":7195,"lag":7196,"}([-\\":7197,"/\\|":7198,"nomial":7199,"Ġ}+(":7200,"Ġ^{*}(":7201,"alse":7202,"}}),(":7203,"(((":7204,"Ġ65":7205,"}+\\|(":7206,"567":7207,"IndCoh":7208,"urcorner":7209,"149815":7210,"jx":7211,"nM":7212,"_{:,":7213,"opp":7214,"Ġne":7215,"\\[\\|[":7216,"}<-\\":7217,"Trop":7218,"\\[=\\]":7219,"Ġ91":7220,":&":7221,"\\}}}\\":7222,"}]),\\]":7223,"))>\\":7224,"}\\|>":7225,"ved":7226,"/\\!\\!/":7227,"1010":7228,"]),":7229,"}))=(\\":7230,"}}]+\\":7231,"^{*})_{":7232,"}]}=":7233,"Ġgiven":7234,"...\\\\":7235,"Ġ57":7236,"Ġ58":7237,"}))]\\]":7238,"AJ":7239,"}^{{}^{(":7240,")}\\,\\]":7241,"\\,{":7242,"Ġ55":7243,"xxxx":7244,"+,":7245,"VE":7246,"cL":7247,"Ġ\\}_{":7248,"}>-":7249,"Ġreal":7250,"tribution":7251,")}^{*}\\":7252,"Se":7253,"\\},\\,":7254,"})_{\\#}\\":7255,"196":7256,"Lh":7257,"Ġ})}{":7258,"\\|}\\]":7259,"}&\\|":7260,")])\\":7261,"}_{-},\\":7262,"375":7263,"Ġmean":7264,"034":7265,"BO":7266,"}\\}}.\\]":7267,"{)};\\]":7268,"cit":7269,")|\\\\":7270,"Ġ$|":7271,"Ġ92":7272,"normal":7273,")[(":7274,"Ġsum":7275,"Ġ|^{\\":7276,"^{*}))\\]":7277,"}^{*}/":7278,"}_{*}}\\":7279,"Ld":7280,"|)^{-\\":7281,"ĠCS":7282,")(|\\":7283,"Inf":7284,"Ġleast":7285,"];\\]":7286,"}|}(\\":7287,"Ġei":7288,"ĠRF":7289,"}_{-}}\\":7290,"9999":7291,"herent":7292,"Ġcontains":7293,"])}":7294,"sig":7295,"ĠCA":7296,"}\\,:=\\,\\":7297,"137":7298,"|}{\\(":7299,"Curl":7300,"EV":7301,"Ġ\\#\\":7302,"med":7303,"}^{+})=\\":7304,"{\\{}|\\":7305,"}]\\!]\\":7306,"})}:":7307,"Ġfd":7308,"{\\{}\\,\\":7309,"):|":7310,"017":7311,"Ġmeasurable":7312,".}&":7313,"WA":7314,"|}}":7315,"Ġ}}=":7316,"}}|.\\]":7317,"Cont":7318,"Nr":7319,"\\}}-\\":7320,"hb":7321,"Ġtri":7322,"led":7323,"}]}|":7324,"})^{|":7325,"ĠSta":7326,"5000":7327,"TW":7328,"cg":7329,"qd":7330,"vE":7331,"^{+\\":7332,")|)":7333,"ĠPo":7334,"})))=":7335,"Ġ76":7336,"\\({}^{\\":7337,"]_{(":7338,"racle":7339,")\\),":7340,"}]:\\":7341,"Ġess":7342,"ĠHS":7343,")_{|\\":7344,")],":7345,"264":7346,"kv":7347,"_{*})=":7348,"Ġindependent":7349,"Ġconver":7350,"finition":7351,"Corr":7352,"Alt":7353,"jd":7354,"}|\\|":7355,"ĠOrder":7356,",>":7357,"Dx":7358,"Obj":7359,"PSh":7360,"mz":7361,"})\\{":7362,"Ġ113":7363,"^{+}+\\":7364,"]+[\\":7365,"FI":7366,"}\\}}{\\":7367,"man":7368,"}^{+})}\\":7369,"155":7370,"''":7371,"8998":7372,"}\\}).\\]":7373,"})\\}^{":7374,"}|)+":7375,"}\\,{}^{\\":7376,"}}_{{\\":7377,"ĠTV":7378,"})||^{":7379,"Ġ52":7380,"Ġcoefficient":7381,"|+(":7382,"Ġ))^{":7383,"Ġ&(\\":7384,"}\\|}{\\|":7385,"Ġhe":7386,"{\\{}\\|\\":7387,"*}_{\\":7388,"yw":7389,"})}^":7390,"Ġ=&-\\":7391,"ĠValue":7392,"checkmark":7393,"184":7394,"tS":7395,"Ġ}}{(":7396,"}_{-}^{\\":7397,"conj":7398,"Ġadj":7399,";-\\":7400,"Sta":7401,"Str":7402,"WE":7403,"{)}:=\\":7404,"}]&\\":7405,"{]}\\,,\\]":7406,"1100":7407,"}=((\\":7408,"176":7409,"stiff":7410,"rN":7411,"Ġli":7412,"}^{-}}{":7413,"Ġ\\[=[\\":7414,"SAT":7415,"Bar":7416,"GK":7417,"_{.":7418,"^{-})":7419,"Den":7420,"}})=-\\":7421,")((\\":7422,"169":7423,"}_{+})}\\":7424,"Ġdiam":7425,"Ġroot":7426,"028":7427,"FA":7428,"sN":7429,"|),\\":7430,"Ġga":7431,"Ġend":7432,"Ġ}}|":7433,"}))\\,.\\]":7434,"eration":7435,"Ġdd":7436,"ĠRate":7437,"143":7438,"vertices":7439,".}}{{\\":7440,"my":7441,"}}})^{\\":7442,"}{}":7443,"}}_{=":7444,"The":7445,"232":7446,")\\!=\\!":7447,"Td":7448,"]}}(":7449,"Ġcan":7450,"erations":7451,"159":7452,"omeo":7453,"]\\!]_{":7454,"Dir":7455,"Sz":7456,"}}}}(\\":7457,"}^{*}\\,":7458,"}\\|)\\":7459,":=\\!\\":7460,"}))/\\":7461,"ency":7462,"OS":7463,"QA":7464,"})}}{{\\":7465,"}}(\\{\\":7466,"}\\|}":7467,"ĠIV":7468,")\\,=\\":7469,")])\\]":7470,",-}^{":7471,"{{}_{":7472,"}}^{*},":7473,"tharpoons":7474,"{:}\\":7475,"VV":7476,"cj":7477,"^{+},\\]":7478,"223":7479,"10000":7480,"Ġcor":7481,"00000000":7482,"899849":7483,"Inn":7484,"\\}^{-":7485,"Ġca":7486,"_{+\\":7487,"{)}=-":7488,"\\||\\":7489,"})):":7490,"Tri":7491,"WW":7492,"py":7493,"tY":7494,"Ġquad":7495,"rat":7496,"}{**":7497,"})_{[":7498,":=[":7499,")&=-\\":7500,"Attn":7501,",..,":7502,"hn":7503,"mC":7504,"Ġprod":7505,"}}}>":7506,"}})}=":7507,"}&*":7508,"}&...&":7509,"}:=\\|\\":7510,"Ġnorm":7511,"$}}}{\\":7512,"864":7513,"GSp":7514,"Lt":7515,"jN":7516,"{+}\\":7517,")),(":7518,"ĠdS":7519,"ĠMax":7520,"233":7521,"Ġimplies":7522,"nw":7523,"}}\\}":7524,"variant":7525,"_{*}|^{":7526,"ĠVol":7527,"}}=|\\":7528,"bias":7529,")}}[":7530,"alt":7531,"}|+(":7532,"\\|[\\":7533,"030":7534,"EB":7535,"clip":7536,"short":7537,"[\\!\\":7538,"}}).\\":7539,"$}(":7540,"dJ":7541,"rightlef":7542,"\\|+\\|\\":7543,"unc":7544,"}}|=\\":7545,"Nc":7546,"iM":7547,"tP":7548,"})})=":7549,"Ġsmall":7550,"}:\\;\\":7551,"Ġ\\(\\|\\":7552,"rightleftharpoons":7553,";|":7554,"}))|^{":7555,"ĠCk":7556,"^{(-\\":7557,"})=\\|":7558,")([":7559,"Ġstep":7560,"}\\|\\,\\":7561,";\\;\\;\\;\\":7562,"iance":7563,"Bv":7564,"CX":7565,"kB":7566,")-[":7567,"}}),\\\\":7568,")};\\]":7569,"}^{+}}\\]":7570,"Ġ51":7571,"\\%)":7572,"\\}|=":7573,"|}^{\\":7574,"})}:\\":7575,"Ġ01":7576,"Ġclass":7577,"Ġperi":7578,"Ġequivalent":7579,"GT":7580,"gra":7581,"ong":7582,"}^{!":7583,"}})}+\\":7584,"uniformly":7585,"-}(\\":7586,"Ġ]_{":7587,"Bigm":7588,"}\\,+\\":7589,"Ġ\\[=\\,\\":7590,"_{+}.\\]":7591,"})))=\\":7592,"}{*}{\\(\\":7593,"Ġdoes":7594,"ĠModel":7595,"Fit":7596,"],\\,\\":7597,"]\\,,\\":7598,"xh":7599,"Ġss":7600,"{)}/\\":7601,"})+|\\":7602,"emb":7603,"336":7604,"club":7605,"MB":7606,"uy":7607,"})})=\\":7608,"Ġ120":7609,")}]=":7610,"Sat":7611,"})}=(":7612,"mean":7613,"{)}/":7614,"326":7615,"Ag":7616,"]\\|\\":7617,"age":7618,"Ġ}^{*}\\":7619,"}}=:":7620,"))^{(":7621,"189":7622,"|\\,|":7623,"Ġdefined":7624,"Ġmany":7625,"Range":7626,"Ġtwo":7627,"dig":7628,"Ġright":7629,"^{=":7630,"}|=(":7631,"ĠDf":7632,",\\,(\\":7633,"value":7634,"&...&":7635,"FB":7636,"^{-{\\":7637,")]}{\\":7638,"vial":7639,"!-\\!":7640,"VI":7641,"nI":7642,"Ġtrue":7643,"{)}\\!\\":7644,"clubsuit":7645,"Star":7646,"WD":7647,"}\\{|\\":7648,"quence":7649,"^{-}-":7650,")},...,":7651,"||(":7652,"Ġ77":7653,"rT":7654,"ual":7655,"Ġapp":7656,"^{*})}":7657,"\\,=\\":7658,"*}\\]":7659,"AL":7660,"net":7661,"work":7662,"sure":7663,"orel":7664,"{\\{}\\{":7665,"TQ":7666,"UT":7667,"]))\\":7668,"cusp":7669,"odic":7670,"}}],":7671,"}\\,{}_{":7672,"\\,)\\":7673,"{|}-\\":7674,"geom":7675,")}([":7676,"})+{\\":7677,"Red":7678,"axi":7679,"ui":7680,"}\\}]\\]":7681,"&&&\\":7682,",+}^{":7683,"45276":7684,"\\}}-":7685,"Ġ})}{\\":7686,"})}(-":7687,"}}}}.\\]":7688,"sis":7689,"}&:=":7690,"ĠMSE":7691,"LIS":7692,"QS":7693,"uh":7694,"})}},\\]":7695,"Ġ\\[-(\\":7696,"^{*})\\|_{":7697,"Ġ((\\":7698,"Ġbi":7699,"148":7700,"035":7701,"332":7702,"Ac":7703,"Mv":7704,"]}}{\\":7705,"]\\|_{\\":7706,"Ġ)/":7707,"^{-})\\]":7708,"}\\,[\\":7709,"),\\|\\":7710,"ĠEq":7711,"Ġ(\\%)":7712,",-)\\":7713,",+}_{":7714,".(\\":7715,"TB":7716,"bad":7717,"qj":7718,"}({}^{":7719,"=\\{(\\":7720,"Ġxx":7721,"}),{\\":7722,"};[":7723,"164":7724,"{{}^{":7725,")!}{\\":7726,"Ġ79":7727,"Ġ&=&":7728,"845276":7729,"If":7730,"]))\\]":7731,"iK":7732,"}|}=":7733,"ĠTotal":7734,"_{*}|\\":7735,"};(\\":7736,"248":7737,"Val":7738,"vr":7739,"|)}{":7740,"index":7741,"ĠML":7742,")!!":7743,"SK":7744,"!\\,\\":7745,")}]^{":7746,"=&":7747,"clo":7748,"coherent":7749,"}&|":7750,"\\!(":7751,"}}&(":7752,"280":7753,"})^{*}=":7754,"#}":7755,"nD":7756,"{(}-(":7757,"pg":7758,"ĠCs":7759,"}/|":7760,"})-{\\":7761,"Ġ+|\\":7762,"Ġ53":7763,"Ġtotal":7764,"PCA":7765,"QQ":7766,"|[\\":7767,"_{;":7768,"Ġ67":7769,"{,}\\\\":7770,"$,}\\]":7771,"Ġdimension":7772,"Ġspe":7773,":\\|\\":7774,"FX":7775,"fs":7776,"vy":7777,"vz":7778,"ated":7779,"\\|)^{":7780,"ĠdA":7781,"Ġeigen":7782,"Ġrs":7783,"&\\,\\":7784,"ĠUn":7785,"}\\;(\\":7786,"Ġ85":7787,"GO":7788,"}}}\\,,\\]":7789,"}\\|-\\":7790,"_{*})(":7791,"}_{+}}(":7792,"})\\,{\\":7793,"Ġ59":7794,"}))]\\":7795,"lue":7796,"nobreak":7797,"}\\#_{":7798,"Ġpart":7799,"$})\\":7800,"Ġkt":7801,"\\[\\|[\\":7802,"Ġgr":7803,"\\[[\\![":7804,"Ġ\\,{\\":7805,"Si":7806,"aut":7807,"|},":7808,"Ġrel":7809,"}))]":7810,"gative":7811,"ĠMat":7812,"^{+}}{":7813,"165":7814,"$};\\\\":7815,"Fe":7816,"ith":7817,"yf":7818,"Ġ}^{(\\":7819,"{\\}}\\,,\\]":7820,"bigstar":7821,"}}+{\\":7822,"Ġgroup":7823,"}}[|":7824,"ness":7825,"886":7826,")}]=\\":7827,"Hg":7828,"\\}\\,,\\":7829,"kij":7830,"Ġve":7831,"Ġfree":7832,",{}^{":7833,".}\\\\":7834,"wy":7835,"}}}<":7836,"}}\\,\\,":7837,"ĠCa":7838,"redu":7839,"ĠBC":7840,"})-|":7841,"}})\\|_{\\":7842,"Ġ68":7843,"}})\\,,\\]":7844,"ectively":7845,"Gen":7846,"Mn":7847,"QH":7848,"hj":7849,"point":7850,"tV":7851,"phys":7852,"^{-}\\]":7853,"))}+\\|":7854,"})=:":7855,")|}{(":7856,"ccccccccc":7857,"peri":7858,"Mu":7859,"Ġlow":7860,"}+((":7861,"ery":7862,"}^{-}.\\]":7863,"\\|_{{\\":7864,"}^{*}[\\":7865,"),...,\\":7866,"iter":7867,"}]-[\\":7868,"Hy":7869,"nsubseteq":7870,"Ġsubset":7871,"^{*})}{\\":7872,"Ġtest":7873,"}})),\\]":7874,"157":7875,"]=(\\":7876,"Ġ63":7877,"+_{":7878,"IO":7879,"\\})}\\":7880,"qy":7881,"{\\}}\\,":7882,"Ġ&+(":7883,"Ġblock":7884,"Ġmethod":7885,")}}}{\\":7886,"Hu":7887,"IA":7888,"]}}{":7889,"}}^{[\\":7890,"ĠCK":7891,"dtd":7892,"Ġ73":7893,"368":7894,"supsetneq":7895,")\\;=\\;":7896,"ion":7897,"kH":7898,"lev":7899,"arm":7900,"exact":7901,"ĠCH":7902,"}^{*}&\\":7903,"})^{|\\":7904,")},\\,\\":7905,"257":7906,"Ġ84":7907,")=-(\\":7908,"xb":7909,"Ġcu":7910,"ust":7911,"{)}\\;":7912,"ĠDF":7913,"}_{+}=\\":7914,"208":7915,"}}]-\\":7916,"cM":7917,"Ġ)}+\\":7918,"ĠType":7919,"_{*})-":7920,"):(\\":7921,"env":7922,"}},\\{":7923,"))\\;":7924,"lete":7925,"215":7926,"Ġ89":7927,"})_{+}^{":7928,"TY":7929,"^{-}=":7930,"coev":7931,":=\\,":7932,")]}":7933,")]=[":7934,"Ġ74":7935,"}<...<":7936,"TE":7937,"bX":7938,"Ġ]}\\":7939,")}\\!\\":7940,"cess":7941,"})<+\\":7942,")^{+}":7943,"}|+|\\{":7944,"Ġmini":7945,"\\|}{\\|":7946,"}\\||":7947,"<\\,\\":7948,"Ġindex":7949,"Ġ62":7950,"048":7951,"JS":7952,"])-\\":7953,"iP":7954,"vc":7955,"Ġsubject":7956,"{\\}}.\\":7957,")+[\\":7958,"Ġkx":7959,"ĠSE":7960,"Ġloss":7961,"Uf":7962,"]}:=\\":7963,")):=":7964,"}\\,_{\\":7965,"}^{\\#}\\":7966,"scription":7967,"!}\\,\\":7968,"Hod":7969,"\\}(\\":7970,"^{!}":7971,"ĠTx":7972,"}^{+})=":7973,"}),[":7974,"try":7975,")}}\\\\":7976,"_{=":7977,"}))}(":7978,"}))+(":7979,"^{-}+":7980,"Ġnew":7981,"}[]":7982,"ĠExp":7983,"}(-(":7984,"154":7985,"))-(\\":7986,"|<|":7987,"YM":7988,"Ġoperator":7989,"Ġ)}_{":7990,"Ġ}}\\,\\":7991,"|\\|_{":7992,")=(-\\":7993,"}]|":7994,"{=}\\":7995,"FPdim":7996,"MG":7997,"yu":7998,"_{!}(":7999,")}_{(\\":8000,"Ġ88":8001,"Graph":8002,"Ju":8003,"Ku":8004,"]_{-":8005,"lx":8006,"mT":8007,")\\{\\":8008,")|(\\":8009,"dtds":8010,"ĠCov":8011,"asicoherent":8012,"{{*}}{{\\":8013,"-},":8014,"Et":8015,"Ġunder":8016,"mag":8017,"unt":8018,"}),-\\":8019,"139":8020,"Ġ69":8021,"\\![":8022,"365":8023,"Soc":8024,"UR":8025,"]^{-\\":8026,"]]_{":8027,"},..,":8028,"\\|_{*}^{":8029,"))}+\\|\\":8030,"}&&&\\\\":8031,"198":8032,"Ġnode":8033,"]}\\,\\":8034,"}_{(-\\":8035,"}:&":8036,"})=\\\\":8037,"}&{\\":8038,"153":8039,")\\|<\\":8040,")}}}{":8041,",}":8042,"Chi":8043,"Homeo":8044,"LK":8045,"}}}+\\|":8046,"bigtimes":8047,"}}{=}":8048,"Ġii":8049,"}}=:\\":8050,"Ġweight":8051,"Adj":8052,"lassi":8053,"Free":8054,"tI":8055,"Ġ})(\\":8056,"}}]+":8057,"last":8058,"))\\|":8059,"Ġwt":8060,"}})=\\{":8061,"Ġrepre":8062,"\\}})\\":8063,"mer":8064,"})=-(":8065,"_{-}}^{":8066,"}^{+})^{\\":8067,"Ġrot":8068,"})|(":8069,"}))&\\":8070,"Ġ82":8071,"Loss":8072,"Adm":8073,"Ġrand":8074,"AZ":8075,"KB":8076,"glo":8077,"iD":8078,"Ġ&=(\\":8079,"^{*}}}{":8080,"}_{+}}\\]":8081,"}:={\\":8082,"!},\\":8083,"Tz":8084,"bcd":8085,"Ġpi":8086,"}\\{-":8087,"Ġsample":8088,"^{+}|^{":8089,"base":8090,")]\\!":8091,"/{\\":8092,"}{[\\":8093,")\\(\\":8094,"\\{[\\":8095,"]\\;":8096,"}}+(-":8097,"}}|+":8098,"}*}\\":8099,"because":8100,"Ġelements":8101,"LMod":8102,"Ph":8103,"Spa":8104,")}=[":8105,"195":8106,"Ġ:=(\\":8107,"Ln":8108,"Ġrow":8109,"ratic":8110,"\\|_{(\\":8111,"}\\,;":8112,"}\\,-\\,\\":8113,"ings":8114,"358":8115,"}}}{{=}}(":8116,"Ġparti":8117,"Ġmeasure":8118,"!\\{":8119,"Hx":8120,"])(":8121,"ill":8122,"qv":8123,"+\\{":8124,"Ġpower":8125,"328":8126,"Rank":8127,"LN":8128,"Lim":8129,"RX":8130,"])}^{":8131,"nC":8132,"|)=\\":8133,")\\|}\\":8134,"}{\\(\\":8135,"}|}-\\":8136,"^{*}}}":8137,"}]{\\":8138,"};\\,\\,":8139,"}}\\,|\\,":8140,"158":8141,")]\\,\\":8142,"ture":8143,"}}^{+}\\]":8144,"323":8145,"ET":8146,"dro":8147,"iX":8148,"}}}:":8149,"^{*}[\\":8150,"166":8151,"})^{*}=\\":8152,"040":8153,"zero":8154,"}\\,/":8155,"0010":8156,"}^{+}}{":8157,"cycle":8158,"blacktriangle":8159,"hw":8160,"ndard":8161,"lic":8162,"{{}^{\\":8163,"digamma":8164,"])}\\]":8165,"lct":8166,"whi":8167,"Ġ)).\\]":8168,"})&-":8169,"}^{*}=(\\":8170,")|}.\\]":8171,"}^{+,\\":8172,"constant":8173,"026":8174,"succsim":8175,")_{+}":8176,"DU":8177,"ied":8178,"kM":8179,"real":8180,"_{+}}{\\":8181,"}\\!\\!\\!":8182,"Maps":8183,"Link":8184,"Ġboundary":8185,"FN":8186,"]-(":8187,"}\\{\\|":8188,"})\\},\\":8189,"}])+\\":8190,"}^{*}/\\":8191,"Ġabs":8192,"}\\|)\\]":8193,"Ġ\\(>":8194,"_{*}}{\\":8195,"\\,\\{":8196,"^{+}}(\\":8197,"dydz":8198,"}<_{":8199,")})|\\":8200,"Eis":8201,"Ġnd":8202,"}]|^{":8203,"trict":8204,"ĠCI":8205,"Ġtn":8206,"Ġstr":8207,"})|>\\":8208,"Ġ61":8209,"tional":8210,"Spd":8211,"})\\|_":8212,"Ġequation":8213,"Eff":8214,")|,|":8215,"})+\\|\\":8216,"eighbo":8217,"{:}":8218,"Ġ}))\\]":8219,"}(\\,":8220,"Ġ\\[+|":8221,"\\,\\,\\,":8222,"Ġyes":8223,"&&&":8224,"FV":8225,"Lemma":8226,"qT":8227,"{}^{*}\\":8228,"}^{+}:=\\":8229,"Ġmap":8230,".}}":8231,"Tail":8232,"inst":8233,"date":8234,"})\\|.\\]":8235,")))-\\":8236,"cial":8237,"ĠSt":8238,")}(-\\":8239,"})|-|":8240,")}||\\":8241,"niform":8242,"orphic":8243,"CU":8244,"Do":8245,"xd":8246,"}\\}}|":8247,"timal":8248,"target":8249,"Ġ}<\\":8250,"Ġ=-(\\":8251,"_{*};":8252,"{\\|}|\\":8253,"178":8254,"Ġ71":8255,"Ġboth":8256,"Card":8257,"fc":8258,"Ġline":8259,"Ġvertices":8260,"_{|_{":8261,"}|\\}\\":8262,"Ġdq":8263,"}}{(|":8264,"560":8265,"\\}|.\\]":8266,"iJ":8267,"nP":8268,"xr":8269,"Ġ})}":8270,"Ġhom":8271,"sumption":8272,"^{*}]\\":8273,"{(}\\!\\":8274,"=-(\\":8275,"})]\\\\":8276,"331":8277,"Ġother":8278,")}}\\|":8279,"\\&":8280,"\\}]\\":8281,"qN":8282,"local":8283,"Ġ&\\\\":8284,"verse":8285,"}^{(-\\":8286,")}{}^{\\":8287,"Ġcc":8288,"_{-,\\":8289,"\\[\\||\\":8290,"}_{*},":8291,"\\%**":8292,"XP":8293,"]]=":8294,")\\}}":8295,")}\\{\\":8296,"}}^{{}^{\\":8297,"}:&\\":8298,")^{\\#":8299,"ĠAC":8300,"step":8301,"dyd":8302,"\\#_{":8303,"}+...+\\":8304,"kew":8305,"DK":8306,"Ev":8307,"RI":8308,"Tm":8309,"\\}})\\]":8310,"qi":8311,"Ġ^{+":8312,"}|}{(":8313,"}}\\,,":8314,")},\\;":8315,")}=\\{\\":8316,"*,":8317,"}\\}\\,,\\]":8318,"}^{*}}=\\":8319,"}\\,\\|\\,\\":8320,"194":8321,"197":8322,"cell":8323,"ccu":8324,"iF":8325,"xs":8326,"},(-":8327,"})\\}=\\":8328,"),|":8329,"Ġ\\[=-(":8330,"2048":8331,")}))":8332,"sT":8333,"see":8334,"}}|+\\":8335,")>(":8336,")\\!,\\]":8337,"\\,(\\,":8338,"MLE":8339,"GB":8340,"\\}})":8341,"]}\\,":8342,"}|)^{-":8343,"Ġbut":8344,"}*|\\":8345,"Sy":8346,"Xu":8347,"\\}]\\]":8348,"joint":8349,"kQ":8350,"}\\}}(\\":8351,"})]}\\":8352,"})[-":8353,"open":8354,")}\\}.\\]":8355,"^{*}]":8356,"}^{*})}{":8357,"{)}\\;\\":8358,"ĠSe":8359,"}^{+}|^{":8360,"_{+}\\|_{":8361,"Ġhigh":8362,"}}^{*}-\\":8363,";\\;\\;":8364,"para":8365,"}^{*};\\":8366,"}}|+|":8367,"*)\\":8368,"Cay":8369,"Ff":8370,"\\}}_{":8371,"]\\|":8372,"ber":8373,"}_{{":8374,"}_{\\!":8375,"\\).":8376,"})^{-(":8377,"})\\,,":8378,"Ġ\\[+|\\":8379,"}\\;:\\;":8380,")*(":8381,"Ġsatisfying":8382,"GE":8383,"ĠdR":8384,"Ġobs":8385,"Ġsame":8386,"045":8387,"semi":8388,"_{*})+\\":8389,"Ġbd":8390,"Ġalg":8391,"=(-\\":8392,"KF":8393,"ical":8394,"^{*}})":8395,"]\\,\\]":8396,"_{*})}\\":8397,"Ġpq":8398,"})_{|\\":8399,")^{-}\\":8400,"}(-)\\":8401,")},(":8402,"|)|\\":8403,"}^{*}))\\":8404,"\\,-\\,\\":8405,")}(|":8406,"}^{++":8407,"+||":8408,"}}^{*})\\]":8409,"255":8410,"denti":8411,"\\};":8412,"corr":8413,"}]),\\":8414,"{)}\\!":8415,"lessapprox":8416,"968":8417,"})=:\\":8418,")|&\\":8419,"}[\\,\\":8420,"})\\,:\\,\\":8421,"\\[=(-":8422,"))}\\,\\":8423,"900":8424,"=+\\":8425,"JN":8426,"}|),\\]":8427,"}})^{(":8428,"Ġ87":8429,"304":8430,"})}=\\|\\":8431,"Ġdivi":8432,"}]\\!]_{":8433,"Ak":8434,"IB":8435,"Kf":8436,"\\}&":8437,"Ġ)}}\\":8438,"{\\}}+":8439,"Dec":8440,"_{-})^{":8441,"Ġ$(\\":8442,")}=(-":8443,"346":8444,"Ġlay":8445,"315":8446,"420":8447,"ER":8448,"Sur":8449,"ctr":8450,"fy":8451,"rA":8452,"}({}_{":8453,"}}\\},\\":8454,")}{[":8455,"^{++":8456,"PO":8457,"exc":8458,"|^{|\\":8459,"^{*}{\\":8460,"}])^{\\":8461,"}^{*})(\\":8462,")}}_{\\":8463,"]\\},\\]":8464,"})).\\":8465,")\\|+\\":8466,"})):=\\":8467,"})\\}_{\\":8468,"^{*}}|":8469,")))-":8470,"Ġ\\(+":8471,"228":8472,"}_{*}\\]":8473,"},\\,|":8474,"Ġ83":8475,"}}](\\":8476,"XYZ":8477,"}!}\\]":8478,"!}}\\":8479,":,\\":8480,"Find":8481,"aT":8482,"|})\\":8483,"}}{||":8484,"\\|,":8485,")),&\\":8486,")|:":8487,")})=(":8488,":&\\":8489,"Error":8490,"find":8491,"ham":8492,"}}])\\":8493,"law":8494,"}])}\\":8495,"Ġih":8496,"}^{+}}{\\":8497,"}^{+})_{":8498,",\\,|\\":8499,",+}":8500,"784":8501,"Nu":8502,"sL":8503,"inition":8504,")\\})\\]":8505,"}|||":8506,"null":8507,"Ġ}>":8508,"cay":8509,"}),...,\\":8510,"^{*}\\!":8511,"}>_{":8512,"}<(\\":8513,"^{\\#}\\":8514,"Ġfunctions":8515,"Ġstate":8516,"]}}\\]":8517,"gm":8518,"qf":8519,"|\\}\\]":8520,"Ġ}/\\":8521,"ĠLie":8522,"Ġce":8523,"^{*}((":8524,"cons":8525,"leftharpoonup":8526,"}}:(\\":8527,"!}=":8528,"wa":8529,"\\,+":8530,"Ġtx":8531,"})}\\}\\]":8532,"Ġ\\,(\\":8533,"//":8534,"ties":8535,"\\|)\\]":8536,"ĠSH":8537,"185":8538,"Ġsince":8539,"$}\\}.\\]":8540,"urs":8541,"}}})_{":8542,"})\\}=":8543,"{)}},\\]":8544,"}]}^{\\":8545,"{\\{}{\\":8546,")}=\\|\\":8547,"blacklozenge":8548,"radient":8549,"Cp":8550,"Ġ}}}":8551,")^{(|":8552,"rol":8553,")),&":8554,"cible":8555,"}}])\\]":8556,"trans":8557,"Ġsystem":8558,"cR":8559,"hm":8560,"kf":8561,"{[(":8562,")}+|":8563,"276":8564,"arctanh":8565,"({}^{\\":8566,"RU":8567,"TG":8568,"cH":8569,"Ġ]^{":8570,"Ġcurve":8571,"inn":8572,"}})}{(":8573,"proxi":8574,"):=\\|":8575,"161":8576,"252":8577,"\\({}_{\\":8578,"mR":8579,"rcll":8580,")+\\\\":8581,"ĠNA":8582,"}}-|":8583,")]\\,":8584,"149":8585,"2011":8586,"|||_{":8587,")!\\]":8588,"}):(\\":8589,")$}.\\]":8590,"-\\]":8591,"finite":8592,"|}\\|":8593,"tol":8594,"}]>":8595,"}]},":8596,"{|}>":8597,"Bs":8598,"]})=":8599,"tE":8600,"}))|\\]":8601,"});\\\\":8602,"\\|_{-":8603,"Ġ}})\\]":8604,"bulk":8605,"})(|":8606,")}_{[":8607,"||}":8608,"188":8609,"_{\\_}":8610,"Nq":8611,"src":8612,"}\\}:":8613,"}}}]\\":8614,"amil":8615,"}])_{":8616,"_{((":8617,")})|":8618,"tJ":8619,"Ġ})_{\\":8620,"Ġ}+\\|\\":8621,"}})-(":8622,"0011":8623,"}=({\\":8624,")})\\|^{":8625,"995":8626,")^{*}(\\":8627,"&+":8628,"Mp":8629,"fb":8630,"oin":8631,"ron":8632,"rough":8633,"ĠGen":8634,"flow":8635,"Ġ400":8636,"220":8637,"}}^{-}":8638,"367":8639,"Ġsec":8640,"Ed":8641,"Fa":8642,";\\{":8643,"Ġfirst":8644,"ĠSM":8645,"{[}[":8646,"{|}\\{":8647,")]}(":8648,"Ġ\\[+\\|":8649,"Ġ\\[+(-":8650,")<-":8651,"945":8652,"Up":8653,"gB":8654,"|=(":8655,"})),\\\\":8656,"))}^{\\":8657,"}\\|[":8658,"Ġdg":8659,"luster":8660,"}^{+};\\":8661,"268":8662,"ĠProposition":8663,"033":8664,"Ry":8665,"US":8666,"\\}),\\":8667,"irc":8668,"Ġ|_{\\":8669,"}))-(":8670,"}(\\!(":8671,"ĠCx":8672,"sson":8673,"}))\\}\\]":8674,"}\\!(":8675,"Ġ}}|\\":8676,"vartriangleleft":8677,"}{\\#\\":8678,"}|}^{":8679,"^{*}})\\]":8680,"Ġ{+}\\":8681,"Ġnm":8682,"Ġnet":8683,"Ġneighbo":8684,"})({\\":8685,"{\\|(":8686,"}:=|":8687,"187":8688,"347":8689,"}$}.\\":8690,"Ġ86":8691,"IL":8692,"xA":8693,"}^{-})=\\":8694,"}\\,(-":8695,"Ġdvol":8696,"ĠNR":8697,")}^{(\\":8698,"))}\\|\\":8699,")*_{":8700,"GN":8701,"]].\\]":8702,"uj":8703,"lect":8704,"Ġ\\!\\!\\":8705,"(\\!":8706,"}=[(":8707,"}}{-\\":8708,"{)},&\\":8709,"Ġideal":8710,"}\\|\\\\":8711,",-}_{":8712,"}.(":8713,"Ġ*&":8714,"Path":8715,"[(-":8716,")\\}_{\\":8717,"}^{\\{\\":8718,"Ġ142":8719,"))+(\\":8720,"}})^{*}":8721,"ĠAs":8722,"Ġzero":8723,"Ġ300":8724,"}:=|\\":8725,"177":8726,"PSH":8727,")})\\,":8728,")}|_{\\":8729,"FW":8730,"Fy":8731,"ange":8732,"Ġdn":8733,"405":8734,"BX":8735,"_{\\{(":8736,"),\\{":8737,"Ġns":8738,"Ġ_{[":8739,"Ġste":8740,"_{*}\\,\\":8741,",-},\\":8742,"568":8743,"}}^{+}}\\":8744,"Ġinterval":8745,":_{":8746,"WAW":8747,"tT":8748,"})}),\\]":8749,"^{*}\\)":8750,"}]},\\]":8751,"}})_{(":8752,"ĠNN":8753,"}_{+};\\":8754,"247":8755,"}):=-\\":8756,"ĠDefinition":8757,"\\}}\\,":8758,"xD":8759,"yv":8760,"})}}{(":8761,"}_{,\\":8762,")=\\{(\\":8763,"pred":8764,"}+\\|(\\":8765,"344":8766,")}||":8767,"!|\\!|":8768,"Nb":8769,"{)}^{*}\\":8770,")))^{\\":8771,"boxdot":8772,",-}/\\":8773,"204":8774,"\\!{\\":8775,"645":8776,"Ġ**-":8777,"4999":8778,"))}\\,":8779,"ECH":8780,"tF":8781,"}=||":8782,"}\\,;\\]":8783,"))\\.\\]":8784,"):=|":8785,"170":8786,"Ġsequence":8787,"}|\\,.\\]":8788,"!|\\":8789,")_{*}":8790,"435":8791,"<(\\":8792,"LH":8793,"aA":8794,"}_{:,":8795,"\\|_{*}\\":8796,")&=-":8797,"029":8798,"Ġdisc":8799,"Ġequivalently":8800,"Ġrandom":8801,":\\]":8802,"ward":8803,"}\\}|\\]":8804,"mat":8805,"})\\,\\,\\":8806,"}})]":8807,"unlhd":8808,"^{+})^{\\":8809,"):=[":8810,"Prop":8811,"icro":8812,"750":8813,"})<(":8814,"'s":8815,"ada":8816,"}]\\,,\\]":8817,"}\\,\\}\\]":8818,"})+\\|":8819,"}}|>":8820,"Ġpolynomial":8821,"<\\,":8822,"{\\}}-\\":8823,"riz":8824,"Ġcs":8825,"Ġcent":8826,"}^{+}}^{":8827,"}))>\\":8828,"istic":8829,"IJK":8830,"Cyc":8831,"Riem":8832,"^{*,\\":8833,"}}+\\|(":8834,"{]},\\\\":8835,"ĠQu":8836,")!}=\\":8837,",&|":8838,"Bz":8839,"KE":8840,"].":8841,"])^{-":8842,"iC":8843,"nV":8844,"vdx":8845,"})))^{":8846,"pitch":8847,"lid":8848,"ore":8849,"rem":8850,"{]}}{":8851,"fork":8852,"}))\\|^{":8853,"174":8854,"})&-\\":8855,"hA":8856,"mdim":8857,"}))}=":8858,"bound":8859,"}\\|_{[":8860,")^{-(\\":8861,"stat":8862,")]}\\]":8863,"upalpha":8864,"267":8865,"}_{\\#}(":8866,".)\\":8867,"BZ":8868,"DO":8869,"pN":8870,"Ġsplit":8871,"Ġ}}\\,":8872,"}=\\{[":8873,"}}))_{":8874,"}_{+}-\\":8875,"0005":8876,"ME":8877,"NV":8878,"eth":8879,"nsity":8880,"|)\\,\\":8881,"Ġ}}\\|":8882,"})})^{\\":8883,"})}_{(":8884,"&\\,":8885,"}]}\\|":8886,"}^{-}}(":8887,"gene":8888,"ijm":8889,"ĠBS":8890,"}},|":8891,"})|}":8892,")>-\\":8893,"308":8894,"038":8895,"608":8896,"Ġ{*}(\\":8897,"032":8898,"\\}|+|\\{":8899,"Ġerr":8900,"\\[*":8901,"prior":8902,"erv":8903,"hocolim":8904,"{)}:\\":8905,"}]\\|_{\\":8906,"ĠBorel":8907,"163":8908,"237":8909,"190":8910,"Ġtrans":8911,"gz":8912,"}\\},&\\":8913,"(\\#\\":8914,"{)}{\\":8915,"}}):=":8916,"Ġkl":8917,"Ġ:=\\{(":8918,"syn":8919,"pitchfork":8920,"Kd":8921,"Ġ}}}{":8922,"tim":8923,"}{\\#":8924,"205":8925,")\\!+\\!":8926,"?\\]":8927,"Opt":8928,"hc":8929,"Ġcap":8930,"{\\}}^{\\":8931,"}}}.\\":8932,"218":8933,")!)^{":8934,"{=}":8935,"348":8936,"})])\\]":8937,")^{*}.\\]":8938,"4096":8939,"JH":8940,"JW":8941,"\\}/\\":8942,"]}(-":8943,"seq":8944,"}(:,":8945,"}))}+\\":8946,"}\\|,\\|":8947,"Ġ={\\":8948,"Ġkn":8949,"ĠSing":8950,"217":8951,"Ġnoise":8952,"Ġlaw":8953,"aussian":8954,"-})\\":8955,"Time":8956,"XB":8957,"ference":8958,"rK":8959,"vp":8960,"|)=":8961,"}\\}.\\":8962,"})*(":8963,"}|^{(":8964,"):[":8965,"179":8966,"Dz":8967,"}^{*}}}\\":8968,"}^{*}>":8969,"Ġtf":8970,"}\\|_{-":8971,"}^{+},\\\\":8972,"ĠRS":8973,")!}(":8974,"\\[[\\![\\":8975,"(+":8976,"Dr":8977,"Iu":8978,"]&=\\":8979,"bib":8980,"yb":8981,"lection":8982,"{)}[":8983,"Ġ{{\\":8984,")))+":8985,"}\\,;\\,":8986,"Ġass":8987,")}{-\\":8988,"_{+})}\\":8989,"^{+})=\\":8990,"})\\,,\\\\":8991,"186":8992,"Ġexact":8993,"Qf":8994,"block":8995,"}=[-":8996,"}:-":8997,"{]}}\\":8998,"219":8999,")}-(\\":9000,"tivity":9001,".)":9002,"])=[":9003,"za":9004,"Ġtor":9005,"\\[\\{|":9006,"^{*}\\,\\":9007,"ĠSC":9008,"ĠTest":9009,"}}{((":9010,"037":9011,"Lr":9012,"]_":9013,"kC":9014,"vd":9015,"xF":9016,"=\\!\\!\\":9017,"})=((":9018,"+(|":9019,"Ġini":9020,"isH":9021,")}}|\\":9022,"--":9023,"Ao":9024,"PN":9025,"ive":9026,"zg":9027,"|)-":9028,"Ġia":9029,"}/|\\":9030,"))\\}.\\]":9031,"ĠMin":9032,"_{+}}^{":9033,"338":9034,"isk":9035,"789":9036,"ĠConv":9037,"TND":9038,"Ham":9039,"weight":9040,"zh":9041,"alf":9042,"\\[\\{{\\":9043,"))}}\\":9044,"Ġie":9045,"Ġfull":9046,")|)\\]":9047,"^{*}\\}\\]":9048,"})\\,|":9049,"})\\,(\\":9050,"238":9051,"],&\\":9052,"})]}{\\":9053,"*}^{\\":9054,")({\\":9055,"equality":9056,")\\,\\|":9057,"Ġob":9058,"Ġ+&\\":9059,"244":9060,"151":9061,"})|\\\\":9062,"Ġ|(":9063,"Ġconstraint":9064,"Fitt":9065,"bibref":9066,")}}}":9067,">_{\\":9068,"BPS":9069,"\\},&":9070,"xP":9071,"})},\\\\":9072,"{)}:":9073,"coeff":9074,"}\\,;\\":9075,"Ġ}<":9076,"_{*},\\]":9077,"})|^{-":9078,"))}\\\\":9079,")}}{\\|":9080,"Ġsuff":9081,")_{+}\\]":9082,"Ġdistribution":9083,"$}}{\\":9084,"&[":9085,"8110":9086,"]}}(\\":9087,"Ġlower":9088,"^{*}}\\|":9089,"\\|(-\\":9090,"Ġpla":9091,"_{+}[":9092,"\\}\\{":9093,"\\}\\,\\]":9094,"gence":9095,"}}\\!\\!\\!\\":9096,"296":9097,"iS":9098,"nB":9099,"}{((":9100,"},*}\\":9101,"})\\;\\;\\":9102,"licit":9103,"^{*})(\\":9104,"\\{+":9105,")}((\\":9106,")|,|\\":9107,"Ġmix":9108,"{\\|}_":9109,"^{+})=":9110,"enc":9111,"Ġtrace":9112,"VM":9113,"iggs":9114,"ins":9115,"|\\}\\":9116,"_{*}[":9117,"}\\|\\!":9118,"}})\\|^{":9119,"258":9120,"JA":9121,"Large":9122,"shift":9123,"yg":9124,"})}({\\":9125,"}}}}^{":9126,"}_{\\{(":9127,"dsd":9128,"number":9129,"pair":9130,"ĠCm":9131,"ĠTN":9132,"_{+},\\]":9133,"\\},\\{\\":9134,"357":9135,"Ġlevel":9136,"Ġsimple":9137,"pL":9138,"tR":9139,"rate":9140,"hold":9141,")}{-":9142,"read":9143,"],\\;":9144,"}]=(\\":9145,"}}[\\|\\":9146,"811024":9147,"ek":9148,"iI":9149,"aly":9150,"}})[\\":9151,"requ":9152,"ĠST":9153,"_{*}}^{\\":9154,"dyn":9155,"Ġredu":9156,"448":9157,"Herm":9158,"ding":9159,"hs":9160,"kD":9161,"mM":9162,"|.\\":9163,"})})_{":9164,"}^{*}{\\":9165,"}^{*})\\|_{":9166,"ĠLinear":9167,"}},\\{\\":9168,"ĠNon":9169,"}}}\\}\\]":9170,"]=\\]":9171,"perm":9172,"})^{+}\\]":9173,"})\\}}\\":9174,"att":9175,"^{*-":9176,"}&|\\":9177,"ĠMul":9178,"}^{+}}(\\":9179,"module":9180,"Ġvariables":9181,"Ha":9182,"Nf":9183,"cA":9184,"Ġ})}^{":9185,"racy":9186,"^{-}}^{":9187,"}|)+\\":9188,"{)}}{(":9189,"}]]":9190,"{|},\\":9191,"\\[([\\":9192,"_{*}).\\]":9193,"Ġ\\[=\\{\\":9194,"}}|-":9195,"Gu":9196,"iE":9197,"\\,+\\":9198,"Ġ-|":9199,"...&\\":9200,"\\!\\!\\!":9201,"996":9202,"diagup":9203,"}):\\,":9204,"ĠSpin":9205,"HW":9206,"wd":9207,"}{=":9208,"\\,;\\]":9209,"141":9210,"Ġdec":9211,"Rr":9212,"\\})-":9213,"]}).\\]":9214,"pA":9215,"tM":9216,"}))}=\\":9217,"}_{\\{|\\":9218,"ĠKe":9219,"206":9220,")!},\\]":9221,"Ġthan":9222,"Ġ}}^{(":9223,"priv":9224,"}|]\\":9225,"}}),(\\":9226,"{|}|\\":9227,",\\,{\\":9228,"408":9229,"satisf":9230,"Ġlocal":9231,"Norm":9232,"level":9233,"ape":9234,"chitz":9235,"ĠSub":9236,"_{*}}\\]":9237,"1212":9238,"))}\\|":9239,";\\;\\;\\":9240,"reducible":9241,"Aq":9242,"[-(":9243,"mA":9244,"sample":9245,"})}}=\\":9246,"\\|}.\\]":9247,":=\\;\\":9248,"ste":9249,"}}^{*}=":9250,"})):\\":9251,"):\\,\\":9252,"}}^{+,":9253,"$,}\\":9254,"Ġsupport":9255,"Ġedges":9256,"]}\\|_{":9257,"})...":9258,"}}\\}}\\":9259,"rent":9260,"_{++":9261,"})|}\\]":9262,")\\|(":9263,"049":9264,"Kv":9265,"LW":9266,"|}\\|\\":9267,"}\\};\\]":9268,"})!}\\":9269,"}}}),\\]":9270,"hit":9271,"}^{-})=":9272,"}\\,{}^{":9273,"}})}^{\\":9274,"}})_{*}\\":9275,"{]},":9276,"}^{*}\\}_{":9277,")(\\|":9278,"207":9279,"272":9280,")}}{(\\":9281,"}!(":9282,")^{+}\\]":9283,"Ġrespect":9284,"iR":9285,"mD":9286,"^{*}}}(":9287,"{)},&":9288,"}})=-":9289,"),|\\":9290,"pschitz":9291,"Ġiso":9292,"}_{-})\\":9293,")}}{{=":9294,"]}{[":9295,"missible":9296,"AQ":9297,"Ng":9298,"far":9299,"ish":9300,"ĠOut":9301,"\\;=\\;\\":9302,"annel":9303,"050":9304,"294":9305,"Inc":9306,"_{\\#}":9307,"Ġquadratic":9308,"cross":9309,"{}_{(":9310,"Ġ})\\,\\":9311,"lec":9312,"ries":9313,"}^{*}\\|":9314,"}:=(-":9315,"239":9316,"|||":9317,"Inj":9318,"\\}+\\{":9319,"ĠAverage":9320,"DY":9321,"JE":9322,"\\}}\\,\\":9323,"^{<\\":9324,")\\|^{\\":9325,"\\|:=\\":9326,"}^{*}},\\":9327,"Ġcover":9328,"Ġem":9329,"{)}=\\]":9330,"}^{\\#}(":9331,"})&=&\\":9332,"Ġregular":9333,"TK":9334,"Xf":9335,"]})_{":9336,"sX":9337,"ulation":9338,"ya":9339,"|&":9340,"parse":9341,"Ġradi":9342,"+{":9343,",(-\\":9344,"Cz":9345,"Flag":9346,"}^{<\\":9347,"}))}\\\\":9348,"}||\\]":9349,"}]+(":9350,"}})},\\":9351,"Ġ)\\|^{":9352,"997":9353,"Kos":9354,"NH":9355,"VD":9356,"fk":9357,"spa":9358,"Ġ)}-\\":9359,"}}}=(":9360,"}|}\\,\\":9361,"}|(|":9362,"));\\":9363,"ĠGal":9364,"Ġalgebra":9365,"214":9366,"):=|\\":9367,"259":9368,"cheme":9369,"\\;,\\\\":9370,"]{[\\":9371,"erior":9372,"asis":9373,"{}{{}^{\\":9374,"ridge":9375,"313":9376,"IX":9377,"Ġ}_{(":9378,"^{-}}^{\\":9379,"}^{*}]":9380,"Ġ250":9381,")))+\\":9382,"_{*}:=\\":9383,"ĠNS":9384,")\\,+\\,":9385,"Ġ&&&&\\":9386,"]{[\\@@":9387,">|":9388,"Mh":9389,"Tg":9390,"|)}{|":9391,"Ġ}+\\|":9392,"}\\}/":9393,"(\\(\\":9394,"}}\\}=\\":9395,"loss":9396,"},:":9397,"^{*})\\|^{":9398,"}^{-},\\]":9399,")))_{":9400,"Ġiy":9401,"Ġnb":9402,"_{*})+":9403,"Ġ\\[=\\]":9404,"Ġ-$":9405,"ĠPre":9406,"};\\{\\":9407,"})|}{|\\":9408,")\\|+\\|":9409,"039":9410,"}))\\,,\\]":9411,"^{*(":9412,"})=&\\":9413,"};\\{":9414,"|\\,,\\]":9415,"Ġnodes":9416,"gb":9417,"})!\\":9418,"sic":9419,"cok":9420,"}\\|_{{\\":9421,"_{-}.\\]":9422,")|^{-\\":9423,"volu":9424,"})^{*}.\\]":9425,"valu":9426,"&*&\\":9427,"$}}\\,":9428,")}]^{\\":9429,"<_{\\":9430,"PZ":9431,"}|)}\\":9432,"ĠIrr":9433,"Ġrk":9434,"};-\\":9435,"pert":9436,"}_{+}+\\":9437,"})|,\\":9438,"\\[[{\\":9439,"\\!=\\!\\":9440,"Exc":9441,"$)}\\]":9442,"056":9443,"JZ":9444,"Kr":9445,"Ta":9446,"hull":9447,"oracle":9448,"Ġarc":9449,"}}}((":9450,")\\}+":9451,"}]{":9452,"}^{({\\":9453,"Ġnear":9454,")}.":9455,"]\\;\\":9456,"})((\\":9457,"Ġ*}(\\":9458,")\\!-\\!\\":9459,"!)^{\\":9460,"732":9461,"qw":9462,"vq":9463,"(\\{(":9464,"}||(":9465,"))),\\":9466,"Ġfin":9467,"}\\|-":9468,"}}+||":9469,"^{+}\\|_{":9470,")}=[\\":9471,"0100":9472,"044":9473,"eval":9474,"Tan":9475,"^{\\{\\":9476,"part":9477,"Ġfe":9478,"}\\|_{*}^{":9479,")_{(\\":9480,"^{+}}{\\":9481,"^{*}|_{":9482,"|}{**":9483,"therefore":9484,")_{*":9485,"oo":9486,"xn":9487,"})}},\\":9488,"tice":9489,"link":9490,"}^{*}),":9491,"}^{*}(-":9492,"\\,^{":9493,"}}))^{\\":9494,"}|\\)":9495,"}|\\|\\":9496,"Ġ\\({\\":9497,"_{*}\\|^{":9498,"Ġ}((":9499,"|+\\|":9500,"}{*}{**":9501,"thicksim":9502,"Mz":9503,"gc":9504,"hz":9505,"}\\}>":9506,")\\!\\!\\":9507,"Ġiid":9508,"}[\\,":9509,"ĠDE":9510,"\\)**":9511,"})|-\\":9512,"Ġ+}\\":9513,"Ġ512":9514,"Ġdefinition":9515,"lasses":9516,"Ġhyper":9517,"Ġinfinitely":9518,"Dy":9519,"cI":9520,"temp":9521,",\\!\\":9522,"}^{(*":9523,"ĠBi":9524,"_{*}}}\\":9525,"})}\\.\\]":9526,"Ġgood":9527,"ptI":9528,"}{(|":9529,"}}{||\\":9530,"Ġrelative":9531,"\\[\\#\\{\\":9532,"fied":9533,"Db":9534,"Md":9535,"aY":9536,"}^{{(":9537,"})}=-\\":9538,"dydt":9539,"Rem":9540,")}_{=":9541,"Ġ}^{-\\":9542,"...&...&":9543,"OB":9544,"vac":9545,"(\\|(":9546,")\\})\\":9547,")={}_{":9548,"ĠFM":9549,":=-":9550,"convex":9551,"/_{":9552,"Gra":9553,"cK":9554,"mH":9555,"pC":9556,"rical":9557,"surd":9558,"}^{-}\\|_{":9559,"Ġtyp":9560,"}|\\,|":9561,"dxdz":9562,"{[}{\\":9563,")\\|+\\|\\":9564,"{<}":9565,")}|}\\":9566,";}\\]":9567,"]}^{-":9568,"hS":9569,"iQ":9570,"}:[\\":9571,"Ġic":9572,"ĠFig":9573,"}}|}{":9574,"formation":9575,")\\|+":9576,"193":9577,"}}]\\\\":9578,"poch":9579,"Ġdistance":9580,"Ġsets":9581,"!}\\,":9582,")}](":9583,"cD":9584,"}^{!}\\":9585,"ink":9586,"tail":9587,"}}})(":9588,"}]}{(":9589,"Ġinj":9590,"})\\,.\\":9591,")})\\,\\":9592,"275":9593,"354":9594,"26378":9595,"AK":9596,"Frac":9597,"GV":9598,"Jx":9599,"ql":9600,"}}}]\\]":9601,"Ġ}\\}\\":9602,"}}}\\{":9603,"}^{+}}|":9604,"\\[|\\{\\":9605,"})^{-}\\":9606,"227":9607,"&=-\\":9608,"Bt":9609,"Ġsq":9610,"ern":9611,"}^{*}]\\":9612,"))[\\":9613,"))]^{":9614,"}})>\\":9615,"Ġax":9616,")|/":9617,"}^{+}}|\\":9618,"lized":9619,"&(-":9620,")})}(":9621,"Cm":9622,"FH":9623,"],(":9624,"bA":9625,"tG":9626,"}){":9627,"_{\\{|\\":9628,"},...\\":9629,"}|[":9630,"^{**}\\":9631,"{|}{\\":9632,"_{+}}\\]":9633,"{--}\\":9634,"229":9635,"):\\|":9636,")}&=":9637,"036":9638,"Fib":9639,"SGD":9640,"WL":9641,"\\}/":9642,"\\'{":9643,"]})^{":9644,"rH":9645,"uD":9646,"Ġ},\\\\":9647,"^{-}}{":9648,"{|(\\":9649,"}),\\|\\":9650,")\\,+\\,\\":9651,")}|=":9652,")}\\,|":9653,")\\;,\\":9654,"Ġeither":9655,"!=\\!\\":9656,"]$":9657,"itions":9658,"ode":9659,"Ġ}}}{\\":9660,"Ġ;\\]":9661,"})})(":9662,"}+}\\":9663,"}}{[\\":9664,"}|:":9665,"}|}|":9666,")|-|\\":9667,"ĠMC":9668,"}}-{\\":9669,")&=(":9670,"329":9671,"0002":9672,"1001":9673,"xH":9674,"}_{**":9675,"{\\}},":9676,"nad":9677,"vent":9678,"450":9679,"289":9680,"055":9681,"nitial":9682,"989":9683,"+}}\\":9684,"zG":9685,"Ġ/(":9686,"}^{>\\":9687,"Ġ150":9688,"}^{*}))\\]":9689,"{(}\\|(\\":9690,")}{}^{":9691,"disk":9692,"Ġsm":9693,"}^{+}[":9694,"ified":9695,",-}":9696,"457":9697,"286":9698,"376":9699,"];\\\\":9700,"Ġproduct":9701,"CQ":9702,"Cv":9703,"})\\|+":9704,"}]}|\\":9705,"),[\\":9706,"Ġent":9707,"173":9708,"})]}{":9709,"curv":9710,"HB":9711,"HV":9712,"Lw":9713,"]}[\\":9714,"tst":9715,"Ġ}}\\|\\":9716,"}\\}},\\]":9717,"})],":9718,")\\}=\\{":9719,"section":9720,"}-\\{\\":9721,"Ġ110":9722,")}{=}":9723,"ssing":9724,"ĠFro":9725,"\\}\\},\\]":9726,"202":9727,"Ġ\\,|":9728,"}_{<}(":9729,"Ġdomain":9730,"Ġsymmetric":9731,".}}(\\":9732,"RMSE":9733,"Wg":9734,"}\\}}^{":9735,"}|_":9736,"\\|>\\":9737,"}^{*})}{\\":9738,"Ġ2000":9739,"Ġacc":9740,"rection":9741,"}^{+}).\\]":9742,")!^{":9743,"350":9744,"Parameter":9745,"Ġfactor":9746,"HA":9747,"\\}$":9748,"gw":9749,"|)-\\":9750,"}\\}}|\\":9751,"}{}{\\":9752,"|\\)":9753,"}^{**}\\":9754,"ors":9755,"ijl":9756,"Ġ\\(+\\":9757,"))\\;\\":9758,"Ġperm":9759,"})_{(\\":9760,":\\:":9761,"249":9762,"325":9763,"xyx":9764,"}\\{\\|\\":9765,"}|||_{":9766,"988":9767,"Ġparameters":9768,"<[":9769,"Ah":9770,"Deg":9771,"HG":9772,"JL":9773,"eig":9774,"utation":9775,"adic":9776,"^{-}+\\":9777,"}\\|)^{":9778,"{)}\\)":9779,"})+[":9780,"Ġinequality":9781,"241":9782,"\\;=\\;":9783,"prin":9784,"}!}{":9785,"Ġsense":9786,"requency":9787,"Down":9788,"eb":9789,"|)}{\\":9790,"Ġusing":9791,"Ġ=((":9792,"dimension":9793,"}})\\}_{":9794,")]|\\":9795,"ttt":9796,")&:=":9797,"Ġoff":9798,"[-,-":9799,"269":9800,"047":9801,")^{+}}\\":9802,"})}}{{=}}":9803,"!_{":9804,"-},\\":9805,"}}}},\\":9806,"},_{":9807,"}_{\\|\\":9808,"}={}^{":9809,"Ġ123":9810,"{)}>\\":9811,"ĠBK":9812,"}^{+}:":9813,"ĠDR":9814,"})([":9815,"Ġ-{\\":9816,"...,(":9817,"171":9818,"iciently":9819,"/\\|\\":9820,"Syn":9821,"Ve":9822,"cro":9823,"Ġ\\,\\,":9824,"lis":9825,"^{*}}\\,":9826,"}]_{(":9827,"})=&":9828,"ĠdP":9829,"}},[\\":9830,"Ġ||_{":9831,"182":9832,"}}^{+}=\\":9833,"subsetneqq":9834,"!\\!\\!\\!\\!\\!\\!\\!\\":9835,"spheri":9836,"(+\\":9837,"*},\\":9838,"@>":9839,"Bn":9840,"Eg":9841,"NG":9842,"Ux":9843,"kw":9844,"smooth":9845,"usion":9846,"}-}\\":9847,"})^{+}":9848,"Ġcell":9849,"ĠNL":9850,"}*}":9851,"9943":9852,"172":9853,"285":9854,"}}&\\\\":9855,"tran":9856,"Ġsemi":9857,"bility":9858,"064":9859,"SY":9860,"VW":9861,"Wr":9862,"}|)(":9863,"ĠLR":9864,"}}+[\\":9865,"]^{<\\":9866,"ordin":9867,")\\!+\\!\\":9868,"posi":9869,"GU":9870,"Sum":9871,"}))=-":9872,"}}\\{(":9873,"},..":9874,")=\\#\\":9875,"}^{*}}=":9876,"Ġaa":9877,"{)}\\;.\\]":9878,"ĠMap":9879,"ĠPer":9880,"start":9881,"+||\\":9882,"scl":9883,"upper":9884,"377":9885,"},&(":9886,"best":9887,"0101":9888,"Ġcycle":9889,"!-\\!\\":9890,"Kp":9891,"Zar":9892,"{'":9893,"Ġ})}\\]":9894,"}_{/\\":9895,"vers":9896,"}&[":9897,"ĠAT":9898,"ĠIt":9899,"ĠRo":9900,"})\\,|\\":9901,"Ġ}{|\\":9902,"299":9903,"Hor":9904,"Lg":9905,"aI":9906,"gon":9907,"sP":9908,"}(^{":9909,"^{*}\\,":9910,"}]}+\\":9911,"Ġcri":9912,"_{-}}{\\":9913,")|,":9914,"}^{+}|\\":9915,"265":9916,"Ġ{-}\\":9917,"!\\!\\{":9918,"499886":9919,"Ġavg":9920,"tations":9921,"{)}-(":9922,"}]^{(":9923,"}}_{=:":9924,"ĠNa":9925,"ĠFix":9926,")]/":9927,"298":9928,"\\[\\#(\\":9929,"Ġinitial":9930,"UA":9931,"ftarrow":9932,"son":9933,"Ġ\\},\\":9934,"{\\#\\{":9935,"}}}}=\\":9936,"})\\),":9937,"^{*}>":9938,"Ġip":9939,"\\,;\\,":9940,"_{+}}(\\":9941,"Ġweak":9942,"277":9943,"*[":9944,"Hull":9945,"xR":9946,"Ġ111":9947,"}\\,-":9948,"itx":9949,"Ġvi":9950,"{-(\\":9951,"}_{+}-":9952,"765":9953,"Ġmaximal":9954,"Bw":9955,"aB":9956,"bcirc":9957,"fX":9958,"})}/":9959,")\\}\\\\":9960,")=|\\{":9961,"),\\;\\;":9962,"_{+}\\\\":9963,"}<|\\":9964,"203":9965,"2010":9966,"181":9967,"{|}_{(\\":9968,"]\\!],":9969,"MMSE":9970,")}}^{-":9971,">^{":9972,"VC":9973,"kF":9974,"Ġ}:":9975,"Ġ)}+":9976,"}\\}<\\":9977,"}(+":9978,"}}}},\\]":9979,"=\\{\\{":9980,"}=\\,\\":9981,"}}\\,:\\,":9982,"Vf":9983,"gK":9984,"pM":9985,"{\\}}_{\\":9986,"}}};\\":9987,"}}}/\\":9988,"}{+}\\":9989,"|\\{\\":9990,"code":9991,"ĠAD":9992,"}},{":9993,"ĠGap":9994,"270":9995,"}]\\!]":9996,"^{!}_{":9997,"IE":9998,"Nil":9999,"qA":10000,"|})\\]":10001,"Ġus":10002,"Ġ\\@@":10003,")\\}+\\":10004,"phase":10005,"})\\{\\":10006,"^{*}}^{(":10007,"}})+(\\":10008,"unit":10009,"ĠHH":10010,"\\[|\\,\\":10011,"||=":10012,"Grp":10013,"395":10014,")}:=(":10015,"Pv":10016,"QX":10017,"Sign":10018,"false":10019,"}\\}}=\\":10020,"lot":10021,"}]\\}\\":10022,"Ġ}.\\":10023,"Ġdh":10024,"Ġgh":10025,"}}\\,|\\,\\":10026,"Ġ+}(":10027,"([-\\":10028,"Ġincreasing":10029,"$}\\}\\]":10030,".},\\":10031,"Py":10032,"Rg":10033,"hM":10034,"Ġ)})\\":10035,"})}|^{":10036,"}}}}^{\\":10037,"}=+":10038,"Ġ&&-":10039,"}|)=":10040,"{)}[\\":10041,"}^{*}}+\\":10042,"ijt":10043,"ĠAe":10044,"Ġstrict":10045,"ĠPS":10046,"}}_{\\{":10047,"degree":10048,"mpe":10049,"488":10050,"near":10051,"ĠRep":10052,"Ġsecond":10053,"Ġ{+}(":10054,"!}+":10055,"504":10056,"HU":10057,"Ls":10058,"MAX":10059,"|)}\\]":10060,"biguplus":10061,"like":10062,"^{*})}\\]":10063,")))}\\":10064,"ĠSu":10065,")\\|=\\|":10066,"Ġ[(":10067,",-\\,":10068,"BI":10069,"JJ":10070,"\\}}\\|":10071,"yq":10072,"Ġ)},\\]":10073,"})!(":10074,"inary":10075,"^{*}},\\]":10076,"}]_{+":10077,"}]/(\\":10078,"}\\|(-\\":10079,"ĠAn":10080,"_{({\\":10081,"}^{+})-":10082,")\\,,\\,\\":10083,"ĠPT":10084,"^{+}}\\]":10085,"}=(\\{":10086,"dvdx":10087,"3749":10088,"385":10089,"Perv":10090,"GKdim":10091,"Ġrepresen":10092,"zs":10093,"}|}}{":10094,"}^{+}:\\":10095,"Ġ^{[":10096,"};\\;":10097,"191":10098,"}}^{+})\\":10099,"SLE":10100,"*}=\\":10101,"437":10102,"Er":10103,"Rv":10104,"VS":10105,"aD":10106,"ula":10107,"yxy":10108,"Ġ)}=\\":10109,"Ġcut":10110,"}}}/":10111,"}}\\}=":10112,"varTheta":10113,"ĠCP":10114,"),+":10115,"ĠdY":10116,"}}^{\\{":10117,"\\[\\{[\\":10118,"Cob":10119,"ĠMulti":10120,"KA":10121,"])}{\\":10122,"blk":10123,"cX":10124,"Ġln":10125,"_{/":10126,"}\\}\\,\\":10127,"}))),\\]":10128,"}],\\,":10129,"}^{-}:=\\":10130,"))].\\]":10131,"Ġabo":10132,"Ġdk":10133,".\\,\\":10134,"1223":10135,"ĠFP":10136,"_{+}|":10137,"dvdu":10138,"Ġdensity":10139,"\\[{}^{(":10140,"Ġmultipli":10141,"Ġsufficiently":10142,"&-(":10143,"-{":10144,"031":10145,"Cc":10146,"]}&\\":10147,"class":10148,"jT":10149,"Ġ}}\\]":10150,"Ġiter":10151,"\\,[\\":10152,"}\\||\\":10153,"_{*}|":10154,"lessdot":10155,"Cond":10156,"lated":10157,"ulli":10158,"})\\!=\\!\\":10159,"âĢĿ":10160,"ĠDiag":10161,"\\})-\\":10162,"but":10163,"from":10164,"oid":10165,"lom":10166,")^{(-":10167,"}|}}{\\":10168,"}]:=":10169,"ĠCD":10170,"}})}_{\\":10171,"{|}<":10172,")}*\\":10173,"ĠLS":10174,"ĠSP":10175,"(-|":10176,"ĠDis":10177,"ĠPI":10178,"^{+}\\\\":10179,"}))\\|\\":10180,"}_{-}\\]":10181,"}):\\|":10182,"}}]-":10183,"749943":10184,"uler":10185,"Aa":10186,"KdV":10187,"MAP":10188,"Sg":10189,"ULA":10190,"\\})}":10191,"aK":10192,"hC":10193,"pH":10194,"|-(":10195,"}\\}|":10196,"}(]":10197,"Ġface":10198,"\\,,&\\":10199,"}\\).":10200,"andom":10201,"327":10202,"erty":10203,"}\\;:\\;\\":10204,")<-\\":10205,"058":10206,"388":10207,"{,}\\":10208,")]=[\\":10209,"Bias":10210,"Ġfield":10211,"!.\\]":10212,"&|\\":10213,"}))=-\\":10214,")\\},":10215,"|^{|":10216,"}}_{+}\\":10217,"Ġkm":10218,"ĠSI":10219,"209":10220,"],|":10221,")}}{{":10222,"]+(-":10223,"}}(-,":10224,"295":10225,"Ġratio":10226,"Weyl":10227,"$})\\]":10228,"eh":10229,"first":10230,"score":10231,"wh":10232,"}{}^{*}":10233,")\\!\\!":10234,"bounded":10235,"dsdx":10236,"}]})\\":10237,"))}-\\":10238,"ĠSection":10239,"Ġestima":10240,"}^{+}\\}\\]":10241,"Ġhence":10242,",-,":10243,"1440":10244,"}))}+":10245,"):\\]":10246,"278":10247,")})]\\":10248,"|>|":10249,"Ġunique":10250,"Ġcyc":10251,"Mult":10252,";=\\;\\":10253,"<\\|":10254,"Bmatrix":10255,"QN":10256,"VB":10257,"cB":10258,"mld":10259,"})}}(\\":10260,"})}+(":10261,"}}}^{(\\":10262,"(\\!\\!\\":10263,"\\,\\|_{":10264,"&-&-":10265,"TMF":10266,"Ġsep":10267,")$},\\\\":10268,"})\\;=\\;\\":10269,"\\[\\#(":10270,"current":10271,"dof":10272,"vertible":10273,")}}}\\]":10274,"-}}\\":10275,"675":10276,"\\&\\":10277,"zv":10278,"Ġ})\\]":10279,"Ġ)]":10280,"}}})}\\":10281,"^{-}.\\]":10282,"ĠCor":10283,"Ġinput":10284,"},\\,|\\":10285,"369":10286,"esssup":10287,"Ġvalues":10288,")}}\\|\\":10289,"HX":10290,"LV":10291,"bel":10292,"{}>":10293,"ĠPic":10294,"_{>\\":10295,"ler":10296,"}}\\#":10297,"sent":10298,")}\\;.\\]":10299,"}^{**}(":10300,"Ġ\\(\\{\\":10301,"}}|\\,":10302,"}}^{-}\\]":10303,"drds":10304,"337":10305,"305":10306,"260":10307,"Ġunit":10308,"tmf":10309,")}].\\]":10310,")}}}{{=}}\\":10311,"Bd":10312,"Ny":10313,"]/(\\":10314,"hX":10315,"roll":10316,"{)}=(\\":10317,"ĠCp":10318,"ĠCar":10319,"cision":10320,"}\\|}{\\|\\":10321,"Ġ=\\,":10322,"Ġ-|\\":10323,"\\[|[":10324,"olute":10325,"|\\,|\\":10326,"reshold":10327,"sort":10328,"solid":10329,"ized":10330,"),\\,\\,\\,":10331,"ments":10332,"Ġsingular":10333,".&\\":10334,"pla":10335,"Ġ\\{(\\":10336,"\\[\\{-":10337,"_{\\,\\":10338,"{|}_":10339,"_{*})-\\":10340,"))\\}\\":10341,"Ġyx":10342,"ĠKK":10343,"Ġ)\\|_{\\":10344,")})&\\":10345,"Add":10346,"|\\!|\\":10347,"\\#\\{":10348,"rclrcl":10349,"\\|=\\|\\":10350,":.\\]":10351,"HO":10352,"TZ":10353,"nA":10354,"Ġ)}-":10355,"})}}+\\":10356,"^{-}}(\\":10357,"\\,-\\":10358,"Ġ-,":10359,"ĠUp":10360,"}=-{\\":10361,"}\\!:\\!":10362,"cdh":10363,"noulli":10364,"984":10365,"088":10366,"465":10367,">+\\":10368,"Lan":10369,"kR":10370,"xB":10371,"}}}^":10372,")={":10373,"}]})\\]":10374,"Ġsn":10375,"}^{+})-\\":10376,"Ġ}(-\\":10377,"985":10378,"}|>|":10379,"$}}}}{\\":10380,"lvl":10381,"$},":10382,"678":10383,"=_{":10384,"Hf":10385,"vb":10386,"vk":10387,"Ġlimit":10388,"}\\}|=":10389,"},{}^{":10390,"}=&-\\":10391,"pic":10392,"}|)=\\":10393,"round":10394,"}^{-}\\\\":10395,"\\|_{-\\":10396,"}^{*}}.\\]":10397,")-\\]":10398,"ĠNC":10399,"349":10400,"}]=\\{":10401,"Ġloop":10402,"Mean":10403,"MGL":10404,"XU":10405,"\\}),":10406,"osed":10407,"sB":10408,"Ġmu":10409,"surf":10410,"))}}{":10411,"_{*}/":10412,"}^{+}/\\":10413,"Ġbasis":10414,"upomega":10415,"\\%\\":10416,"}}/(\\":10417,"Ġdiffer":10418,"078":10419,"JT":10420,"Sv":10421,"WH":10422,"bD":10423,"Ġrt":10424,"})})-\\":10425,"Ġ\\}\\]":10426,"fter":10427,"}])+":10428,"Ġxz":10429,"}\\,\\|_{":10430,"Ġ(|\\":10431,"_{+}^{*}}\\":10432,"\\[\\|\\,\\":10433,"})||_{\\":10434,"))^{*}\\":10435,"992":10436,"335":10437,"059":10438,"ression":10439,"]-[\\":10440,"nnz":10441,"Stk":10442,"glob":10443,"bB":10444,"bic":10445,"group":10446,"xmapsto":10447,"zd":10448,"Ġna":10449,"})}>\\":10450,"});(":10451,"aro":10452,"^{*}<":10453,"^{*})}(":10454,"}]}_{":10455,"\\|},\\":10456,"))}-":10457,"Ġ}|_{":10458,"}})}+":10459,"{|{\\":10460,"}\\|>\\":10461,"Ġnor":10462,"(-,":10463,"/\\!":10464,"{\\|}\\,\\":10465,"\\[||(":10466,"}_{++":10467,"]}\\{":10468,"}}^{*})^{":10469,"352":10470,"041":10471,"FY":10472,"GX":10473,"mP":10474,"|)^{(":10475,"Ġ\\}}":10476,"(\\!(":10477,"})\\|=":10478,"}]}\\|\\":10479,"\\{+\\":10480,"\\,^{\\":10481,"}/[":10482,"_{*}}\\|\\":10483,"}}}\\)":10484,"ĠMaxi":10485,"Ġmm":10486,"Ġ-}\\":10487,")\\,\\,\\,\\":10488,"_{||":10489,"057":10490,"Ġ{*}\\]":10491,"667":10492,"Ġmost":10493,"Model":10494,">=\\":10495,"Ef":10496,"Lat":10497,"Mm":10498,"QF":10499,"Ts":10500,"\\}}_{\\":10501,"])}{":10502,"sSet":10503,"}\\}),\\]":10504,"sive":10505,"rier":10506,"^{*})\\\\":10507,"}]}}\\":10508,")){\\":10509,"Ġte":10510,"Ġ_{-\\":10511,"ĠSD":10512,"_{*}|^{\\":10513,"Ġrig":10514,"\\}\\;.\\]":10515,"}}\\,.\\":10516,"ayer":10517,"\\})+":10518,"]|_{":10519,"rL":10520,"lexi":10521,"ater":10522,"\\|)":10523,"Ġflow":10524,"Ġclo":10525,"^{+}|":10526,"}_{+},\\\\":10527,"2022":10528,"}_{*}\\|_{":10529,"649":10530,",*}\\]":10531,"Ġcolumn":10532,"SVD":10533,"Dn":10534,"Qe":10535,"aE":10536,"_{|_{\\":10537,"})]}":10538,"}_{+\\":10539,"}}}+\\|\\":10540,"bmo":10541,")))(":10542,"Ġijk":10543,"rete":10544,"ĠBx":10545,")\\,,\\,":10546,")][":10547,"Ġindu":10548,"}}\\|_":10549,"arrowleft":10550,"284":10551,"355":10552,"Ġtrain":10553,"THR":10554,"\\})^{\\":10555,"aL":10556,"aS":10557,"slow":10558,"}(||":10559,"\\[>":10560,"_{\\!\\!":10561,")\\)}":10562,"lobal":10563,"eqsim":10564,"ĠSR":10565,"ĠXY":10566,"ĠRan":10567,"ĠPar":10568,"242":10569,"279":10570,",+}^{\\":10571,"Module":10572,"792":10573,"397":10574,"Ġcone":10575,"ĠReLU":10576,"$}(\\":10577,"&{\\":10578,"Cart":10579,"]]=\\":10580,"pot":10581,"Ġ}\\,.\\]":10582,"^{*_{":10583,"Ġ\\[\\{\\":10584,"Ġaff":10585,"Ġcov":10586,"\\!\\!\\!\\!\\":10587,"UM":10588,"\\}}(-":10589,"dlog":10590,"eA":10591,"gi":10592,"pK":10593,"Ġ*\\":10594,"overleftrightarrow":10595,"Ġits":10596,"\\|\\!":10597,"}&&&&\\\\":10598,"})_{!}(":10599,"287":10600,"467":10601,"|}{\\(\\":10602,"Ġdiagonal":10603,"Ġenergy":10604,"ĠLog":10605,"Ġcomponents":10606,"-}+":10607,"/\\,":10608,"Lag":10609,"ZX":10610,"[\\]":10611,"\\}^{(":10612,"\\}))\\]":10613,"olog":10614,"uH":10615,"Ġ}:\\":10616,"}(.,":10617,"atu":10618,"}=\\|(":10619,"Ġ_{(\\":10620,"{[}\\,":10621,"\\[(\\{\\":10622,"Ġobj":10623,"{(}(-\\":10624,"amily":10625,")...":10626,"*},":10627,"cst":10628,"|}_{":10629,"Ġ}}^{-":10630,"^{-}}\\]":10631,"Ġ\\[(-":10632,"^{*}))":10633,"child":10634,")-\\{":10635,"ĠSupp":10636,")|}{\\|":10637,"Ġinit":10638,"Ġ}({\\":10639,"\\!\\!\\!/":10640,"183":10641,"3456":10642,"}$},\\":10643,"306":10644,"}}[\\|":10645,"fication":10646,"EN":10647,",\\#":10648,"}}}^{*}\\":10649,"rhood":10650,"}^{*}}-":10651,"}\\,)\\":10652,"ĠdF":10653,"\\[(|\\":10654,"Ġyz":10655,"}_{++}^{":10656,"{{?":10657,"}}^{*}_{":10658,"nough":10659,"/\\,\\":10660,"Hk":10661,"Mw":10662,"]}:":10663,"oh":10664,"qh":10665,"|}}\\]":10666,"|:\\":10667,"}^{{}_{":10668,"}|)|":10669,"}}({":10670,"Ġ160":10671,"}^{*}}-\\":10672,"ĠBR":10673,"^{-\\|":10674,"Ġenough":10675,"ĠHe":10676,"ĠDM":10677,")&(\\":10678,"254":10679,"})])\\":10680,")\\|\\|":10681,"266":10682,"986":10683,");\\,":10684,"Ġkernel":10685,"Lp":10686,"nF":10687,"})}((":10688,"}+\\{\\":10689,"}^{*}=\\{":10690,"}}_{*}(":10691,"Piv":10692,"ĠFe":10693,"1152":10694,"}_{+})":10695,"{|\\{":10696,"Ġ}{(\\":10697,"juga":10698,"374903":10699,"975":10700,"Gp":10701,"LQ":10702,"Neu":10703,"Row":10704,"Sec":10705,"lw":10706,"Ġ})\\|_{":10707,"}\\|}.\\]":10708,"biggm":10709,"ĠBB":10710,"ĠShv":10711,"343":10712,"Ġ\\,|\\":10713,"})\\|^":10714,"468":10715,"Ġirreducible":10716,"Ord":10717,"sD":10718,"samp":10719,"via":10720,"}}}}{{=}}\\":10721,"amic":10722,"tord":10723,"}^{*};":10724,"_{-}}\\]":10725,"}^{+}),\\":10726,"ĠGM":10727,"Ġ$[":10728,"chy":10729,")}=\\{(":10730,"Ġ5000":10731,"}}[|\\":10732,")})_{(":10733,")[[":10734,"046":10735,"mitive":10736,"fixed":10737,")}}&\\":10738,"588":10739,"Higgs":10740,"Tn":10741,"aM":10742,"Ġ}-(":10743,"})}]\\":10744,"}(\\{(":10745,"}|}}":10746,"))\\}_{":10747,"}}}\\!\\":10748,"ĠDG":10749,"}}|}":10750,"}}|+|\\":10751,"}>|":10752,"):=(-":10753,"}*_{\\":10754,")\\|,\\]":10755,")\\|=\\|\\":10756,"\\{(-":10757,"297":10758,")_{+}^{\\":10759,"izx":10760,")$}\\\\":10761,"Ġcommu":10762,"656":10763,"Uniform":10764,"eB":10765,"Ġ\\!\\!":10766,"}{}_{(":10767,"bolic":10768,"^{-})=":10769,"ĠtA":10770,"ĠSize":10771,"Ġ\\({}^{":10772,"Ġvs":10773,"_{-})=":10774,"Ġmk":10775,"Ġalong":10776,"\\[=:":10777,"3333":10778,"(\\|(\\":10779,"|+\\|\\":10780,"\\#}\\":10781,":}":10782,"Bad":10783,"MX":10784,"OA":10785,"VT":10786,"}};\\\\":10787,"+\\;":10788,"^{-})^{\\":10789,"}});\\":10790,"}|\\|_{":10791,"]\\|^{":10792,"ĠTR":10793,"Ġ\\([-":10794,"ĠFor":10795,"339":10796,"}}&&\\\\":10797,"392":10798,"}}\\!=\\!\\":10799,"blacktriangleleft":10800,"ensor":10801,"ĠDescription":10802,"ĠLeb":10803,"Dp":10804,"]}=(":10805,"aH":10806,"sC":10807,"|:=\\":10808,"Ġcos":10809,"Ġ^{*}(\\":10810,"}\\}(\\":10811,"}\\}]\\":10812,"}))=\\{":10813,"}}},\\\\":10814,"dem":10815,"}{-}\\":10816,"}^{*}<":10817,")-[\\":10818,"\\,)\\]":10819,"}}\\,,\\\\":10820,"Ġ600":10821,"309":10822,"},-,":10823,"Ġanti":10824,"pqr":10825,")$-":10826,"MFC":10827,"}|\\!|_{":10828,"Ġupper":10829,"ristic":10830,"lomorphic":10831,"#\\,":10832,"+)\\":10833,"896":10834,">=":10835,"IZ":10836,"Jf":10837,"KC":10838,"OU":10839,"ZC":10840,"tible":10841,"^{\\|":10842,"{(|\\":10843,")=\\#\\{":10844,"ĠCond":10845,")))^{-":10846,")|}=\\":10847,"ĠRT":10848,"_{+})=\\":10849,"}\\)**":10850,"+|(":10851,"}}^{*}-":10852,"})]/":10853,"},-)\\":10854,"blkdiag":10855,"Acc":10856,"Gl":10857,"Ver":10858,"maj":10859,"}))}(\\":10860,"}-\\\\":10861,"}}^{|\\":10862,"}])-\\":10863,"Ġau":10864,")}{{\\":10865,"_{-})}\\":10866,"/\\!\\":10867,"}_{+})^{":10868,"409":10869,"})\\|<\\":10870,"Char":10871,"})\\!-\\!\\":10872,"JI":10873,"NW":10874,"\\}}}{":10875,"eo":10876,"rX":10877,"tree":10878,"wor":10879,"Ġ)]\\":10880,"}\\}<":10881,"}({}^{\\":10882,"inx":10883,"(\\(":10884,"Ġ\\[=((":10885,"boxminus":10886,"}_{+,\\":10887,"}}\\,=\\,":10888,"note":10889,"],\\;\\":10890,"lattice":10891,"068":10892,"Ġrec":10893,"Ġminimal":10894,"655":10895,"Ka":10896,"Pl":10897,"fit":10898,"nE":10899,"mand":10900,"algebra":10901,"^{-})=\\":10902,")}\\|\\]":10903,"\\|,\\|":10904,"ĠCB":10905,"}^{*}=-\\":10906,"}\\,-\\":10907,"}})),\\":10908,"Ġcm":10909,"1213":10910,"1011":10911,"}}-\\|":10912,"})>(":10913,"LSI":10914,"FFT":10915,"!}-\\":10916,",...\\]":10917,"Fu":10918,"OO":10919,"}}]}":10920,"his":10921,"));\\]":10922,"Ġ=:\\":10923,"ĠLP":10924,"}}-|\\":10925,"}))^":10926,")})/":10927,"Symp":10928,"|\\!|":10929,"ĠRelative":10930,"geneous":10931,"Es":10932,"Fac":10933,"Pg":10934,"Ray":10935,"TI":10936,"}}}}}\\":10937,"arning":10938,"+\\;\\":10939,"sist":10940,"}|},":10941,"hicle":10942,"ĠCu":10943,"))))\\]":10944,"}\\,:":10945,"]\\;.\\]":10946,"Ġcop":10947,"_{-},\\]":10948,"(-)\\":10949,"Ġwell":10950,"}_{*})\\]":10951,"359":10952,"final":10953,"Ġhor":10954,")}:=\\{":10955,"334":10956,"Bf":10957,"}}})-":10958,"}}}\\|_{\\":10959,"query":10960,"^{*}=(\\":10961,"Ġtree":10962,"}}))(":10963,"Ġemb":10964,"ĠPri":10965,"\\[|||":10966,")]=(":10967,"}))[":10968,"\\},\\;":10969,"\\},\\,\\":10970,",+,":10971,"Tors":10972,"Ġlink":10973,"Ġlayer":10974,"-})":10975,".}}(":10976,"Ising":10977,"]^{*}\\":10978,"_\\":10979,"bH":10980,"Ġ)^{-\\":10981,"}=||\\":10982,"{|}[":10983,"}^{+})+\\":10984,"^{+})-":10985,"253":10986,"))=\\{\\":10987,"\\;:\\;":10988,")^{*}}\\":10989,"|}{}":10990,"}}\\!+\\!\\":10991,"Ġrespectively":10992,"Car":10993,"ESS":10994,"IH":10995,"VP":10996,"kE":10997,"yd":10998,"Ġ\\;\\;\\":10999,"_{\\{-":11000,"}}\\})\\]":11001,"ature":11002,"}^{*}+(":11003,"))|_{\\":11004,"Ġ=\\{(\\":11005,"ĠSec":11006,"})_{,":11007,"ĠEn":11008,"}}|=|":11009,"...+\\":11010,"}}^{-}(\\":11011,"}_{-},":11012,"644":11013,"455":11014,"genera":11015,"|}{\\|":11016,"regular":11017,")\\!-\\!":11018,"}))-(\\":11019,"Sets":11020,"095":11021,"Kk":11022,"OG":11023,"Pin":11024,"Step":11025,"xT":11026,")}^{[":11027,"}_{*}-\\":11028,"065":11029,"495":11030,"dxdydt":11031,"dentity":11032,"-((":11033,"679":11034,":-\\":11035,"={":11036,"Cas":11037,"DPD":11038,"ser":11039,"sdepth":11040,"wc":11041,"\\[+(\\":11042,"ario":11043,"}-(-\\":11044,"}+\\,\\":11045,"^{*}}\\|_{":11046,"ĠStab":11047,"1200":11048,"Ġperf":11049,"Ġrv":11050,"}),[\\":11051,"}_{*}=\\":11052,"&&&&\\":11053,"})^{*})\\]":11054,"Ġsurf":11055,"499931":11056,"$})=\\":11057,"*})\\":11058,"399":11059,"3000":11060,"TH":11061,"])=(":11062,"Ġgap":11063,"marg":11064,"}(\\{|":11065,"^{*}=\\{":11066,"}^{*}:=":11067,"}\\,+":11068,"{|}\\,(":11069,"Ġcp":11070,"}^{+})}^{":11071,"}})\\}\\":11072,"}}{(-\\":11073,"444":11074,"Ġiterations":11075,"Ġcomplex":11076,"polylog":11077,"vative":11078,"cenario":11079,"+((":11080,"Ly":11081,"fm":11082,"}_{<\\":11083,"Ġfg":11084,"),\\,\\,":11085,"_{-}\\\\":11086,"ĠDo":11087,"ĠDiv":11088,"onential":11089,")},{\\":11090,"}_{-}=\\":11091,"Ġ101":11092,")!}\\,\\":11093,"043":11094,"Ġlocally":11095,"field":11096,"eich":11097,"}}{{=}}(":11098,"-,\\":11099,"475":11100,"Ell":11101,"oi":11102,"ropy":11103,"wn":11104,"xRightarrow":11105,"match":11106,"})[(":11107,"metry":11108,")^{[\\":11109,"}}(\\,\\":11110,"{|}-":11111,"Ġbad":11112,"{\\|}+\\":11113,"}}\\,+\\,\\":11114,"],&":11115,"366":11116,"}}:=\\|":11117,"042":11118,"969":11119,"386":11120,"987":11121,"RES":11122,"&,":11123,"HQ":11124,"])_{\\":11125,"]_{+}\\":11126,"mE":11127,"xc":11128,"}))}+\\|":11129,"-\\(":11130,"vartriangleright":11131,"Ġ10000":11132,"}]|_{":11133,"}^{-}}^{":11134,"))/(":11135,"rees":11136,"}^{+}}^{\\":11137,"Ġhyp":11138,"}}^{*})":11139,")})>":11140,"379":11141,"})]\\!":11142,"})^{*},\\":11143,"Ġmodu":11144,"Ġequal":11145,"$}}}}":11146,"&*\\":11147,",...\\":11148,"-}-":11149,":}&\\":11150,"MQ":11151,"OF":11152,"rB":11153,"urce":11154,"}(((":11155,")\\#":11156,"^{*}}|\\":11157,"^{*,*}(":11158,"Ġcross":11159,"}}|^{-":11160,"2222":11161,"}}^{*}.\\]":11162,"uvw":11163,"}^{\\#}":11164,"\\)\\(":11165,"ĠBound":11166,"Ġpartition":11167,"Ġsteps":11168,"$})":11169,"BQ":11170,"Fv":11171,"hL":11172,"iV":11173,"Ġ}}}(":11174,"}(+\\":11175,"lope":11176,"^{*}:=":11177,"^{*}}}\\]":11178,"geo":11179,"}&=(\\":11180,"ĠAdd":11181,"Ġscal":11182,"vech":11183,")_{-\\":11184,"_{+})-":11185,"}}}{[":11186,"};\\;\\":11187,"Ġ(\\{":11188,"abq":11189,"rrrr":11190,"387":11191,"Cyl":11192,")})}^{":11193,"Cut":11194,"Cau":11195,"IQ":11196,"Mk":11197,"Tp":11198,"Tree":11199,"]}}^{":11200,"Ġam":11201,"Ġcal":11202,"Ġer":11203,"(\\#":11204,")\\}-":11205,")\\|\\,\\":11206,"+\\|(":11207,"parity":11208,"\\|-\\|":11209,"}\\,,&\\":11210,"Ġiv":11211,"Ġ\\[=-(\\":11212,"ĠDom":11213,":=|":11214,"}}|,\\]":11215,"ilar":11216,"1500":11217,"281":11218,"auss":11219,"Ġproper":11220,"bitra":11221,"&,\\":11222,"316":11223,"496":11224,"WZ":11225,"ups":11226,"_{\\!\\":11227,"sidual":11228,"adv":11229,"tory":11230,"Ġfo":11231,"}\\|[\\":11232,"}^{+}=\\{":11233,"Ġ{\\|":11234,"2500":11235,"Ġ\\,|\\,":11236,",*}_{\\":11237,"Nl":11238,"RZ":11239,"gA":11240,"Ġ}=-\\":11241,"}}}),\\":11242,"}|-(":11243,"apx":11244,"[\\{\\":11245,"}]),":11246,"}\\,:\\":11247,"\\,;\\,\\":11248,"}})|_{\\":11249,"}})-(\\":11250,"Ġnk":11251,"Ġclasses":11252,"ĠSch":11253,"Ġpn":11254,"_{-}},\\":11255,")|)^{":11256,"ĠNT":11257,"ĠRun":11258,"_{+})=":11259,"{\\{}[":11260,"))=\\]":11261,"}+|(":11262,")}||_{":11263,"]+\\]":11264,"}}\\!+\\!":11265,"ĠCont":11266,"Ġsingle":11267,"Ġdivides":11268,"-,-\\":11269,".}(":11270,"Clo":11271,"PK":11272,"RMod":11273,")}\\,(":11274,"^{*}}\\|\\":11275,"}^{*}_{+":11276,"^{(*":11277,")-\\(":11278,"Ġsti":11279,"_{-})=\\":11280,"ĠEqu":11281,"ikt":11282,"}$.}\\":11283,"Ġderi":11284,"381":11285,"788":11286,"076":11287,"KD":11288,"Obs":11289,"aC":11290,"aF":11291,"closed":11292,"jac":11293,"join":11294,"zp":11295,"{*}":11296,"ates":11297,"tary":11298,"}])-":11299,"}}_{/":11300,"Ġnc":11301,"Ġstab":11302,"})-|\\":11303,"})(|\\":11304,"Ġinvertible":11305,"303":11306,"})/{\\":11307,"Minimize":11308,"Ġ\\(|\\)":11309,"ĠDataset":11310,"}&*\\\\":11311,"Bord":11312,"Null":11313,"SX":11314,"hq":11315,"Ġ}^{*":11316,")\\(":11317,"}|)-":11318,"}])(":11319,"Ġact":11320,"ĠNeu":11321,"ĠMA":11322,"Ġ{\\{":11323,"1600":11324,"\\[[-\\":11325,"341":11326,"980":11327,"067":11328,"466":11329,"Open":11330,"Triv":11331,"-}_{":11332,"JP":11333,"JV":11334,"Lm":11335,"\\})+\\":11336,"cC":11337,"fn":11338,"tZ":11339,"vg":11340,"}))&":11341,"}}}}+\\":11342,"}}})^{-":11343,"},-(":11344,"}}{=":11345,"Ġ112":11346,"&\\|":11347,"ĠAN":11348,"ĠMN":11349,")/{\\":11350,")!\\,":11351,")!!(":11352,")}+|\\":11353,"994":11354,"273":11355,"easible":11356,"copy":11357,"Prim":11358,"Ġnetwork":11359,")}}\\,.\\]":11360,"\\:\\":11361,"hH":11362,"sF":11363,"sH":11364,"zc":11365,"{`":11366,"Ġ}+(\\":11367,"}))}{(":11368,"})}}{{=}}\\":11369,"}]<":11370,"))_{(":11371,"Ġiq":11372,"ĠTHH":11373,"\\[\\|(-\\":11374,"\\[\\{|\\":11375,"})\\,=\\":11376,"Ġ\\[+\\,\\":11377,"multimap":11378,"~{}~{}":11379,"measurable":11380,".}}}{{=}}":11381,";}\\":11382,"LI":11383,"Ġ)),\\]":11384,"Ġargmin":11385,")\\}|\\":11386,"quasicoherent":11387,"{((\\":11388,"Ġ&\\|\\":11389,"}\\,:=\\":11390,"})=-(\\":11391,"\\,\\{\\":11392,"})-(-":11393,"}^{+(":11394,"}_{+})}^{":11395,"^{*}_":11396,"}_{*}^{(":11397,"251":11398,"330":11399,"441":11400,"Ġ{*})\\":11401,"typ":11402,"trap":11403,"izer":11404,").(":11405,"{<}\\":11406,"+},":11407,"364":11408,"Lc":11409,"Pos":11410,"RO":11411,"uN":11412,"zA":11413,"Ġ],\\":11414,"})}]\\]":11415,"arse":11416,"&\\|\\":11417,"Ġalgo":11418,"}}^{*}+":11419,"565":11420,"}=\\{\\,":11421,"795":11422,"072":11423,"{:}}=\\":11424,"Ġabove":11425,"412":11426,"WS":11427,"[]{":11428,"]})^{\\":11429,"]_{+":11430,"{}^{*}":11431,"{/\\!\\!/":11432,"Ġ}.\\]":11433,"Ġ}^{*}":11434,"alk":11435,"}}})-\\":11436,"},\\!":11437,"nat":11438,"trip":11439,"),\\|":11440,"Ġcb":11441,"})}\\)":11442,"}^{+}|":11443,"))=(-":11444,"):\\\\":11445,"\\[\\{\\,":11446,"274":11447,"486":11448,"}):|":11449,"_{{}_{[":11450,"defined":11451,"Ġ{*}}\\":11452,"port":11453,"INV":11454,"Ġconditions":11455,"connected":11456,"BY":11457,"RQ":11458,"oci":11459,"Ġ}}[":11460,"}\\:\\":11461,"})}}=":11462,"{\\}}-":11463,"wirt":11464,"}\\|,":11465,"reen":11466,"ĠTran":11467,")}(|\\":11468,")|},\\]":11469,"}]\\}_{":11470,"\\!(\\":11471,")}}{\\|\\":11472,"nput":11473,"Conj":11474,"}\\,(\\,":11475,"Index":11476,"&*&*":11477,"ĠCost":11478,"Ġcomplete":11479,"condition":11480,",\\,\\,\\,\\,\\,\\,\\,\\":11481,"Ġsoft":11482,"4000":11483,"cE":11484,"Ġ)\\,.\\]":11485,"}(\\#":11486,"egory":11487,"}]]=":11488,"}^{*}}|":11489,")),\\,":11490,"Ġfr":11491,"}&&&":11492,"Ġcat":11493,"ĠSol":11494,"}),\\,(":11495,"}^{+}&\\":11496,"Ġji":11497,"Ġcol":11498,"787":11499,"077":11500,"Eucl":11501,"Ġstrictly":11502,"Cq":11503,"Nat":11504,"Part":11505,"Rp":11506,"acity":11507,"jv":11508,"Ġ000":11509,"{)}}_{\\":11510,"}^{-}|^{":11511,"}^{*}\\}\\":11512,")})]\\]":11513,"051":11514,"Ġsee":11515,"Ġbelong":11516,"_{!}(\\":11517,"\\({}^{*}\\)":11518,"$}}^{":11519,"KQ":11520,"Nor":11521,"OE":11522,"sM":11523,"yh":11524,"Ġver":11525,")\\}-\\":11526,"},\\!\\":11527,"{({\\":11528,"}|)}{":11529,"roups":11530,"{)}}{|":11531,"}^{-{\\":11532,"ĠtN":11533,"Ġtu":11534,"Ġdl":11535,"ĠTrue":11536,"\\,\\}\\":11537,"ĠWe":11538,")}(\\{":11539,"}\\}\\{":11540,"458":11541,"262":11542,"{)}+\\]":11543,"069":11544,"085":11545,"Const":11546,"Ġadmissible":11547,"Ġcorresp":11548,"{\\{}{\\}}{":11549,"ĠMaximum":11550,"096":11551,"Dis":11552,"Dim":11553,"It":11554,"]]^{\\":11555,"xL":11556,"zer":11557,"allow":11558,"coder":11559,"}}_{=\\":11560,"cip":11561,"ĠAp":11562,"ĠTX":11563,"\\}\\!\\!\\":11564,"}]\\|^{":11565,")=((\\":11566,")!!}{(":11567,")})\\}_{":11568,"mixed":11569,"ewton":11570,"Bern":11571,"TOL":11572,"fact":11573,"wind":11574,"Ġll":11575,"Ġ}}{{\\":11576,"})},&\\":11577,"Ġ\\}^{":11578,"})=+\\":11579,"})=\\{(\\":11580,"_{*}),":11581,"^{+,":11582,"ĠGF":11583,"}))\\}_{":11584,")}={\\":11585,"):|\\":11586,"ikl":11587,"990":11588,"\\;.\\":11589,"Ġ:=-":11590,"066":11591,"]\\!]_{\\":11592,"dxdydz":11593,"IPW":11594,"continuous":11595,"ĠInter":11596,"KX":11597,"ner":11598,"tQ":11599,"zP":11600,"Ġ)&\\":11601,"Ġ})}.\\]":11602,"seu":11603,")}\\},\\]":11604,")=\\,\\":11605,"^{*}))^{":11606,"}])=[":11607,"ĠCO":11608,"ĠCX":11609,")))\\\\":11610,"}}))-":11611,"{|}}{\\":11612,"prob":11613,"ĠcN":11614,"disp":11615,"}^{+})+":11616,"\\[\\|\\,":11617,")(\\|\\":11618,"{{}_{\\":11619,"refl":11620,"307":11621,"054":11622,",*},":11623,":,:,":11624,"})\\!=\\!":11625,";\\,\\,\\,":11626,"\\}-\\{":11627,"^{(+)}_{":11628,".}\\,\\":11629,"955":11630,"HI":11631,"Med":11632,"]>\\":11633,"je":11634,"mw":11635,"pub":11636,"Ġcases":11637,"tient":11638,")))}{":11639,"))|=":11640,"ĠBP":11641,":=|\\":11642,"Ġindi":11643,"340":11644,"}$)}\\]":11645,"374":11646,"767":11647,"|\\!|_{":11648,"terms":11649,"Ġalgori":11650,")})}.\\]":11651,"314":11652,"Cb":11653,"]]^{":11654,"]<+\\":11655,"fpp":11656,"qB":11657,"|,\\\\":11658,"mann":11659,"{\\}}}\\":11660,"locity":11661,"}||=":11662,"ĠCq":11663,"Ġ=(-\\":11664,"<\\!":11665,"Ġwork":11666,"dry":11667,")>-":11668,"282":11669,"0003":11670,"Leftarrow":11671,"oment":11672,"})},\\|":11673,"Ġ{*}_{":11674,"{,}":11675,"dimensional":11676,",{}_{":11677,">\\,":11678,"Xv":11679,"]],\\]":11680,"gonal":11681,"qQ":11682,"rD":11683,"tW":11684,"}_{-(":11685,"}}]=[":11686,"}^{-})_{":11687,"Ġnr":11688,"ĠBA":11689,"\\,\\|\\,\\":11690,"}}||_{\\":11691,"ets":11692,"\\![\\":11693,"]+(\\":11694,"447":11695,"785":11696,"]\\!]}\\":11697,"Ġproblem":11698,"Quad":11699,")})]":11700,"+}=\\":11701,",{}^{\\":11702,"-}=":11703,"het":11704,"pI":11705,"vG":11706,"yc":11707,"Ġ})|\\":11708,"})}\\,,\\":11709,"^{\\|\\":11710,"}(\\#\\":11711,"nus":11712,"Ġ{-(":11713,"trivial":11714,"}\\|).\\]":11715,"Ġkg":11716,"<\\!\\":11717,"ĠcKP":11718,"ĠInitial":11719,")\\,:=\\":11720,"}},|\\":11721,"Ġheigh":11722,"{\\|}.\\]":11723,"}}|}{|":11724,"Ġ$\\{":11725,")\\|_{(":11726,">\\!":11727,"230":11728,")\\|(\\":11729,"485":11730,"}):[":11731,"758":11732,"389":11733,"mogeneous":11734,")_{*}(":11735,"Euc":11736,"Perm":11737,"\\}))\\":11738,"}\\#\\{":11739,"}))^{*":11740,"}}}=-\\":11741,"}}\\},":11742,"geqq":11743,"^{*}+(":11744,"Ġ\\[\\,\\":11745,"Ġae":11746,"Ġ=:":11747,"ĠdH":11748,"ĠAcc":11749,"Ġpos":11750,"ĠDv":11751,"ĠGaussian":11752,"{{!":11753,"362":11754,")$.}\\]":11755,",\\,\\,\\,\\,":11756,"KSD":11757,"RSS":11758,"SYT":11759,"Value":11760,"fac":11761,"rR":11762,"wb":11763,"Ġ}||":11764,"Ġ]{":11765,"}\\}_{(":11766,"}))},\\":11767,"Ġ\\,-":11768,"}}}|^{":11769,"}}))-\\":11770,")}{(-":11771,"ĠNF":11772,"{)}|_{":11773,"Ġoccu":11774,"342":11775,"459":11776,"}):\\,\\":11777,"_{[\\![":11778,"{|}\\,\\,":11779,"missing":11780,"fill":11781,")\\},\\{(":11782,"=+":11783,"DI":11784,"Imp":11785,"Image":11786,"WV":11787,"\\})>":11788,"aco":11789,"Ġ)}=":11790,"Ġmult":11791,"input":11792,"}})^{*}\\]":11793,"}\\,\\|\\,":11794,"}}||^{":11795,",-}^{\\":11796,"|||\\":11797,"Ġanaly":11798,"}}:|":11799,"})},\\|\\":11800,"Ġdirect":11801,"csch":11802,"Ġgenerated":11803,"Ġeigenvalue":11804,"Ġstruct":11805,"!+\\!":11806,"Ds":11807,"Mg":11808,"VX":11809,"WX":11810,"\\}=(":11811,"xQ":11812,"Ġ}^{*}(":11813,"}\\}^{-":11814,"})}/\\":11815,"}{}_{*}":11816,"Ġ125":11817,"}})}\\\\":11818,"ĠAA":11819,"Ġcluster":11820,"ĠHy":11821,"tter":11822,"Imm":11823,"xxt":11824,"}(||\\":11825,")})).\\]":11826,"leftrightarrows":11827,"569":11828,"negative":11829,"Data":11830,"ĠParameters":11831,"!=\\!":11832,".}}{{=}}\\":11833,"688":11834,"Cg":11835,"aP":11836,"fdx":11837,"Ġphase":11838,"}_{:":11839,"phg":11840,")\\}^{\\":11841,"dap":11842,"}-((":11843,"}^{-})(":11844,"}^{*})_{\\":11845,"Ġ}})":11846,"cil":11847,"}\\|,\\|\\":11848,"}\\|_{(\\":11849,"}\\|_{*}\\":11850,"}&+":11851,"ĠBu":11852,"})}\\{":11853,"^{+}|\\":11854,"}+(|":11855,"}<_{\\":11856,")!}+\\":11857,"asc":11858,"647":11859,"}}:=\\{(":11860,",+}+\\":11861,"}}^{+},\\":11862,"})\\|\\|":11863,",\\;(":11864,"}!}.\\]":11865,"Filt":11866,"oblv":11867,"layer":11868,"periodic":11869,"*,\\":11870,"DQ":11871,"Hdg":11872,"Kg":11873,"Nz":11874,"qX":11875,"uP":11876,"^{*}}}{{\\":11877,"Ġ_{|":11878,"ĠRE":11879,"}}-[":11880,"stall":11881,",-},":11882,"2021":11883,"}}^{-,":11884,"dzdt":11885,"updownarrow":11886,"263":11887,"))\\,,\\":11888,"Ġcha":11889,"DoF":11890,";=\\;":11891,"=_{\\":11892,"XT":11893,"\\}}\\|\\":11894,"])}.\\]":11895,"cF":11896,"cS":11897,"fast":11898,"jc":11899,"kS":11900,"large":11901,"nleq":11902,"}^{-})^{\\":11903,"}})}}\\":11904,"}}))+\\":11905,"Ġnormal":11906,"idual":11907,"})-[":11908,"ĠIT":11909,"_{+})-\\":11910,")},(\\":11911,"{}_{[":11912,")!!}{":11913,"351":11914,"skw":11915,"052":11916,"293":11917,"607":11918,"iHt":11919,")$,":11920,"*}}\\":11921,">}\\":11922,"App":11923,"Dc":11924,"KJ":11925,"NX":11926,"Number":11927,"]})(":11928,"hK":11929,"Ġarg":11930,"}^{=":11931,"Ġ\\;\\;":11932,"{\\}}(":11933,"ftp":11934,"}_{\\|":11935,"^{*}&\\":11936,"))}|":11937,"}}_{+}(":11938,")}&-":11939,"})=(-\\":11940,"ĠTor":11941,"_{-}\\|_{":11942,"_{-})+":11943,"^{+}).\\]":11944,")]\\|_{":11945,"...=":11946,"{{+":11947,"ension":11948,"609":11949,"958":11950,")|\\,.\\]":11951,"Ġday":11952,"ĠThm":11953,"431":11954,";|\\":11955,"Bh":11956,"LX":11957,"So":11958,"Wx":11959,"stop":11960,"xk":11961,"|}[":11962,"Ġprox":11963,"Ġ))}\\":11964,"}\\}}+\\":11965,"}))}+\\|\\":11966,"^{\\#\\":11967,"variance":11968,"lace":11969,"^{*}/\\":11970,"}]\\|\\":11971,"}:-\\":11972,"}^{*})}\\]":11973,"}^{*}]\\]":11974,"ĠAi":11975,"Ġcho":11976,"_{*}[\\":11977,"_{*})}{":11978,"}_{+}).\\]":11979,"Ref":11980,")}=\\]":11981,"}}^{-}}\\":11982,"},\\,(\\":11983,"})]|\\":11984,"752":11985,"508":11986,"Ġmatch":11987,"Ġadja":11988,"ĠLipschitz":11989,"thogonal":11990,",||":11991,"Art":11992,"Total":11993,"given":11994,"Ġ)},":11995,"}}},&\\":11996,"^{*+":11997,"Ġ144":11998,"}^{*}})\\]":11999,"}\\,=":12000,"Ġevent":12001,"ĠDT":12002,"}\\}\\}\\":12003,"}([(":12004,"iks":12005,"}):=\\{(":12006,"klt":12007,"tel":12008,"053":12009,"087":12010,"769":12011,"SDE":12012,"Ġintegral":12013,"})\\|+\\|\\":12014,"Ġconverges":12015,"!+\\!\\":12016,".}{\\":12017,"En":12018,"Qv":12019,"\\}=-\\":12020,"Ġ})\\,":12021,"Ġtan":12022,"Ġ^{-(":12023,"})}),\\":12024,"}_{!":12025,"{\\}}<\\":12026,"=\\!(":12027,"susp":12028,"^{*},\\\\":12029,"}]].\\]":12030,"\\,:\\":12031,"dir":12032,"ĠEstima":12033,"{\\|(\\":12034,"ĠKO":12035,"chain":12036,")/|":12037,"):=[\\":12038,"}_{*}^{-":12039,"Ġdxd":12040,"turn":12041,"774":12042,",:}\\":12043,"{*}{":12044,"0110":12045,"Gm":12046,"PY":12047,"WB":12048,"face":12049,"iG":12050,"Ġ)}{(":12051,"}}}+(":12052,"}}\\;\\;\\":12053,"rich":12054,"matrices":12055,"))]=\\":12056,"}}),&\\":12057,"unr":12058,"{|}\\|":12059,"}[||\\":12060,"Ġball":12061,"Ġ1024":12062,"}))|_{":12063,"Ġ|}{":12064,"}\\!:=\\":12065,"Ġ\\,=\\,\\":12066,"}}^{+},":12067,");\\,\\":12068,")_{+}}\\":12069,"Ġspec":12070,"!,\\":12071,",((":12072,"Ġ)}^{\\":12073,"}\\}}}\\":12074,"{\\}},\\\\":12075,"adm":12076,"}|),\\":12077,"^{*}}^{-":12078,"^{*}}}{\\":12079,"}]}+":12080,"Ġib":12081,"ĠNot":12082,"}}}\\.\\]":12083,")_{|_{":12084,"})|)\\":12085,"}}[[":12086,"})\\|,\\]":12087,"766":12088,"Ġeverywhere":12089,"RSB":12090,"|/|":12091,"Ġperiodic":12092,"rizon":12093,".**":12094,";,\\":12095,"ZT":12096,"dddot":12097,"}\\{{\\":12098,"}}}>\\":12099,"}_{\\!\\":12100,"Ġ_{*}\\":12101,"ĠSW":12102,"0025":12103,"}}\\,,\\,\\":12104,")},-":12105,"Ġ\\[+[":12106,"757":12107,"292":12108,"}=[(\\":12109,"380":12110,"080":12111,"}=|\\{":12112,"Ġstart":12113,"rollary":12114,"Ġstiff":12115,"PRM":12116,"Sig":12117,"bN":12118,"bR":12119,"hard":12120,"mF":12121,"sR":12122,"Ġell":12123,"Ġ}}\\\\":12124,"Ġ^{+}\\":12125,"})^{*}}\\":12126,"}_{|_{":12127,"}}}}{{":12128,"}{}^":12129,")\\;\\;":12130,"^{-}-\\":12131,"{)}:=":12132,"cofib":12133,"}^{*}},":12134,"}^{*}})\\":12135,"Ġflat":12136,"}})^{*}(":12137,"Ġvis":12138,"Ġvir":12139,"{[}[\\":12140,"}}+\\|(\\":12141,"}))\\|_{\\":12142,"}\\}\\!\\":12143,"}}^{*}\\|_{":12144,")!!\\":12145,"preModule":12146,"ikj":12147,"646":12148,"407":12149,"\\[(-)^{\\":12150,"Grass":12151,"Env":12152,"Jy":12153,"QL":12154,"Sim":12155,"\\}>\\":12156,"batch":12157,"Ġ))=":12158,"Ġ)+(":12159,"sus":12160,"^{*}}\\,\\":12161,"\\{\\{\\":12162,"Ġsk":12163,"ĠTe":12164,"1296":12165,"Ġps":12166,"ĠNone":12167,"}}=\\{(\\":12168,"})^{\\#":12169,"}_{+}:\\":12170,"}_{-}}":12171,")\\|}{":12172,"}$}}\\":12173,"952":12174,"SDP":12175,"})\\!+\\!\\":12176,"Ġaverage":12177,"while":12178,"!\\|":12179,")$,}\\\\":12180,"/((":12181,"310":12182,"Cw":12183,"Ei":12184,"Jg":12185,"\\((":12186,"kji":12187,"})^{*},":12188,"})};\\]":12189,"})]=[":12190,"{\\!":12191,"}|}|\\":12192,"[\\;\\":12193,"}]}-":12194,"}]&=\\":12195,"));":12196,"}\\,\\{":12197,"ĠLear":12198,"1110":12199,"^{*}({\\":12200,"_{[(":12201,"uppi":12202,"302":12203,"967":12204,"Ġcontaining":12205,"Ġsignal":12206,"))^{*}\\]":12207,"rdrdx":12208,"Theorem":12209,"seudo":12210,"-)=":12211,".}\\;":12212,"POD":12213,"\\}|=\\":12214,"]|\\]":12215,"pop":12216,"uble":12217,"zT":12218,"lations":12219,"})\\,\\,":12220,"Ġ126":12221,"}]}-\\":12222,"\\{-(":12223,"simple":12224,")-\\|":12225,"Ġscale":12226,"_{*}),\\]":12227,"})}\\,\\]":12228,"\\[|[\\":12229,"}}|<\\":12230,"}_{+}=":12231,"_{[[":12232,"bas":12233,"}}^{*}+\\":12234,"406":12235,"ABA":12236,"Ġ{-}(":12237,"ranch":12238,"Ġcontrol":12239,"hypo":12240,"Bernoulli":12241,"+},\\":12242,".}.\\]":12243,"Ci":12244,"Cho":12245,"EZ":12246,"Wf":12247,"])\\\\":12248,"ao":12249,"ball":12250,"qS":12251,"uA":12252,"{*}\\":12253,"|}}.\\]":12254,"}\\}},\\":12255,"})})+":12256,"}}}=(\\":12257,"Ġ180":12258,"ĠSi":12259,"ĠSpe":12260,"Ġ\\(<":12261,"}]\\}.\\]":12262,"2345":12263,"2023":12264,"})][":12265,")}|}{":12266,",*}^{\\":12267,"},&|":12268,"089":12269,"097":12270,"000000":12271,"Ġcontained":12272,"&:":12273,",_{":12274,"MST":12275,"ZB":12276,"gP":12277,"next":12278,"zL":12279,"|]\\":12280,"})}=(\\":12281,")\\}}\\]":12282,"naive":12283,"^{-},\\]":12284,"}]))\\]":12285,")}*":12286,"ĠAt":12287,")\\,-\\,":12288,"ĠRMSE":12289,"ĠDP":12290,"};\\,\\,-":12291,"}:=&\\":12292,"}}:=\\|\\":12293,"404":12294,"}{}{-":12295,"{\\}};\\]":12296,")}}[\\":12297,"GI":12298,"Hyp":12299,"LCB":12300,"Nis":12301,"To":12302,"WR":12303,"]:=\\{":12304,"cQ":12305,"ving":12306,"yr":12307,"Ġ})}(":12308,"Ġ)>":12309,"}}}^{*}":12310,"otential":12311,"^{*})=(":12312,"}:\\,\\,":12313,"Ġtd":12314,"ĠBe":12315,"}}=+\\":12316,"_{+}:=\\":12317,"^{+})-\\":12318,"erent":12319,"363":12320,"}}}{{=}}\\{":12321,"Ġself":12322,"Ġdivis":12323,"}\\,:\\,|":12324,"BDP":12325,"monic":12326,"Ġarbitra":12327,"FJ":12328,"KV":12329,"RY":12330,"]):=\\":12331,"qP":12332,"Ġcirc":12333,"})}:=":12334,")\\}(":12335,"opf":12336,")}\\,\\,\\":12337,"\\|).\\]":12338,"}^{-|":12339,"}^{*})\\\\":12340,"),\\{\\":12341,"ĠnT":12342,"Ġused":12343,"ĠTC":12344,"}^{+})(":12345,"Ġrn":12346,"ĠRx":12347,"})+\\\\":12348,"}}|<":12349,"}}\\,:\\,\\":12350,"^{*}})^{":12351,"Ġ}([":12352,"\\[=|\\":12353,"}_{-})\\]":12354,"},\\,{\\":12355,"enti":12356,"}\\!:":12357,"}\\!(\\":12358,"ance":12359,"283":12360,"}}^{+}}":12361,"values":12362,"Ġsubspace":12363,"Method":12364,"ĠProblem":12365,"Ġgene":12366,"normalsize":12367,")}^{*}":12368,"*|\\":12369,"707":12370,"UP":12371,"\\}}^{(":12372,"^{!}(":12373,"})})^{-":12374,"})\\|}\\":12375,"}|:\\":12376,"^{*}}_{\\":12377,"}^{-}<\\":12378,"})^{(-":12379,"ijab":12380,"}}^{\\,":12381,"Ġstable":12382,"Ġ\\([\\":12383,"ĠRa":12384,")}|=\\":12385,"action":12386,"interleave":12387,"ABCD":12388,"261":12389,"Ġintegers":12390,"+}+\\":12391,"-}\\]":12392,"\\}}}":12393,"|})^{":12394,"|)_{":12395,"^{?":12396,")\\|\\,":12397,"}={}_{":12398,"{(}((":12399,"}=\\{-":12400,"count":12401,"}\\,;\\,\\":12402,"{(}\\|(":12403,"Ġ}})^{":12404,"484":12405,"Ġdense":12406,"966":12407,"469":12408,"eights":12409,"584":12410,"Ġdisk":12411,"Ġapproxi":12412,"947":12413,"Dm":12414,"Hit":12415,"Psh":12416,"XW":12417,"lmn":12418,"zm":12419,"|})":12420,"|}(-":12421,")\\}&\\":12422,"}=_{":12423,"{)}}=\\":12424,"cod":12425,"}^{((":12426,"}^{-}}\\]":12427,"ĠCat":12428,"}});":12429,"),\\,\\,\\":12430,"ijr":12431,"Ġsat":12432,"{\\|}\\|":12433,"Ġ(\\|":12434,"}}\\,^{":12435,"}_{*})":12436,"})&(\\":12437,"}}:\\,":12438,"})]\\,\\":12439,"}}^{+}_{":12440,"888":12441,"957":12442,"Prof":12443,"Ġadd":12444,"\\[\\#_{":12445,"Poisson":12446,"Ġ\\(>\\)":12447,"semistable":12448,"Ġdecreasing":12449,"Ġalgorithm":12450,"464":12451,"bM":12452,"yi":12453,"Ġ))=\\":12454,"}}})+\\":12455,")\\#\\":12456,"}=\\#":12457,"{)}_{(":12458,"Ġ{}_{\\":12459,"))),":12460,"}}){\\":12461,"spoly":12462,"Ġsd":12463,"ĠTS":12464,"_{*}\\|\\":12465,")\\,-\\,\\":12466,"ĠRIS":12467,"_{+}|^{":12468,"^{+}},\\":12469,")|\\,|":12470,"((|":12471,"(({\\":12472,"aby":12473,"Ġ_{\\{":12474,"Ġ)\\|\\":12475,"Ġ}}\\|_{":12476,",+},\\":12477,"HSIC":12478,"Quasicoherent":12479,"euc":12480,"Ġinjective":12481,"stalline":12482,"Cent":12483,"gG":12484,"vL":12485,"}.}\\]":12486,"toch":12487,"lab":12488,"bool":12489,"\\|}(":12490,"Ġfil":12491,"}})}_{":12492,"gent":12493,"_{*}\\|":12494,"_{(+":12495,"ĠRandom":12496,"}}+||\\":12497,"_{+-":12498,")|\\|":12499,"{-}{\\":12500,"Ġ-\\,\\":12501,"}}^{(+":12502,"}))}^{\\":12503,"Ġ|=":12504,"993":12505,"})]\\,":12506,"ission":12507,"443":12508,"}}]^{-":12509,"Ġtraining":12510,"}}&=&\\":12511,"Ġposition":12512,"ampling":12513,"thods":12514,"$}=\\":12515,"416":12516,"FO":12517,"\\};\\\\":12518,"fD":12519,"uF":12520,"xrightleftharpoons":12521,"^{[(":12522,"})})-":12523,"}}}}{{=}}":12524,"},{}_{":12525,"exit":12526,"}=\\,":12527,"egori":12528,"ĠdL":12529,"Ġ(+":12530,"_{*}),\\":12531,"_{*})^{\\":12532,"))\\|\\]":12533,"Ġvdx":12534,"\\,\\}.\\]":12535,"Ġ-(-":12536,"}))\\)":12537,",\\,\\|":12538,"}\\}\\}.\\]":12539,"dzds":12540,"}_{*}}(\\":12541,",+}\\|_{":12542,")$}\\":12543,"MCG":12544,"}\\,|\\,(":12545,"ĠLength":12546,"Ġperiod":12547,")}:=(\\":12548,"CBC":12549,"Glo":12550,"sW":12551,"twist":12552,"vh":12553,"||\\]":12554,"Ġ),(":12555,"}\\},\\,\\":12556,"},+}(":12557,")),(\\":12558,"Ġaction":12559,"ĠAl":12560,"Ġsl":12561,"_{*}})\\":12562,"ĠNe":12563,"Ġmt":12564,")},...,\\":12565,"{{<":12566,"}}}(-\\":12567,"481":12568,",*}=\\":12569,"Ġcoun":12570,"786":12571,"SOR":12572,"snr":12573,"ations":12574,"tained":12575,"Ġprim":12576,"!\\,(":12577,"079":12578,"Rot":12579,"Xg":12580,"|{}_{":12581,"ract":12582,"|_{(\\":12583,"}=\\#\\":12584,"Ġ&[":12585,"aper":12586,"}\\,,&":12587,"ĠLM":12588,"{)}\\,(":12589,"Ġkin":12590,"Ġ\\({}^{\\":12591,"_{*})^{-":12592,"Ġrun":12593,"^{+})+\\":12594,"):=\\|\\":12595,"}_{*}}":12596,")!}\\,":12597,"ĠObj":12598,"([(":12599,"nian":12600,",+}^{(":12601,"}}]}{\\":12602,"666":12603,"_{\\#}^{":12604,"abcde":12605,"dence":12606,"Ġtransm":12607,"Ġfactors":12608,"Haar":12609,"volution":12610,"Ġcorrespond":12611,").}\\]":12612,"Tran":12613,"mI":12614,"plan":12615,"rst":12616,"|{":12617,"Ġ}\\,,\\]":12618,"Ġ](":12619,"Ġmatrices":12620,"lap":12621,"}|)}{\\":12622,"vergence":12623,"}}^{-(":12624,"^{*})|":12625,"}}{\\,\\":12626,"dxdr":12627,"ĠSy":12628,"ĠVal":12629,"ĠDh":12630,"_{+}\\,\\":12631,"_{+}}+\\":12632,"_{+})(":12633,"trs":12634,"}}\\|+":12635,"(|(":12636,"))=|":12637,"Ġthrough":12638,"pres":12639,"Ġ\\,|\\,\\":12640,")}|+\\":12641,"0004":12642,"Ġdes":12643,"elds":12644,"essinf":12645,"094":12646,")*_{\\":12647,"CFD":12648,"Ġdisjoint":12649,"}$,}\\]":12650,"})\\|+\\|":12651,"embed":12652,">.\\]":12653,"Hw":12654,"VF":12655,"\\}}}{\\":12656,"\\}|+":12657,"fig":12658,"|}&\\":12659,"Ġri":12660,"Ġ],":12661,"}\\{[":12662,"}}}}=":12663,"}|)\\,\\":12664,")=&-\\":12665,"^{*}}[":12666,"{)}+(\\":12667,"}^{*}<\\":12668,"}^{*}=-":12669,")))\\,":12670,"^{((":12671,"spe":12672,"ĠBD":12673,"_{-}|\\":12674,"_{-}<":12675,"Ġgradient":12676,"ĠGS":12677,"tting":12678,"}$}":12679,"566":12680,"Ġcoordin":12681,"}}:[":12682,"ometric":12683,"}.(\\":12684,"^{\\#}(\\":12685,"vided":12686,"}}\\!\\!\\!":12687,"$})=":12688,"319":12689,"=[-":12690,"=[(":12691,"Ks":12692,"Seq":12693,"UCB":12694,"WG":12695,"]})+\\":12696,"qftp":12697,"Ġph":12698,"Ġ&\\|":12699,"}|)|\\":12700,"\\|:":12701,"}^{-,\\":12702,"ĠCc":12703,"\\,]":12704,"}}_{*}\\":12705,"{|}&\\":12706,"{|}\\,.\\]":12707,"}}^{\\{\\":12708,"ĠSA":12709,"_{*}}=\\":12710,"_{-})(":12711,"ĠNt":12712,"Ġyear":12713,"}[\\{\\":12714,"True":12715,"emi":12716,")&\\\\":12717,"Ġ800":12718,"}})=\\{\\":12719,"487":12720,"489":12721,"509":12722,"}&=&-":12723,"{|}\\,\\,\\":12724,"}}\\!-\\!":12725,"vice":12726,"respectively":12727,"\\{+,-\\":12728,"(^{":12729,")}}(-":12730,"429":12731,"CAC":12732,"FU":12733,"])}(":12734,"cP":12735,"cover":12736,"qg":12737,"rU":12738,"mate":12739,"})))_{":12740,"Ġ&-(":12741,"Ġ&+(\\":12742,"}|)-\\":12743,")=+":12744,"Ġdb":12745,"Ġki":12746,"ĠSpan":12747,"fol":12748,"):={\\":12749,"}}^{*}}":12750,"271":12751,"\\{((":12752,"symmetric":12753,")$},\\]":12754,"pping":12755,"CFL":12756,"Ġprocess":12757,"Ġiteration":12758,"PINN":12759,"$}-\\":12760,"396":12761,"NLoS":12762,"jL":12763,"qC":12764,"wq":12765,"Ġ)/\\":12766,"})})}\\":12767,"})*_{":12768,"}]}_{\\":12769,"\\|_{{}_{\\":12770,"))},":12771,"\\{||":12772,"}})/(":12773,"Ġuu":12774,"Ġ=&-":12775,":=\\|":12776,"}&[\\":12777,"ĠSG":12778,"))\\,\\]":12779,"Ġ-}(":12780,"ĠPoly":12781,"Ġbase":12782,"Ġgra":12783,",\\,[":12784,"}|_{(\\":12785,"based":12786,"):\\;":12787,"{)}\\,.\\":12788,"})<-":12789,"}^{\\#}(\\":12790,"^{!}_{\\":12791,"Core":12792,"lassical":12793,"spherical":12794,"acobi":12795,")})+(":12796,"Nj":12797,"Nv":12798,"Test":12799,"Teich":12800,"[{":12801,"]}]\\":12802,"bF":12803,"image":12804,"ose":12805,"pow":12806,")\\}\\,.\\]":12807,"atter":12808,"^{*})|\\":12809,"}]^":12810,"}^{-}}(\\":12811,"ĠSS":12812,"ĠInf":12813,"}^{+}/":12814,"ĠPD":12815,"ĠGP":12816,")}^{+\\":12817,"}}|\\,\\":12818,"Spr":12819,"}$;}\\\\":12820,"Length":12821,"0551":12822,"\\%,":12823,"449":12824,"Ġmass":12825,"Ġ&&+\\":12826,"})_{+}\\]":12827,"Ġstd":12828,"Ġproperty":12829,"Ġsuper":12830,"Ġtrivial":12831,"Ġadjacent":12832,")_{-}\\":12833,";&":12834,"TEP":12835,"kX":12836,"|\\}.\\]":12837,"integ":12838,"parti":12839,"{(}{":12840,"}^{*})}":12841,"}}_{*}(\\":12842,"}\\|-\\|":12843,"Ġny":12844,"ĠAP":12845,"ĠSGD":12846,"_{*}}+\\":12847,"_{*}}[":12848,"\\,\\|\\,":12849,"Ġbot":12850,"};|":12851,"shea":12852,"}_{+}}|":12853,"1324":12854,")!!}\\":12855,")})<\\":12856,"uppsi":12857,"updelta":12858,"477":12859,"}\\}+\\{":12860,"ĠExample":12861,"ĠName":12862,")}]_{\\":12863,"440":12864,"Fh":12865,"Non":12866,"Rt":12867,"UX":12868,"Vx":12869,"]}:\\":12870,"nG":12871,"xS":12872,"}\\}/\\":12873,"})}||":12874,"}))}\\|":12875,"},.":12876,"Ġ&|":12877,"Ġ130":12878,"ĠCv":12879,"))}}{\\":12880,"}})}-\\":12881,"}|\\,|\\":12882,"ĠAc":12883,"Ġmp":12884,"ĠFull":12885,"1112":12886,"ptR":12887,"}}|}{\\":12888,"Ġori":12889,"}^{*}(-\\":12890,"}\\!:=\\!\\":12891,"497":12892,"Kerr":12893,"091":12894,"Std":12895,"dner":12896,"_{\\#}(":12897,"Comm":12898,"{\\#}":12899,"&=-":12900,"Rn":12901,"UD":12902,"Ult":12903,"bT":12904,"Ġ))+\\":12905,"that":12906,"ardner":12907,"tries":12908,"}^{-}).\\]":12909,"}^{-})+\\":12910,"}|\\}.\\]":12911,"Ġsph":12912,"}}=\\\\":12913,"}}=&\\":12914,"|_{\\{":12915,")}+\\]":12916,"})]}\\]":12917,"}|_{\\{":12918,"2880":12919,"}]^{<\\":12920,",+}\\]":12921,",+},":12922,"})\\;=\\;":12923,"olutions":12924,"Ġmaximum":12925,"Ġabsolute":12926,"&[\\":12927,"Cf":12928,"Enc":12929,"QB":12930,"Sph":12931,"iZ":12932,"Ġ})\\\\":12933,"}\\}}^{\\":12934,"}\\})-":12935,"})})+\\":12936,"=\\)":12937,"}}\\),":12938,"hock":12939,"}|}\\,":12940,"rch":12941,"}}_{[\\":12942,"}\\,\\,(":12943,"ĠAE":12944,".\\;":12945,"Ġpres":12946,"}^{+}<\\":12947,"\\[(\\|":12948,"}})\\}.\\]":12949,"_{+}|\\":12950,"}}^{-},":12951,"Ġthus":12952,"\\[\\{\\{\\":12953,"}\\!:\\":12954,"anish":12955,"|(|\\":12956,")}|+":12957,"dasharrow":12958,"442":12959,"063":12960,"Ġ*}}\\":12961,"951":12962,"954":12963,")}:=\\|":12964,"^{**},":12965,"Ġbefore":12966,"*|":12967,"577":12968,"700":12969,"hJ":12970,"uT":12971,"Ġ})|^{":12972,"}\\}}=":12973,")\\},\\\\":12974,"}|(|\\":12975,"}|/|":12976,")=[(":12977,"{)}}_{":12978,"}^{-}|\\":12979,"Ġul":12980,"ĠdU":12981,"ĠDC":12982,"})-\\{":12983,"Ġht":12984,"}_{+}\\\\":12985,")\\,\\|\\":12986,"Ġ}(|":12987,")_{\\#}\\":12988,"\\!\\{":12989,")^{*},\\":12990,"ectral":12991,"394":12992,"Ġ*})\\":12993,"mmse":12994,"{*}{\\":12995,"circlearrowright":12996,"Ġnegative":12997,"*}=":12998,">}":12999,"Bq":13000,"DAlg":13001,"Euler":13002,"JF":13003,"Rh":13004,"Sin":13005,"Shi":13006,"ideal":13007,"|))\\":13008,"Ġ]_{\\":13009,"}\\})^{":13010,"invariant":13011,"ally":13012,"ared":13013,"^{-}},\\":13014,"}+\\,":13015,"[\\!":13016,"\\,,&":13017,"}\\|}=\\":13018,"ĠBU":13019,"ĠDL":13020,")]+[":13021,"ild":13022,"})|}.\\]":13023,"**(":13024,"**\\(\\":13025,"Ġ+(-":13026,"2020":13027,"Ġ}^{[":13028,"\\[=[":13029,")}}{|\\":13030,")\\|\\|\\":13031,"}||(\\":13032,"755":13033,"558":13034,"}!\\,":13035,"\\#(":13036,"}|<|\\":13037,"CRB":13038,"constraint":13039,"{}{{":13040,"\\:.\\]":13041,"\\)=":13042,"iU":13043,"nQ":13044,"xN":13045,"Ġ}|}\\":13046,"}={}^{\\":13047,"))}{|\\":13048,"Ġtp":13049,"{|}}\\":13050,"\\|\\,\\|":13051,"\\{\\!\\!\\":13052,"_{-};":13053,"_{-}\\|_{\\":13054,"0020":13055,"ĠMAX":13056,"ĠRad":13057,"ĠKdV":13058,"Ġwave":13059,"perfd":13060,"(((\\":13061,"})|^":13062,"}}\\|{\\":13063,"\\[[[\\":13064,"Ġ|+":13065,"454":13066,"373":13067,"797":13068,"})^{*},\\]":13069,"]\\!],\\":13070,"})[[":13071,"Ġlearning":13072,"])=[\\":13073,"Ġhold":13074,"Multi":13075,"Downarrow":13076,"fppf":13077,"richlet":13078,"#\\{(":13079,"060":13080,"Beta":13081,"Kz":13082,"Mc":13083,"TJ":13084,"VG":13085,"Xe":13086,"wk":13087,"yR":13088,"Ġ}}}\\]":13089,"deR":13090,"}|}\\\\":13091,"\\|}(\\":13092,"parameter":13093,"ĠCG":13094,"}^{*}|_{":13095,"}})}-":13096,"}}))}\\":13097,")+(-\\":13098,"ĠdN":13099,"Ġscheme":13100,"_{*}{\\":13101,"^{+}|_{":13102,"}>=":13103,"}_{+}}(\\":13104,"2304":13105,"}^{*}({\\":13106,"}$}_{":13107,")}|(":13108,"965":13109,"061":13110,"086":13111,"668":13112,"ĠAvg":13113,"ĠPoi":13114,"Ġcenter":13115,"pochs":13116,".}\\,":13117,"Abs":13118,"Fo":13119,"qL":13120,"vity":13121,"})})_{\\":13122,"},*}(":13123,"})\\|^{\\":13124,"}-)\\":13125,"egel":13126,"ends":13127,"ĠCZ":13128,"}}_{|":13129,"}^{+})}":13130,"Ġyy":13131,"Ġrx":13132,"Ġ108":13133,"}_{*}+\\":13134,"Ġ|(\\":13135,"}):\\]":13136,"507":13137,"880":13138,"SSYT":13139,"ĠDeep":13140,"Ġstandard":13141,"IFAR":13142,"ĠLoss":13143,"${\\":13144,"$}}(":13145,"*)\\]":13146,"-||":13147,"301":13148,"DJ":13149,"FK":13150,"Lz":13151,"MIN":13152,"WM":13153,"hgh":13154,"micro":13155,"Ġfrac":13156,"mathacc":13157,"}}};":13158,"arch":13159,"}|)\\,":13160,"lice":13161,"^{*})]\\":13162,"}^{*}}[":13163,"unfold":13164,"}|\\{\\":13165,"ĠBG":13166,"dian":13167,"sts":13168,"\\[|\\!|\\!|":13169,"(-\\|":13170,"}_{+}}|\\":13171,"}+((\\":13172,"})|)\\]":13173,"Ġ\\[+\\,":13174,"))^{+":13175,"backsim":13176,"ĠOD":13177,"\\},\\;\\":13178,"{\\}}\\.\\]":13179,"084":13180,"{|}\\,|":13181,"rance":13182,"timization":13183,"mathaccent":13184,")}}}(":13185,")*}\\":13186,")}],\\]":13187,".+(":13188,"525":13189,"<\\|\\":13190,"]}&":13191,"]};":13192,"kP":13193,"pure":13194,"wR":13195,"Ġsucc":13196,"Ġ))-\\":13197,"^{[-":13198,"}(_{":13199,"})$}.\\]":13200,"Ġ\\}=\\":13201,"}_{\\{\\|":13202,"}|+\\|":13203,"Ġiu":13204,"Ġaxi":13205,"Ġ}\\}.\\]":13206,"{(}[-":13207,"Ġkj":13208,"Ġsr":13209,"Ġskew":13210,"vector":13211,"ĠIter":13212,"{]}}\\]":13213,"{]}&\\":13214,"Ġ{\\|\\":13215,"}})\\.\\]":13216,"_{+}}}\\":13217,"^{+}}}\\":13218,"ĠGu":13219,"Rec":13220,"^{*}(-\\":13221,"other":13222,")\\|^":13223,"Ġ\\,\\|":13224,"561":13225,")}}<\\":13226,"Ġsech":13227,"Ġmetric":13228,"]:|":13229,"complex":13230,"Ġuniform":13231,"^{!}(\\":13232,"compact":13233,"hydro":13234,"+...+":13235,"840":13236,"Alb":13237,"ODE":13238,"]{(":13239,"]$}.\\]":13240,"wdx":13241,"|)}(":13242,"Ġtriangle":13243,"Ġ^{*}_{":13244,"Ġ}]_{":13245,"rated":13246,"}}}:=":13247,"_{\\!\\!\\":13248,"load":13249,"))}{(\\":13250,"}}))+":13251,")}/(":13252,")}<+\\":13253,"ĠLC":13254,"ĠAb":13255,"}}=-(":13256,"_{+})+":13257,"^{+}:=\\":13258,"]}\\{\\":13259,"-(|":13260,"Ġinvariant":13261,"})(\\|":13262,"}=-\\,\\":13263,"Ġisomorphism":13264,"Ġ}{{\\":13265,"ences":13266,"ask":13267,"}\\;.\\":13268,")^{*})\\]":13269,"563":13270,"0006":13271,",*},\\":13272,"Dual":13273,"Ġ*},\\":13274,"!\\!/\\":13275,"589":13276,"fine":13277,"})\\!-\\!":13278,"Ġfinitely":13279,"_{\\!{}_{":13280,"}^{{}_{(":13281,"GOE":13282,"Feyn":13283,")[\\![":13284,"AMP":13285,"Hv":13286,"JB":13287,"Leg":13288,"Ram":13289,"]*":13290,"between":13291,"nis":13292,"war":13293,"^{{}^{(":13294,"})}=-":13295,"}|}^{\\":13296,"}^{-}),\\":13297,"))))\\":13298,"Ġfa":13299,"Ġ=\\|(":13300,"}&(-":13301,"Ġcx":13302,"vect":13303,"ĠEB":13304,"}),|":13305,"}_{+})}":13306,"1423":13307,"dzd":13308,"}_{*}}(":13309,"ches":13310,"Ġ|{\\":13311,"})](\\":13312,"3600":13313,"}}[\\![":13314,")}\\,=\\,\\":13315,"291":13316,"062":13317,"Ġ{*},\\":13318,"Ġ{*},":13319,"^{**}":13320,"Ġarea":13321,"}|\\,,\\]":13322,"imen":13323,"ĠAdam":13324,"!\\|\\":13325,")})=(\\":13326,"-),":13327,"540":13328,"ECT":13329,"IBr":13330,"Km":13331,"VU":13332,"jy":13333,"zB":13334,"Ġ}\\,(":13335,"}).}\\]":13336,"}))+(\\":13337,"}}!":13338,"}}\\})\\":13339,"},(-\\":13340,"},[-":13341,"^{-[":13342,")}\\;,\\]":13343,"}/[\\":13344,"ĠLea":13345,"Ġkr":13346,"ĠTop":13347,"}}}\\;\\":13348,"^{+}}-\\":13349,"}_{+}:":13350,"^{*}([":13351,"dividual":13352,"\\[=\\|":13353,"||}{":13354,")!(\\":13355,")!}(\\":13356,"961":13357,"793":13358,"592":13359,"690551":13360,"]\\,:\\,":13361,"^{(-)}_{":13362,"composition":13363,"})_{+}^{\\":13364,"})\\!+\\!":13365,"mono":13366,"``\\":13367,"Hodge":13368,"sheaves":13369,"imension":13370,")}})=\\":13371,"524":13372,":\\{\\":13373,"Small":13374,"fic":13375,"lq":13376,"}\\})}\\":13377,"merical":13378,"}}})+":13379,"call":13380,"sur":13381,"erg":13382,"^{*})_{\\":13383,"^{*}\\|\\]":13384,"Ġ140":13385,"))]_{":13386,"{|}}{":13387,"Ġnh":13388,"}|\\;":13389,"}[:,":13390,"}\\,\\\\":13391,"{)}\\;,\\]":13392,"}}^{\\#":13393,"_{*})}":13394,"ĠHL":13395,"1221":13396,"_{-}|^{":13397,"0012":13398,"(-{\\":13399,"}_{*}\\|^{":13400,"astic":13401,")}))=\\":13402,"372":13403,"559":13404,"953":13405,"}\\,||\\,":13406,"dbl":13407,"Ġdual":13408,"Ġcopies":13409,"\"\\":13410,"\"\\]":13411,"-(-\\":13412,"445":13413,"DNN":13414,"JC":13415,"]}),\\]":13416,"ack":13417,"bS":13418,"har":13419,"jw":13420,"kI":13421,"wo":13422,"xE":13423,"xK":13424,"xm":13425,"}\\}=-":13426,"}_{\\_":13427,"sem":13428,"licy":13429,"))|=\\":13430,"\\,_{\\":13431,")}[-":13432,"rest":13433,"ĠLayer":13434,")^{\\#\\":13435,"ĠAccu":13436,"ĠBMO":13437,"ĠcR":13438,"ĠHC":13439,"ĠHess":13440,"}^{+}[\\":13441,"})_{+}":13442,"_{+}\\,":13443,"}}|}\\]":13444,"bran":13445,"})^{-(\\":13446,"^{*}<\\":13447,"}|_{{\\":13448,"\\;{\\":13449,"Ġ[[":13450,"983":13451,"poi":13452,"ĠReference":13453,"SWAP":13454,"Ġexponent":13455,",.)\\":13456,"Ġspeed":13457,"!}{(\\":13458,",[-":13459,"4226":13460,"ALG":13461,"IW":13462,"\\}\\|":13463,"has":13464,"wave":13465,"Ġ]^{\\":13466,"}_{=:":13467,"},\\,\\,\\,\\":13468,"erature":13469,"^{*}_{-":13470,"Ġ132":13471,"}^{*}((":13472,")))}{\\":13473,"Ġtv":13474,"}\\|)":13475,"Ġke":13476,"ĠBatch":13477,"itz":13478,"))\\},\\]":13479,"_{--":13480,")|}=":13481,":\\:\\":13482,"_{+}).\\]":13483,"})|(\\":13484,"}{||\\":13485,"Ġpairs":13486,")}):=\\":13487,"*}^{-":13488,"Ew":13489,"Sd":13490,"bL":13491,"bits":13492,"hR":13493,"idx":13494,"rM":13495,"zation":13496,"Ġ}))":13497,"Ġ)}|":13498,"Ġ))^{\\":13499,"}\\}),\\":13500,"}}}}_{":13501,"tis":13502,"}}\\;\\;":13503,"}+_{":13504,"}=\\{{\\":13505,"}|})\\":13506,"covol":13507,"comb":13508,"}})*\\":13509,"ite":13510,"ĠTf":13511,"Ġpol":13512,"Ġ\\[=\\,":13513,"ĠFil":13514,"}>_{\\":13515,"1313":13516,"Ġthis":13517,"}_{[-\\":13518,"885":13519,"trat":13520,"{{(*":13521,"Ġran":13522,"allowbreak":13523,"Ġgeneric":13524,"deRham":13525,",..":13526,";&\\":13527,"Space":13528,"]}\\,.\\]":13529,"bE":13530,"og":13531,"Ġ},\\]":13532,"-\\{\\":13533,"sult":13534,"}-||":13535,"}|})\\]":13536,"Ġ}\\!\\":13537,"]\\}_{":13538,"}[(-":13539,"Ġes":13540,"ĠHK":13541,"Ġglobal":13542,"^{+}}-":13543,")])^{":13544,"))=[":13545,")})\\|\\":13546,")^{*},":13547,"}|||\\":13548,"cted":13549,"}&=&-\\":13550,"393":13551,"073":13552,"elsewhere":13553,"Ġembed":13554,"423":13555,"425":13556,"875":13557,"Ig":13558,"OFF":13559,"ath":13560,"hI":13561,"pX":13562,"Ġ}+|":13563,"Ġ{(-":13564,"})),(":13565,"}}}}{(":13566,"}^{\\;":13567,"nach":13568,"})\\})\\]":13569,"^{-}}{\\":13570,"Ġabj":13571,"),(-\\":13572,"Ġkk":13573,"Ġcard":13574,"})-[\\":13575,"_{([":13576,"ĠMI":13577,"}(-,\\":13578,"etti":13579,"Ġ105":13580,"},\\,\\|":13581,"783":13582,"587":13583,"^{\\#},":13584,"\\#(\\":13585,"Ġoptimal":13586,"Ġsurface":13587,"Ee":13588,"NQ":13589,"Sa":13590,"cpl":13591,"rC":13592,"rV":13593,"wg":13594,"Ġ)})":13595,"})!}{":13596,"}}))_{\\":13597,"Ġnn":13598,"ĠBy":13599,"Ġser":13600,"_{-}),\\":13601,"}^{+}:=":13602,"ĠDS":13603,"ĠFS":13604,",-)\\]":13605,"})=((\\":13606,"}\\;|":13607,")^{*},\\]":13608,",*}}\\":13609,"390":13610,"Ġram":13611,"decreasing":13612,"ource":13613,").\\\\":13614,"421":13615,"Bk":13616,"Seg":13617,"XL":13618,"dden":13619,"kK":13620,"mG":13621,"||}\\":13622,"}..":13623,"^{{(":13624,"}\\};":13625,"\\[:=":13626,"dens":13627,"}=&-":13628,"sel":13629,"rors":13630,"}}^{|":13631,"Del":13632,"\\|}=\\":13633,"ĠCW":13634,"}^{*})\\|^{":13635,"Ġ=&(":13636,"ĠBL":13637,"ĠMini":13638,"(-|\\":13639,"/\\!/":13640,"Ġmx":13641,"ĠRm":13642,"ptl":13643,"\\[|\\!|\\!":13644,"Ġ(\\|\\":13645,"})|&\\":13646,"Ġindividual":13647,"}}[{\\":13648,"_{|(":13649,")^{*})\\":13650,"})<_{":13651,"!\\!\\{\\":13652,"Ġren":13653,"IJKL":13654,"}]}{[":13655,"MPC":13656,"........":13657,"{}{{}^{*}}{\\":13658,"ĠAccuracy":13659,"*}}":13660,"413":13661,"Qy":13662,"jec":13663,"qD":13664,"Ġ]+\\":13665,"}}\\}^{":13666,"^{-}),\\":13667,"}}^{[-":13668,"^{*})\\,":13669,"Ġ\\[\\,":13670,"}]\\,,\\":13671,"}^{*})=(":13672,"))]=":13673,"}})}\\|":13674,")|=(":13675,"{]}|":13676,")_{,":13677,"\\[(\\|\\":13678,"}}|)\\":13679,"382":13680,"780":13681,"]\\!.\\]":13682,"SSI":13683,"Ġ&&&-":13684,"Ġlabel":13685,"Weil":13686,"}|\\!|\\!|_{":13687,"ĠBias":13688,"odesic":13689,"ĠLearning":13690,"!-":13691,".}{":13692,"Bind":13693,"BAD":13694,"IRS":13695,"My":13696,"Xw":13697,"]}\\)":13698,"]],\\":13699,"ele":13700,"mQ":13701,"occ":13702,"qdepth":13703,"sJ":13704,"xU":13705,"Ġ},\\,":13706,"tative":13707,"},||":13708,"})\\},":13709,"}|)}{|":13710,"}]))\\":13711,"}^{*}},\\]":13712,"^{(|\\":13713,"Ġcar":13714,"Ġsb":13715,"1256":13716,"ĠMV":13717,"ĠMed":13718,"})+[\\":13719,"ĠDimension":13720,"}_{+}},\\":13721,")}_{-\\":13722,"]^{[":13723,"}}^{-},\\":13724,")})^{*}\\":13725,"361":13726,"0008":13727,")}}>":13728,"506":13729,"763":13730,"]\\!].\\]":13731,"092":13732,"777":13733,")_{*}(\\":13734,"527":13735,"801":13736,"<{\\":13737,"AO":13738,"Hur":13739,"Sep":13740,"])/":13741,"gq":13742,"lar":13743,"pD":13744,"qF":13745,"wI":13746,"|}\\\\":13747,"Ġlet":13748,"Ġ)=(":13749,"}_{!}\\":13750,")^{**":13751,"}|}}\\]":13752,"^{*}}}^{":13753,"}^{*,*}(":13754,"}}_{-\\":13755,"Ġks":13756,"}&-(":13757,"_{*}([":13758,"}^{+}=(":13759,"ĠRL":13760,"1101":13761,"}),|\\":13762,"\\):":13763,"}}|>\\":13764,"ched":13765,")},\\|":13766,"})(\\|\\":13767,")}=|":13768,"}}^{*\\":13769,"ĠOb":13770,"}^{[*":13771,"}\\!:\\!\\":13772,")}):":13773,"}}]}\\]":13774,"height":13775,"|}{\\|\\":13776,"^{**}(\\":13777,"}}}{{=}}(\\":13778,"\\)\\(\\":13779,"ĠGenera":13780,"Ġradius":13781,"{{<}}{{\\":13782,"){}^{":13783,".}(\\":13784,"\\}^":13785,"hU":13786,"way":13787,"|),":13788,"Ġmaps":13789,"Ġ}}{|":13790,"}}}))\\]":13791,"+\\{\\":13792,"}}^{{\\":13793,"Ġxn":13794,"Ġ240":13795,"Ġidentity":13796,"}})]=\\":13797,"{|}[\\":13798,"}\\|},\\":13799,"),-(":13800,"curacy":13801,"}/\\{\\":13802,"_{-}\\,\\":13803,"}),...,(":13804,"_{+}),\\":13805,"^{+}:":13806,"{--}":13807,"{)}.":13808,"Ġ**(":13809,")}))=":13810,"483":13811,"Ġcode":13812,"}!)^{":13813,"Algorithm":13814,"SAM":13815,"Ġchannel":13816,"valued":13817,"$}}}_{":13818,"+}=":13819,",<\\":13820,":[\\":13821,"Equ":13822,"]}),\\":13823,"bY":13824,"sY":13825,"some":13826,"Ġ]=\\":13827,"}\\}:\\":13828,"mary":13829,"})}}{\\|":13830,"Ġ\\{-":13831,"}+\\#\\":13832,"}|&":13833,"}|.\\":13834,"}];\\]":13835,"}^{*}\\|\\]":13836,")}[(":13837,"}^{+}),\\]":13838,"stru":13839,"_{+}},\\":13840,"_{+}^{*}\\":13841,":=[\\":13842,"stan":13843,"abd":13844,"Ġinto":13845,"Ġ|-":13846,")})\\}\\]":13847,")|_{(":13848,"446":13849,"083":13850,"494":13851,"074":13852,"}}\\;=\\;\\":13853,"iew":13854,"Ġdifferent":13855,"tivation":13856,"Ġoccurs":13857,"!}\\\\":13858,"HZ":13859,"KI":13860,"cpt":13861,"sV":13862,"vis":13863,"Ġ)}}{":13864,"Ġ}+|\\":13865,"dean":13866,"}=\\|(\\":13867,")}\\!\\!\\":13868,"lian":13869,"}^{*}}+":13870,"}\\,)\\]":13871,"Ġikx":13872,"Ġfail":13873,"}})})\\]":13874,"Ġafter":13875,"}/\\{":13876,"ĠLu":13877,"ĠSymbol":13878,"Ġpd":13879,")|+(":13880,"ĠNM":13881,"};&":13882,"Ġ\\,\\|\\":13883,"{)}\\,=\\,\\":13884,",+}+":13885,"491":13886,"key":13887,"ramified":13888,"Ġtransi":13889,"536":13890,"XS":13891,"[}\\":13892,"\\}:=\\":13893,"]}_{(":13894,"]},(":13895,"]]+[":13896,"hed":13897,"ok":13898,"Ġ}:=\\":13899,"Ġtarget":13900,"}^{!}":13901,"})}\\|_{\\":13902,"})):=":13903,"}))].\\]":13904,",\\{(":13905,"desuit":13906,"suc":13907,"Ġ124":13908,"}]-(":13909,"ĠtL":13910,"}})})\\":13911,"}})].\\]":13912,"Ġabc":13913,"ĠLE":13914,"ditive":13915,"_{*}}-":13916,"ĠHilb":13917,"bfd":13918,"Ġvia":13919,"Ġrd":13920,"ĠEM":13921,"}}-\\]":13922,"}\\):":13923,"}_{+}^{-":13924,"})|-|\\":13925,"}\\}\\.\\]":13926,"||(\\":13927,"}$}\\}.\\]":13928,"Cong":13929,"\\[-{\\":13930,"963":13931,"}&=&(":13932,"neigh":13933,"irth":13934,"461":13935,"463":13936,"Bimod":13937,"spadesuit":13938,"ĠCondition":13939,"!}(-":13940,"*})\\]":13941,"Bm":13942,"Gf":13943,"Get":13944,"MHM":13945,"NLS":13946,"Sgn":13947,"XV":13948,"\\}}&\\":13949,"]})-\\":13950,"]}{}^{":13951,"rQ":13952,"|)(\\":13953,"}\\}\\,":13954,"}\\}}+":13955,"}}})_{\\":13956,"=\\!\\!":13957,"=\\;(":13958,"rix":13959,"}^{\\#\\":13960,"}|]\\]":13961,"Ġfrequency":13962,"unk":13963,"}}^{\\,\\":13964,"}),\\|":13965,"^{+}}=\\":13966,"Ġ109":13967,"_{||\\":13968,"Coeff":13969,"353":13970,"acl":13971,"^{*},-":13972,"981":13973,"0625":13974,"554":13975,"\\[+(-":13976,"959":13977,")^{+}(":13978,"CFK":13979,"BMOL":13980,"Ġhorizon":13981,"GHZ":13982,"ĠComp":13983,"Ġprimitive":13984,"-}_{\\":13985,"<}\\":13986,"Ms":13987,"Ps":13988,"Qb":13989,"bK":13990,"econ":13991,"gxy":13992,"rI":13993,"zb":13994,"}\\}_":13995,")\\}}{\\":13996,"}^{\\|\\":13997,"holds":13998,"^{*}=-\\":13999,"^{*})]":14000,"{)};\\":14001,"}^{-}}{\\":14002,")),\\,\\":14003,"\\,)\\,\\":14004,"Ġty":14005,"ĠSo":14006,"ĠSw":14007,"ĠTP":14008,"ĠNet":14009,"ĠPV":14010,"_{+}}-\\":14011,"{\\|}\\|\\":14012,"^{+}_{(":14013,"}}-(-":14014,"}}|-\\":14015,"\\[|\\{(":14016,"}_{+})}\\]":14017,"}}\\|.\\]":14018,"}}[-\\":14019,"due":14020,"}\\;,\\\\":14021,"1920":14022,"}\\;\\;\\;":14023,"Ġ*},":14024,"Dirac":14025,"}!}{\\":14026,"Ġunif":14027,"Ġ\\!-\\!":14028,"}}]=[\\":14029,"}}&=&":14030,"Ġgain":14031,"Ġderivative":14032,"422638":14033,"={}^{":14034,"SZ":14035,"vj":14036,"xdx":14037,"Ġ}_{-":14038,"rang":14039,"})}+|":14040,"}))^{*}\\":14041,"Ġ\\{|":14042,"}}})(\\":14043,"^{-,":14044,"}^{*}{":14045,"}})}\\,\\":14046,"{|}\\|\\":14047,"prog":14048,"ĠBase":14049,"\\,\\\\":14050,"ĠRM":14051,"}}|=|\\":14052,")|\\}\\]":14053,"}\\{[\\":14054,")]\\}\\]":14055,"606":14056,")\\;:\\;":14057,"492":14058,"5760":14059,"Ġrange":14060,"ĠDef":14061,"}}_{+}^{":14062,"olume":14063,"shortmid":14064,")}],\\":14065,"*\\]":14066,"HMR":14067,"osp":14068,"xj":14069,"_{{}^{":14070,"})^{*})\\":14071,"})),&\\":14072,"Ġ\\})\\":14073,")\\}}{":14074,"opulation":14075,"Ġ&|\\":14076,"lift":14077,"{)}^{+}\\":14078,"{)}&=\\":14079,"}:\\,|":14080,"\\|_{{}_{":14081,")).":14082,"))})\\]":14083,"Ġfamily":14084,"orth":14085,"{|}^{-":14086,"Ġub":14087,"super":14088,"reed":14089,"ĠBM":14090,"ĠTu":14091,"_{*}}+":14092,"Ġepi":14093,"Ġ\\[={\\":14094,"})}\\}_{":14095,"Ġ-[":14096,"_{+})+\\":14097,"relint":14098,"ĠWeight":14099,"=((\\":14100,"1536":14101,"{]}\\.\\]":14102,"\\[[\\,\\":14103,"teri":14104,")}|+|":14105,"Ġdep":14106,"}):\\\\":14107,"}}^{+})\\]":14108,"782":14109,"082":14110,"462":14111,"^{*})^{*}\\":14112,"Ġseg":14113,"})}+\\|(":14114,"Ġpara":14115,"}^{(+)}(":14116,"ĠFigure":14117,"viation":14118,"Ġarbitrary":14119,"/_{\\":14120,"FDR":14121,"MRT":14122,"Rz":14123,"Skew":14124,"TOP":14125,"\\}|,\\]":14126,"eH":14127,"hT":14128,"sG":14129,"Ġ})|":14130,"}\\}}-\\":14131,"\\[:":14132,"},((":14133,"{)}^{*}":14134,"))})\\":14135,"\\{*":14136,"Ġtz":14137,"}}),&":14138,"Ġsw":14139,"ĠSemi":14140,"_{*}}^{-":14141,")\\,[":14142,")_{{}_{":14143,"Ġhalf":14144,"ĠGraph":14145,"}:=\\]":14146,"\\[=|":14147,"Ġ|\\,":14148,"}_{*}-":14149,"prev":14150,"\\[\\{\\,\\":14151,"klm":14152,")[(\\":14153,",\\;|":14154,"Ġvectors":14155,"Stand":14156,"Ġconstraints":14157,"satisfies":14158,"!\\{\\":14159,"Fm":14160,"nexists":14161,"|}<\\":14162,"Ġcurrent":14163,"}}}}-":14164,"})\\}\\\\":14165,"addle":14166,"^{-}\\|_{":14167,"seg":14168,"^{*})>":14169,"coe":14170,"}]_":14171,"}])_{\\":14172,"\\|},\\]":14173,"}^{-}&\\":14174,"}\\,)":14175,"Ġ}\\}\\]":14176,"}\\|/":14177,"reat":14178,"ĠLower":14179,"cking":14180,"ĠBr":14181,"ĠNaN":14182,"ĠFunction":14183,"ĠPR":14184,"ĠPSL":14185,"_{+}}=\\":14186,"_{+}^{*}\\\\":14187,"Ġbk":14188,"Ġgrid":14189,"^{+})}\\":14190,"\\}\\;\\":14191,")]}.\\]":14192,")]=-\\":14193,"}_{+}}{":14194,"}}\\,_{":14195,"2019":14196,")},[":14197,"}));\\]":14198,")})<":14199,"552":14200,"]\\!]=":14201,"Ġrequ":14202,"974":14203,"Ġdyn":14204,"Ġchain":14205,"Ġbased":14206,"which":14207,"ctrl":14208,"+}}":14209,"\\})}{":14210,"kJ":14211,"})};\\":14212,"}{{}_{":14213,"}}\\}}":14214,"Ġ129":14215,"}]]=\\":14216,"}^{*}]=":14217,"))],\\]":14218,"}})}|":14219,"ĠdM":14220,"Ġpotential":14221,")|{\\":14222,"}\\|\\,\\|":14223,")\\,;\\,":14224,"ĠDD":14225,"ĠPL":14226,"{\\|}\\,":14227,"^{+,\\":14228,"Ġ320":14229,"cept":14230,")]\\,.\\]":14231,",-}\\]":14232,"Ġlk":14233,")}=:":14234,"\\[=:\\":14235,"}}\\|\\|":14236,"}))[\\":14237,"})]\\|_{":14238,"conc":14239,")}|.\\]":14240,"acp":14241,",*}=":14242,"luid":14243,"]-\\{":14244,"555":14245,"\\}=\\{(":14246,"ĠRef":14247,"Ġ\\!-\\!\\":14248,"Ġregion":14249,"Ġgenerator":14250,".&.&.&.&":14251,"lization":14252,"Ġcritical":14253,"atures":14254,"964":14255,"928":14256,"972":14257,">+":14258,"Arc":14259,"Haus":14260,"\\})=\\{":14261,"]:(":14262,"nom":14263,"zM":14264,"|)/":14265,"||^{\\":14266,"|}}{|":14267,"Ġbox":14268,"Ġ}=(":14269,"Ġ]=":14270,"}))}_{":14271,"}}}\\,,\\":14272,"},+}\\":14273,"self":14274,"Ġ010":14275,"^{*}):=\\":14276,"^{*})\\,\\":14277,"^{*}|}\\":14278,"}^{-}),\\]":14279,"Ġil":14280,"cum":14281,"relax":14282,"ĠcT":14283,"})}\\;\\":14284,"}}}\\{\\":14285,"{]}>":14286,"{]}=-\\":14287,"ĠMar":14288,"Ġbu":14289,")|\\,|\\":14290,"((|\\":14291,")}}\\|_{":14292,")}\\,|\\,\\":14293,"AdS":14294,"ĠDet":14295,"_{>,":14296,"critical":14297,"1122":14298,",:}\\|_{":14299,"}}{{=}}(\\":14300,"ĠTraining":14301,"Ġvehicle":14302,"ĠSingle":14303,"$}\\,.\\]":14304,",&-":14305,"318":14306,"AST":14307,"FEM":14308,"GAP":14309,"Gauss":14310,"[]{\\":14311,"\\}\\|\\":14312,"]}/":14313,"])|\\":14314,"fR":14315,"tbinom":14316,"xxy":14317,"Ġ})\\|^{":14318,"Ġ^{*})\\":14319,"})};":14320,"Ġ\\#\\{":14321,"Ġ127":14322,"Ġabi":14323,"Ġdrd":14324,"Ġkh":14325,"ĠAnn":14326,"_{*}((":14327,"Ġpw":14328,")|}}\\":14329,"}\\|\\,\\|\\":14330,"Ġ^{|":14331,"forma":14332,"})}<+\\":14333,"}_{*}.\\]":14334,"}*&":14335,"}\\;|\\;":14336,"Ġ&=:":14337,"Ġ*&*&":14338,"571":14339,"ĠâĢľ":14340,"ĠCorollary":14341,"Ġnonzero":14342,"ropic":14343,"}^{**},":14344,"racte":14345,"|\\!|\\!|":14346,"}(*)\\":14347,"Siegel":14348,"sphericalangle":14349,")}^{*}(":14350,")}),\\\\":14351,"*\\\\":14352,"-}}":14353,">|\\":14354,"Dq":14355,"\\)-\\(":14356,"]}}.\\]":14357,"qK":14358,"qR":14359,"wacc":14360,"yI":14361,"zK":14362,"Ġ)[":14363,"}}}}-\\":14364,"otone":14365,"})\\:":14366,"})\\}+":14367,"^{*}||_{":14368,"patible":14369,"}^{-}\\}\\]":14370,"ijs":14371,"ĠAf":14372,"Ġsf":14373,"_{-}).\\]":14374,"Ġmoment":14375,"ĠFun":14376,"_{+}^{*":14377,"\\}\\!":14378,"relu":14379,"}))\\.\\]":14380,"})|,|":14381,"othe":14382,"\\;:\\;\\":14383,"Ġ[(\\":14384,"383":14385,")\\!)\\]":14386,"}!\\]":14387,"686":14388,"each":14389,"Ġlast":14390,"Ġdivisor":14391,"528":14392,"544":14393,"8192":14394,"PSS":14395,"Rd":14396,"YD":14397,"ZW":14398,"]})+":14399,"ez":14400,"gch":14401,"jH":14402,"qH":14403,"uB":14404,"\\[*\\":14405,"^{-}),":14406,"Ġ02":14407,"Dep":14408,"Ġ116":14409,"Ġ136":14410,"\\|{":14411,"rowth":14412,"))}}\\]":14413,"Ġff":14414,"ĠnkQ":14415,"cubic":14416,"Ġdc":14417,"ĠSample":14418,"_{*}},":14419,"Ġpert":14420,"ĠNu":14421,"}}}\\;":14422,"ĠInput":14423,"}^{+}\\,":14424,"_{+})_{":14425,"{\\|}\\!\\":14426,"ĠGe":14427,"}_{+}^{(":14428,")/[":14429,"}\\;\\;\\;\\":14430,")}\\,|\\,":14431,"+\\|(\\":14432,")_{+}.\\]":14433,"SAN":14434,"}_{\\#}(\\":14435,"}\\:.\\]":14436,"Ġdifferenti":14437,"-}=\\":14438,"Mb":14439,"Pw":14440,"Simp":14441,"]&=":14442,"ept":14443,"gU":14444,"sparse":14445,"|}(|":14446,"Ġ))-":14447,"}}\\{(\\":14448,"late":14449,"}+{}^{":14450,"lij":14451,"Ġcf":14452,"Ġsymbol":14453,"ĠSel":14454,"ĠStep":14455,"Ġ\\(=":14456,"_{*}},\\":14457,"_{-(\\":14458,"_{-}}}\\":14459,"ĠFed":14460,"}}+{":14461,"_{+}^":14462,"}}|-|":14463,"}=([":14464,"1323":14465,"}<\\|":14466,")}_{>":14467,"Ġalso":14468,"}}\\||":14469,")!}+":14470,")!\\,(":14471,")\\|<":14472,"453":14473,"prot":14474,"371":14475,"}))^{(":14476,"759":14477,",-\\,\\":14478,"nodes":14479,"781":14480,"peak":14481,"^{**})\\":14482,"^{**}-":14483,"TwSp":14484,"\\|\\,.\\]":14485,"Ġpost":14486,"Ġrepresentation":14487,",^{":14488,"099":14489,"Gv":14490,"Rk":14491,"eK":14492,"flip":14493,"mse":14494,"qE":14495,"tU":14496,"zR":14497,"Ġ^{+}(":14498,"}\\})+":14499,"^{-*":14500,"^{-}},":14501,"))}<\\":14502,"}})))\\]":14503,"}})^{*}(\\":14504,"}});\\]":14505,"ress":14506,"\\{\\!\\":14507,"ĠAX":14508,"ĠAz":14509,"}}+\\\\":14510,")|]\\":14511,"ĠMU":14512,"strong":14513,"ĠFE":14514,"_{+})^{\\":14515,"ĠKM":14516,"ĠUniform":14517,"}_{+}),\\":14518,"}_{+}^{*}\\":14519,"})_{\\#":14520,"ĠOPT":14521,"}}}((\\":14522,"}\\;\\,":14523,"any":14524,"Lev":14525,"370":14526,"|=\\|":14527,"|<|\\":14528,"^{\\#}_{":14529,"}{}{}]":14530,"ADM":14531,"Ġcapacity":14532,"ĠLeave":14533,",^{\\":14534,"424":14535,"847":14536,"Am":14537,"KZ":14538,"NIP":14539,"QY":14540,"Tt":14541,"ides":14542,"xC":14543,"Ġ])\\":14544,"}\\}|.\\]":14545,"mask":14546,"}}}([":14547,"Ġ{+}":14548,"Ġxt":14549,"}^{*}]_{":14550,")))}\\]":14551,"ĠiP":14552,"}\\|-\\|\\":14553,"ĠLL":14554,"}&:":14555,"^{-\\|\\":14556,"_{*}}_{":14557,"_{*}>":14558,"Ġmd":14559,"})|/":14560,"\\[=\\|\\":14561,"}\\!/_{":14562,"402":14563,"403":14564,"ccccccc":14565,",*)\\":14566,"}=[-\\":14567,"\\}=\\]":14568,"586":14569,")^{+},":14570,"_{!}^{\\":14571,"Ġquasi":14572,"Edges":14573,"!)\\":14574,".}}{\\":14575,"659":14576,"Lb":14577,"Osc":14578,"Sl":14579,"Ste":14580,"gtrap":14581,"Ġ)-(":14582,"Ġ})).\\]":14583,"}\\}\\|":14584,"mass":14585,"day":14586,"mulation":14587,"}|[\\":14588,"^{*}]\\]":14589,"Ġ122":14590,"Ġimage":14591,"\\,(-":14592,"Ġts":14593,"Ġur":14594,"ĠSq":14595,"ĠTF":14596,"Ġpaper":14597,"ĠPe":14598,")},\\;\\":14599,"etc":14600,")}\\,,":14601,"Ġdecay":14602,"Ġ}{\\|":14603,"Ġconjuga":14604,")})^{(":14605,"Ġsurj":14606,"}!}{(":14607,"689":14608,"})\\;,\\":14609,"orize":14610,"ĠProb":14611,"(.);\\":14612,"tochastic":14613,"ĠPoisson":14614,"gtrapprox":14615,"$}^{(":14616,".},":14617,"410":14618,"422":14619,"513":14620,"IAA":14621,"Vir":14622,"\\}}[":14623,"\\}}\\\\":14624,"]}_{[":14625,"mrk":14626,"pJ":14627,"uR":14628,"Ġlim":14629,"Ġ)),\\":14630,"})}}-\\":14631,"}=<":14632,"{(}||":14633,"}}^{{}^{":14634,"Ġ{[\\":14635,"}^{*^{\\":14636,"}}_{{}_{":14637,"),\\;\\;\\":14638,"Ġdue":14639,"ĠLB":14640,"{)}\\,\\,\\":14641,"ĠAF":14642,"ĠSNR":14643,"_{*}))\\":14644,"_{*})\\,":14645,"1222":14646,"1280":14647,"Ġvanish":14648,")|},\\":14649,"})_{/":14650,"ĠEG":14651,"}}|{\\":14652,"})|,|\\":14653,"}}\\|}\\":14654,")=([":14655,"^{*}(\\{":14656,"641":14657,"anced":14658,"Ġdxds":14659,"})\\|\\|\\":14660,")}\\,\\|":14661,"070":14662,")\\!,\\":14663,"},\\;(":14664,"Ġ{+}}\\":14665,"virt":14666,"}}}{{=}}-\\":14667,"}}_{+}(\\":14668,"ĠComple":14669,"inner":14670,"Ġcyclic":14671,"+,\\":14672,"0123":14673,"Dd":14674,"EU":14675,"Est":14676,"MY":14677,"QK":14678,"jik":14679,"mY":14680,"vA":14681,"Ġname":14682,"Ġ}_{\\{":14683,"Ġ}}}.\\]":14684,"Ġ``":14685,"\\[:\\":14686,"}}}]":14687,"},||\\":14688,"lable":14689,"textminus":14690,"}}([-":14691,"^{*}}[\\":14692,"Ġ117":14693,"Ġ192":14694,"coarse":14695,"}})}+\\|\\":14696,"Ġ}\\,\\,\\":14697,")+_{":14698,"})={":14699,"ĠdZ":14700,"Ġgd":14701,"ĠGD":14702,"lnot":14703,"pers":14704,"}/\\!\\!/":14705,"}}\\|+\\":14706,"))^{*}":14707,"}}^{*},\\]":14708,"Ġ104":14709,"^{*}_{[":14710,"Ġ\\|{\\":14711,")})|^{":14712,"562":14713,"}||.\\]":14714,",+}=\\":14715,")})^{-\\":14716,")_{+}}{":14717,"SEP":14718,"})}_{=":14719,"RST":14720,"Ġexactly":14721,"Ġuser":14722,"!+":14723,")}})_{":14724,"098":14725,"Fg":14726,"Jd":14727,"Nw":14728,"QU":14729,"ZA":14730,"\\}]":14731,"\\})_{":14732,"]})-":14733,"bC":14734,"kV":14735,"vn":14736,"{+\\":14737,"|)}{|\\":14738,"Ġ)}_{\\":14739,"})...\\":14740,"rift":14741,"^{-}).\\]":14742,"sets":14743,"\\,:=\\,\\":14744,"Ġangle":14745,"]\\;,\\]":14746,"ult":14747,"_{+}&":14748,"Ġhf":14749,"Ġgl":14750,"^{+})+":14751,"{\\{}[\\":14752,"})}{-":14753,"}))\\|":14754,"}_{+})}.\\]":14755,"}{|(":14756,"^{*}((\\":14757,"}}\\|=\\":14758,"\\[=\\{":14759,"dzdw":14760,")!.\\]":14761,"Ġ|+|":14762,"+|\\{":14763,"451":14764,"081":14765,"SOC":14766,")\\!)\\":14767,"}))}\\|\\":14768,"_{<}(":14769,"Ġ{+}^{":14770,"Ġnull":14771,"SWF":14772,"dense":14773,"ASSO":14774,"Ġsource":14775,"ĠVariable":14776,"Ġminimum":14777,"Ġneighborhood":14778,"Ġassoci":14779,")}),(":14780,"+}-":14781,"+}-\\":14782,"BSO":14783,"CJ":14784,"ROM":14785,"\\})}\\]":14786,"hN":14787,"jf":14788,"Ġ),\\\\":14789,"Ġtriv":14790,"}^{/":14791,"raction":14792,"}{}^{*}\\":14793,"quo":14794,"^{-})+":14795,"Ġ&\\{":14796,"{)},\\,":14797,"comm":14798,"ĠClass":14799,"Ġ}}).\\]":14800,")+((":14801,")}&-\\":14802,"}\\,\\{\\":14803,"ĠVe":14804,"ĠEd":14805,"}}+...+":14806,"...\\,":14807,"}}\\,=\\":14808,"}{(|\\":14809,"})|}{(":14810,"Ġincl":14811,"Ġ|+\\":14812,")})\\|":14813,"}})={\\":14814,"}})=(-":14815,"Ġ&=(-":14816,"585":14817,"687":14818,"Ġdirection":14819,"^{**}_{":14820,"PSU":14821,"}}\\;,\\":14822,".,}\\":14823,"CMon":14824,"swarrow":14825,"emperature":14826,"+-+-":14827,"*}.\\]":14828,"401":14829,"BGL":14830,"El":14831,"FZ":14832,"Qz":14833,"\\}=-":14834,"]))=":14835,"cde":14836,"uge":14837,"xaby":14838,"|}_{\\":14839,"|))^{":14840,"Ġ)\\]":14841,"Ġ)<\\":14842,"Ġ)})\\]":14843,"Ġ]-\\":14844,"Ġ^{*}\\]":14845,"}\\};\\":14846,"Ġ&&-\\":14847,"wit":14848,"{)},\\,\\":14849,"}})}+\\|":14850,"),\\;(":14851,"_{*}]\\":14852,"_{-}:=\\":14853,")|).\\]":14854,"0013":14855,"ĠMa":14856,"ĠPC":14857,"Ġhh":14858,"}}-[\\":14859,"}}|(-\\":14860,"ĠUE":14861,"ĠWP":14862,",-,+":14863,"Ġ+}":14864,"Ġ106":14865,"enna":14866,"})\\,\\|":14867,"}}&(\\":14868,"anc":14869,"cdf":14870,"|\\,\\|":14871,"}}^{+}=":14872,"557":14873,"yyy":14874,"093":14875,"685":14876,"973":14877,"feas":14878,"Ġinterse":14879,"Ġconvergence":14880,"daptive":14881,"Bg":14882,"NJ":14883,"Qs":14884,"]^{+}\\":14885,"aij":14886,"kfl":14887,"ox":14888,"sQ":14889,"zD":14890,"Ã©":14891,"Ġ}|^{\\":14892,"}))^{*}\\]":14893,"}_{>\\":14894,"tage":14895,"}_{\\#}\\":14896,"}=\\#\\{":14897,"sqsupset":14898,"Ġ121":14899,"Ġ{{}^{\\":14900,"}^{-})+":14901,"}^{-,+}\\":14902,"))|.\\]":14903,"Ġtwist":14904,")^{\\{":14905,"foot":14906,"_{-})-":14907,"ĠIRS":14908,"ĠMR":14909,"There":14910,"}&\\{":14911,"ĠEff":14912,"ĠRf":14913,"ĠKS":14914,"):=\\#\\{":14915,"}\\)]":14916,")|\\;\\":14917,"^{*}\\{":14918,")})\\|_{\\":14919,"}\\;|\\":14920,")*}":14921,"CAT":14922,"});(\\":14923,"Ġmodule":14924,"tgt":14925,"ZFC":14926,"GetS":14927,"(=\\":14928,")}}}{{=}}":14929,"/**":14930,"Ni":14931,"Pet":14932,"UN":14933,"bP":14934,"_{]":14935,"\\[:=\\":14936,"})\\}}":14937,"})\\}=\\{":14938,"^{*}}\\\\":14939,"}\\,:=\\,":14940,"\\,=":14941,"cab":14942,"spl":14943,"ĠLd":14944,"ĠAll":14945,"<\\;\\":14946,"ĠHW":14947,"1235":14948,"ĠMP":14949,"}^{+}\\,\\":14950,"}^{+})^{-":14951,")\\,;\\]":14952,"})_{<":14953,"Ġmicro":14954,"ĠRn":14955,"ĠDB":14956,"ĠFr":14957,"_{+}^{*}":14958,"Ġwor":14959,"}=(|":14960,"}_{-})":14961,"ikjl":14962,"iptic":14963,")\\|,\\":14964,"452":14965,"update":14966,"ird":14967,"Ġ*&\\":14968,"809":14969,"Ġ{+}(\\":14970,"cyclic":14971,"Ġtopolog":14972,"branch":14973,"*}-\\":14974,".}\\;\\":14975,"Linear":14976,"Num":14977,"Wres":14978,"]}},":14979,"]};\\":14980,"iW":14981,"mS":14982,"rF":14983,"rS":14984,"ude":14985,"Ġ}|_{\\":14986,"Ġ):\\":14987,"leg":14988,"tack":14989,"site":14990,")}\\|(":14991,"}|)}\\]":14992,")=\\{\\{":14993,"}:\\{\\":14994,"ĠCap":14995,"Ġfol":14996,"}})](":14997,"}})_{*}":14998,"Ġaq":14999}