{"<s>":0,"<pad>":1,"</s>":2,"<unk>":3,"<mask>":4,"!":5,"\"":6,"#":7,"$":8,"%":9,"&":10,"'":11,"(":12,")":13,"*":14,"+":15,",":16,"-":17,".":18,"/":19,"0":20,"1":21,"2":22,"3":23,"4":24,"5":25,"6":26,"7":27,"8":28,"9":29,":":30,";":31,"<":32,"=":33,">":34,"?":35,"@":36,"A":37,"B":38,"C":39,"D":40,"E":41,"F":42,"G":43,"H":44,"I":45,"J":46,"K":47,"L":48,"M":49,"N":50,"O":51,"P":52,"Q":53,"R":54,"S":55,"T":56,"U":57,"V":58,"W":59,"X":60,"Y":61,"Z":62,"[":63,"\\":64,"]":65,"^":66,"_":67,"`":68,"a":69,"b":70,"c":71,"d":72,"e":73,"f":74,"g":75,"h":76,"i":77,"j":78,"k":79,"l":80,"m":81,"n":82,"o":83,"p":84,"q":85,"r":86,"s":87,"t":88,"u":89,"v":90,"w":91,"x":92,"y":93,"z":94,"{":95,"|":96,"}":97,"~":98,"¡":99,"¢":100,"£":101,"¤":102,"¥":103,"¦":104,"§":105,"¨":106,"©":107,"ª":108,"«":109,"¬":110,"®":111,"¯":112,"°":113,"±":114,"²":115,"³":116,"´":117,"µ":118,"¶":119,"·":120,"¸":121,"¹":122,"º":123,"»":124,"¼":125,"½":126,"¾":127,"¿":128,"À":129,"Á":130,"Â":131,"Ã":132,"Ä":133,"Å":134,"Æ":135,"Ç":136,"È":137,"É":138,"Ê":139,"Ë":140,"Ì":141,"Í":142,"Î":143,"Ï":144,"Ð":145,"Ñ":146,"Ò":147,"Ó":148,"Ô":149,"Õ":150,"Ö":151,"×":152,"Ø":153,"Ù":154,"Ú":155,"Û":156,"Ü":157,"Ý":158,"Þ":159,"ß":160,"à":161,"á":162,"â":163,"ã":164,"ä":165,"å":166,"æ":167,"ç":168,"è":169,"é":170,"ê":171,"ë":172,"ì":173,"í":174,"î":175,"ï":176,"ð":177,"ñ":178,"ò":179,"ó":180,"ô":181,"õ":182,"ö":183,"÷":184,"ø":185,"ù":186,"ú":187,"û":188,"ü":189,"ý":190,"þ":191,"ÿ":192,"Ā":193,"ā":194,"Ă":195,"ă":196,"Ą":197,"ą":198,"Ć":199,"ć":200,"Ĉ":201,"ĉ":202,"Ċ":203,"ċ":204,"Č":205,"č":206,"Ď":207,"ď":208,"Đ":209,"đ":210,"Ē":211,"ē":212,"Ĕ":213,"ĕ":214,"Ė":215,"ė":216,"Ę":217,"ę":218,"Ě":219,"ě":220,"Ĝ":221,"ĝ":222,"Ğ":223,"ğ":224,"Ġ":225,"ġ":226,"Ģ":227,"ģ":228,"Ĥ":229,"ĥ":230,"Ħ":231,"ħ":232,"Ĩ":233,"ĩ":234,"Ī":235,"ī":236,"Ĭ":237,"ĭ":238,"Į":239,"į":240,"İ":241,"ı":242,"Ĳ":243,"ĳ":244,"Ĵ":245,"ĵ":246,"Ķ":247,"ķ":248,"ĸ":249,"Ĺ":250,"ĺ":251,"Ļ":252,"ļ":253,"Ľ":254,"ľ":255,"Ŀ":256,"ŀ":257,"Ł":258,"ł":259,"Ń":260,"Ġ\\":261,"ig":262,"al":263,"_{":264,"*}":265,"ign":266,"align":267,"in":268,"^{":269,"eg":270,"nd":271,"beg":272,"begin":273,"end":274,"}\\":275,"ra":276,"ta":277,"ma":278,"}{":279,"fra":280,"frac":281,"le":282,",\\":283,"(\\":284,"th":285,"ft":286,"ar":287,"{\\":288,"Ġ=":289,"ph":290,"am":291,"eta":292,"igh":293,"righ":294,")\\":295,".\\":296,"ti":297,"_{\\":298,"left":299,"right":300,"math":301,"}(":302,"*}\\":303,"}^{":304,"=\\":305,"de":306,"Ġ&":307,"}}":308,"-\\":309,"Ġ+":310,"su":311,"ot":312,"dot":313,"pha":314,"alpha":315,"si":316,"da":317,"sum":318,"amb":319,"ambda":320,"Ġ(":321,"er":322,"Ġ-":323,"})":324,"psi":325,"+\\":326,"lambda":327,"phi":328,"mu":329,"lo":330,"}^":331,")}":332,"^{\\":333,"lta":334,"amma":335,"int":336,"par":337,"tial":338,"partial":339,"^{-":340,"}{\\":341,"cal":342,"_\\":343,"mathb":344,"big":345,"var":346,"ega":347,"mega":348,"la":349,"beta":350,"cdot":351,"Ġx":352,"igma":353,"ver":354,"Ġ\\\\":355,"pi":356,"inft":357,"infty":358,"Ġ0":359,"lon":360,"}_{":361,"Ġd":362,"mathcal":363,"lde":364,"|\\":365,"theta":366,"tilde":367,"}_":368,"gamma":369,"Ġ1":370,"rm":371,"es":372,"psilon":373,"sigma":374,")=":375,"epsilon":376,"ng":377,"xi":378,"ho":379,"delta":380,"},":381,"tau":382,"ngle":383,"im":384,"nu":385,"rho":386,"leq":387,"over":388,")^":389,"at":390,"ll":391,"hi":392,"Ġu":393,"bar":394,"hat":395,"^\\":396,"dots":397,"}(\\":398,"Ġf":399,"},\\":400,"omega":401,"}}\\":402,"\\\\":403,"ab":404,"eq":405,"bo":406,"ro":407,"mathbb":408,")=\\":409,"Ġa":410,"sq":411,"ell":412,"rt":413,").\\":414,"Ġ2":415,"}^{\\":416,"sqrt":417,"Ġt":418,"varphi":419,"Big":420,"}.\\":421,"tim":422,"times":423,"),":424,"}=":425,"ray":426,"array":427,"Ġe":428,"^{(":429,"nab":430,"nabla":431,"Ġ\\,":432,"),\\":433,"mathbf":434,"lim":435,")^{":436,"De":437,"Ġi":438,"Delta":439,"ap":440,"lin":441,"line":442,"as":443,"Ġ{\\":444,"Ġ(\\":445,"}+":446,"Ġn":447,"Omega":448,"\\,":449,"ĠA":450,"wi":451,"tr":452,"))":453,"mbo":454,"Ġ{":455,"Gamma":456,"ex":457,"}-":458,"|^":459,"wide":460,"rangle":461,"ed":462,"&\\":463,"^*":464,"to":465,"tri":466,"Ġg":467,"Ġv":468,"varepsilon":469,"overline":470,"mathrm":471,"Ġp":472,")}\\":473,"}=\\":474,"log":475,"Ġy":476,"Ġk":477,"Ġ&=":478,"langle":479,";\\":480,"[\\":481,"Ġ|":482,")(":483,"Phi":484,"matri":485,"matrix":486,"Ġ}":487,"ad":488,"Ġz":489,"}}{":490,"&=":491,"cdots":492,"Ġc":493,":=":494,"qu":495,"quad":496,"chi":497,"Ġb":498,"ĠC":499,"tar":500,"Ġr":501,"\\|":502,")}{":503,"ldots":504,"pa":505,"ĠT":506,"Ġs":507,"ĠX":508,"geq":509,"otimes":510,"or":511,"pro":512,"bf":513,"se":514,"ĠF":515,"ĠB":516,"zeta":517,"Ġq":518,"mbox":519,")+":520,"ge":521,"\\{":522,")-":523,"Ġh":524,"cas":525,"cases":526,"row":527,"})\\":528,"ĠL":529,"ĠR":530,"}_{\\":531,"ts":532,"ĠP":533,"}+\\":534,"Ġm":535,"ĠH":536,"ĠS":537,"kap":538,"kappa":539,"ĠD":540,"Lambda":541,"ve":542,"prod":543,"ij":544,"Ġ,":545,"rc":546,"Ġ[":547,"tarrow":548,"pr":549,"pm":550,"ĠE":551,"ĠM":552,"~~":553,"Ġj":554,"Ġ-\\":555,"Ġ.\\":556,"co":557,"widetilde":558,"set":559,"rightarrow":560,"Ġw":561,"ime":562,"tex":563,"ci":564,"prime":565,"circ":566,"{(":567,"ĠV":568,"Ġ=\\":569,"ĠN":570,"vert":571,"12":572,"Psi":573,"bigg":574,"Ġ,\\":575,"ĠI":576,"its":577,"limits":578,"aligned":579,"}\\,":580,"ds":581,"&=\\":582,"Ġ_{":583,"ĠG":584,":=\\":585,"}-\\":586,"pmatrix":587,"}^{(":588,"text":589,"vec":590,"}^\\":591,"}|":592,"'(":593,"Ġ)":594,"]\\":595,"Ġ\\;":596,"ther":597,"op":598,")\\\\":599,")}(":600,"^{-\\":601,"Ġ\\|":602,")\\,":603,"(-":604,"sin":605,"dx":606,"ĠK":607,"Ġ&\\":608,"us":609,"..":610,")|":611,"frak":612,"ga":613,"min":614,"}}(":615,")+\\":616,"gather":617,"Ġ\\{":618,"ĠU":619,")^{-":620,"ĠQ":621,"Ġ:=":622,"widehat":623,"cos":624,"cap":625,"for":626,"edge":627,"all":628,"wedge":629,"exp":630,"up":631,"ast":632,"mathfrak":633,"_{(":634,"ck":635,"Ġ+\\":636,"cc":637,"dt":638,"om":639,")^{\\":640,"ĠW":641,"}}{\\":642,"sup":643,"\\{\\":644,"ĠJ":645,",\\\\":646,"ert":647,"Vert":648,"iv":649,"ty":650,"sub":651,"bin":652,"binom":653,")}{\\":654,"_{-":655,")-\\":656,"Ġ}\\":657,"^+":658,"und":659,"Sigma":660,"Ġ<":661,"under":662,"}\\\\":663,"\\}":664,"}^{-":665,"cup":666,"Ġ|\\":667,",\\,":668,"bol":669,"}{(":670,"*}(":671,"ĠY":672,"ĠZ":673,"max":674,"id":675,"}]":676,"*}{\\":677,"|_{":678,"forall":679,"!\\":680,"ce":681,"tyle":682,"ln":683,"_+":684,"ymbo":685,"ymbol":686,"dsymbol":687,"boldsymbol":688,")_{":689,"is":690,"\\|_{":691,"qquad":692,"''":693,"equ":694,"Ġ\\\\\\":695,"mid":696,")_":697,"equiv":698,").":699,"Ġdx":700,"Ġ\\\\&":701,"sim":702,"))\\":703,"dfrac":704,"neq":705,";\\;\\":706,"Ġl":707,"Ġ3":708,"Ġ_":709,"lus":710,"Ġ4":711,"ĠO":712,")]":713,"}[":714,"11":715,"|^{":716,"/\\":717,"Pi":718,"-(":719,"dag":720,"oplus":721,"Th":722,"}.":723,"Theta":724,"Ġ^{":725,"bmatrix":726,",\\,\\":727,"sta":728,"bigl":729,"}_\\":730,"bigr":731,"\\}\\":732,"dis":733,"stack":734,"ys":735,"})=":736,"Ġ>":737,"pla":738,"displa":739,"Ġ(-":740,"textrm":741,"displays":742,"displaystyle":743,"'_":744,"det":745,"underline":746,"\\,\\":747,"tfrac":748,"}}.\\":749,"^-":750,"loor":751,"floor":752,"subset":753,"ger":754,"dagger":755,"re":756,"<\\":757,"bra":758,"*}&":759,"+(":760,"}).\\":761,"Ġ:":762,"\\}.\\":763,"10":764,"((":765,"Ġ$":766,"inf":767,")/":768,"{-":769,"'\\":770,"...":771,"star":772,"Ġ.":773,"):=\\":774,")(\\":775,")&=":776,"minus":777,")}}":778,")})":779,"_-":780,")}.\\":781,"dy":782,"',":783,"sf":784,"_*":785,":\\":786,")}_{":787,"setminus":788,"{{\\":789,"}}^{":790,"({\\":791,"Ġ~":792,"}},":793,")!":794,"sla":795,"}&":796,"{|":797,"]=":798,"}},\\":799,"brace":800,"Ġ^":801,"}{|":802,"(-\\":803,"Ġdt":804,")},":805,"].\\":806,"}\\,\\":807,"')":808,"substack":809,"})^{":810,"})=\\":811,"}}(\\":812,"}}}":813,"tor":814,"^{(\\":815,"per":816,"'}":817,"}}_{":818,"})^":819,"*}(\\":820,"nt":821,"box":822,"}\\|":823,"era":824,"):=":825,"}|\\":826,"erator":827,"=-\\":828,"ame":829,"textbf":830,"Ġ_{\\":831,"operator":832,"\\\\\\":833,"if":834,"sh":835,"name":836,"operatorname":837,"Bigr":838,";\\;":839,"}^*":840,"perp":841,")}_":842,"Ġ}{":843,"Ġo":844,"_{+":845,"Ġ[\\":846,"*}&\\":847,")},\\":848,"io":849,"}),\\":850,"~\\":851,"]}":852,"ip":853,"}}=":854,"Bigl":855,")}=":856,"dim":857,"vartheta":858,"}),":859,"Ġ\\\\&=":860,"iota":861,"_{[":862,"mp":863,"],":864,"~~~~":865,")&=\\":866,"\\},\\":867,"vee":868,",-":869,"{{":870,"hbar":871,"};":872,"\\;":873,"),\\\\":874,"_{-\\":875,"\\|^":876,")^\\":877,"16":878,"*}|":879,"^*(":880,"ik":881,")|^":882,"vdots":883,"=-":884,"],\\":885,"mathsf":886,"13":887,"}}=\\":888,"}(-":889,"Ġds":890,"22":891,"it":892,"=(":893,"\\|\\":894,"od":895,")}=\\":896,"not":897,"Ġ\\,\\":898,"hoo":899,"jk":900,"})(":901,")}(\\":902,"hbox":903,")=(":904,"}'":905,"}}_":906,"*}[":907,"Ġand":908,"^{+":909,"\\|_":910,"bigcup":911,"il":912,"21":913,"Bigg":914,"dz":915,")|\\":916,"hoose":917,"choose":918,"(|":919,"Ġ^{\\":920,"ss":921,"})}":922,"\\\\&":923,"rfloor":924,"ch":925,"cr":926,"lfloor":927,"^*\\":928,"on":929,"|_":930,"|}":931,"Ġfor":932,"00":933,"{(\\":934,"}/":935,"*}\\|":936,"*}{":937,")&":938,"}}}\\":939,"slant":940,"Ġ\\\\&\\":941,"Re":942,"},\\\\":943,"Ġ\\}":944,"+|":945,"and":946,"Ġ\\|\\":947,"^{*}":948,"}[\\":949,"spa":950,"Ġ&=\\":951,"23":952,"angle":953,"Ġ)\\":954,"}}{(":955,",\\\\\\":956,"}}^":957,"varrho":958,"xx":959,"))=":960,"_{|":961,"Ġ]":962,"ps":963,"24":964,"_{{\\":965,")\\\\&=":966,"|=":967,"rel":968,"ne":969,"bu":970,"}\\;":971,"'_{":972,")_{\\":973,"xy":974,")).\\":975,"triangle":976,"([":977,"\\}}":978,"...,":979,"top":980,"space":981,"Ġ}{\\":982,"biggr":983,"biggl":984,"!\\!\\":985,"}~":986,"no":987,"|_{\\":988,"colon":989,"sinh":990,"}&=":991,"stackrel":992,"\\},":993,"dr":994,"}}^{\\":995,"Ġdy":996,"\\,.\\":997,"Ġ12":998,"bul":999,"maps":1000,"mapsto":1001,"!}":1002,"Ġ/":1003,"cosh":1004,"}:=\\":1005,"tstyle":1006,"kl":1007,"less":1008,"})+":1009,"({":1010,"]=\\":1011,")=-\\":1012,"14":1013,"tan":1014,"||":1015,"}}+":1016,"lesssim":1017,"}}+\\":1018,"pt":1019,")}{(":1020,"underset":1021,"deg":1022,"tt":1023,"long":1024,"):":1025,"Ġif":1026,">\\":1027,"Ġ\\{\\":1028,"mn":1029,"'(\\":1030,"}=-\\":1031,"}|^":1032,"=&":1033,")\\\\&":1034,"subseteq":1035,"\\!":1036,"}^{(\\":1037,"}}\\,":1038,"ii":1039,"}})":1040,"leqslant":1041,"Xi":1042,"ba":1043,"|}\\":1044,"}&\\":1045,"})}\\":1046,"}({\\":1047,"{(-":1048,"let":1049,"})_{":1050,"du":1051,"]_":1052,"^{[":1053,")\\,\\":1054,"}:":1055,"bullet":1056,"\\,,\\":1057,"prox":1058,"Ġin":1059,"Ġ6":1060,"slash":1061,"}=-":1062,"bigoplus":1063,"))^":1064,"approx":1065,"st":1066,")=-":1067,"che":1068,",(":1069,"check":1070,"\\\\&=":1071,"]^":1072,"'}\\":1073,"/(":1074,"\\\\&\\":1075,"overset":1076,"arp":1077,"|^{\\":1078,"Ġ}(":1079,"})-":1080,"}}-":1081,"^*_":1082,"Ġ\\:":1083,"''(":1084,"Ġ;":1085,"limsup":1086,")}+":1087,"^*}":1088,")^*":1089,")}}\\":1090,"32":1091,"]_{":1092,"{|\\":1093,"AB":1094,",...,":1095,")^{-\\":1096,"Im":1097,"\\|_{\\":1098,"})^{-":1099,"ddots":1100,"})\\\\":1101,")}^":1102,"_{\\{":1103,"})}{":1104,"ic":1105,")),\\":1106,"Ġ5":1107,"~~~":1108,"-|":1109,")\\;":1110,"*}-\\":1111,"crip":1112,")),":1113,"longrightarrow":1114,"ia":1115,"Ġ&&":1116,"](":1117,"}}}{":1118,"]}\\":1119,"en":1120,"dv":1121,"ccc":1122,"back":1123,"*}-":1124,"20":1125,"backslash":1126,")+(":1127,"div":1128,"cm":1129,")>":1130,"!}\\":1131,"Tr":1132,"Ġ8":1133,"mpty":1134,"}^{+":1135,"}=(":1136,"')\\":1137,"[(":1138,"empty":1139,"emptyset":1140,"ker":1141,"))=\\":1142,"*}|\\":1143,"Ġ\\|_{":1144,"sharp":1145,"}\\|_{":1146,"arrow":1147,"}:=":1148,"}&=\\":1149,"mod":1150,"|\\,":1151,"ol":1152,"rvert":1153,"mm":1154,",&":1155,"lvert":1156,"^{-(":1157,"Ġ*":1158,"15":1159,"Ġall":1160,"underbrace":1161,")\\\\&\\":1162,"cd":1163,")\\\\&=\\":1164,"_{(\\":1165,"((\\":1166,")}-":1167,"Ġ{{":1168,"lbrace":1169,";\\;\\;":1170,"Ġdz":1171,"'-":1172,")}+\\":1173,"sm":1174,"textstyle":1175,"hspace":1176,"}\\\\\\":1177,")}}{":1178,"ix":1179,"pq":1180,"^{*":1181,"Ġ\\,\\,":1182,"'}(":1183,"ac":1184,"varpi":1185,"=&\\":1186,"})^{\\":1187,")\\|_{":1188,"})+\\":1189,",\\\\&":1190,")_\\":1191,"){\\":1192,"ddot":1193,"}_{(":1194,"Ġ({\\":1195,")}\\,":1196,"Ġ=&":1197,"ĠTr":1198,"]^{":1199,"]+":1200,"Ġ\\,.\\":1201,"Ġ&:=":1202,"|^{-":1203,")\\|":1204,"'+":1205,"}^+":1206,"Ġ{{\\":1207,"}\\\\&":1208,",{\\":1209,"textup":1210,"sk":1211,"Ġ\\!":1212,"',\\":1213,"}\\,.\\":1214,")}_{\\":1215,"bold":1216,"}+(":1217,"Ġ\\;\\;":1218,"}}_{\\":1219,",\\,\\,\\,\\":1220,")\\,.\\":1221,")~":1222,"]{":1223,"\\&\\":1224,"Ġ\\}.\\":1225,"Ġ}}":1226,"Ġ_\\":1227,"}{(\\":1228,"Pr":1229,"=\\,":1230,"rmal":1231,")}^{":1232,"Ġ:=\\":1233,"Ġdr":1234,"Ġ$\\":1235,"ijk":1236,"&&":1237,"'}{":1238,"normal":1239,")^{(":1240,")&\\":1241,".}\\":1242,"simeq":1243,"rbrace":1244,"}}-\\":1245,",\\;":1246,"}^{*}":1247,"bigcap":1248,"ref":1249,"};\\":1250,"*}\\{":1251,"Ġ-(":1252,"Upsilon":1253,"skip":1254,"}>":1255,"cccc":1256,"small":1257,"})}{\\":1258,"pmod":1259,"'=":1260,"+(\\":1261,"+|\\":1262,"textnormal":1263,"ec":1264,"|}{":1265,"}))":1266,"ut":1267,"_{|\\":1268,"^*,":1269,"^*_{":1270,"}})\\":1271,"_+(":1272,"*\\":1273,"ff":1274,"upsilon":1275,"\\\\&=\\":1276,"^+(":1277,"\\&":1278,"ji":1279,"wn":1280,"25":1281,"))}":1282,"34":1283,";\\;\\;\\;\\":1284,"\\!\\":1285,",[":1286,");":1287,"})-\\":1288,"ing":1289,"}\\|\\":1290,"_{{":1291,"own":1292,"01":1293,"}<":1294,"kj":1295,"sts":1296,"})\\,":1297,")|^{":1298,"}).":1299,"}\\\\&\\":1300,"brack":1301,"}]\\":1302,"liminf":1303,"),(":1304,"{-\\":1305,")[":1306,")\\\\\\":1307,"Ġ~~":1308,"down":1309,"}_{-":1310,"with":1311,"}}.":1312,"xists":1313,"scrip":1314,")\\,,\\":1315,"}\\\\&=":1316,"]}(":1317,"}\\{":1318,"Ġdu":1319,"-(\\":1320,"^*)":1321,"Ġ^{-":1322,"Righ":1323,"}^{+\\":1324,"}{|\\":1325,"Rightarrow":1326,"Ġ(-\\":1327,"II":1328,"bc":1329,"(|\\":1330,"{[":1331,")-(":1332,"}\\,,\\":1333,"|.\\":1334,"cl":1335,"^*(\\":1336,"nto":1337,",~":1338,"=\\{":1339,"=(\\":1340,"])":1341,"phanto":1342,"\\}.":1343,"phantom":1344,"*}[\\":1345,"&-":1346,"rce":1347,"Ġis":1348,"))^{":1349,"Ġ((":1350,"cong":1351,")}-\\":1352,"}$":1353,"\\,,":1354,"),\\\\\\":1355,"|-":1356,")=(\\":1357,"rceil":1358,"exists":1359,"rr":1360,"18":1361,"}-(":1362,"Ġ=-":1363,"ceil":1364,"downarrow":1365,"lceil":1366,"notin":1367,"lll":1368,"}|^{":1369,"))-":1370,"oint":1371,"}}}{\\":1372,"Ġ\\;\\":1373,")<":1374,"))(":1375,"_-(":1376,"atop":1377,"-{":1378,"|(":1379,"^+_":1380,"}'(":1381,"imath":1382,"Ġ=-\\":1383,"nk":1384,",\\,\\,":1385,")!}":1386,"bot":1387,"}}|":1388,"=\\;":1389,"uv":1390,"Ġ\\,,\\":1391,"'^":1392,"leftrightarrow":1393,"|)":1394,"].":1395,"sp":1396,"{$":1397,")})\\":1398,")]\\":1399,"iint":1400,"33":1401,")}.":1402,"em":1403,"rs":1404,"Ġ\\}\\":1405,"}_+":1406,"Ġon":1407,"Ġ}^{":1408,"Ġth":1409,"|,":1410,"},\\\\\\":1411,")}\\\\":1412,"^-(":1413,"=}":1414,"*}\\|\\":1415,"sqcup":1416,"~~~~~~~~":1417,"}((":1418,"Ġ\\\\&=\\":1419,"Ġ+(":1420,"})(\\":1421,"Ġtr":1422,"Ġ10":1423,"|+":1424,"rl":1425,"+{\\":1426,"Ġdv":1427,"wise":1428,"}\\\\&=\\":1429,"]-":1430,"Ġ{(":1431,"^+}":1432,"{}":1433,"tanh":1434,"Ġ)^{":1435,"arg":1436,"bre":1437,"therwise":1438,"rcl":1439,"iz":1440,"-{\\":1441,"\\}}\\":1442,"={":1443,"})_":1444,"ĠdW":1445,"+{":1446,"(\\{":1447,"Lo":1448,"+}":1449,"={\\":1450,"ax":1451,"dW":1452,"mathop":1453,"\\}=":1454,"}=\\{":1455,"}{{\\":1456,"=~":1457,"Ġ^\\":1458,"Ġ)=":1459,"Ġ=(":1460,"))+":1461,"!\\!":1462,"~~\\":1463,"Ġ~\\":1464,"Ġ}}\\":1465,"nm":1466,",-\\":1467,"31":1468,"Ġ||":1469,"Ġ)^":1470,"abc":1471,"\\|_\\":1472,"lVert":1473,"Ġ},":1474,")}|":1475,")=&":1476,"Ġ).\\":1477,"...\\":1478,"Ġ}_{":1479,"}^{-\\":1480,"}}\\\\":1481,"))}{":1482,"[-":1483,"geqslant":1484,"}]=":1485,"}^{[":1486,"ere":1487,"iag":1488,"Ġ}=\\":1489,")}{|":1490,"di":1491,"Long":1492,"}={\\":1493,"')^":1494,"Ġ7":1495,"}}^{(":1496,"'_{\\":1497,"^+\\":1498,"}^-":1499,"pmb":1500,"iy":1501,"hskip":1502,"17":1503,"gathered":1504,"Ġ\\,,":1505,"Ġ\\#":1506,"Le":1507,"}(-\\":1508,"here":1509,"nx":1510,"\\}_{":1511,"rVert":1512,"parrow":1513,"dw":1514,"}_{+":1515,"Ġ}=":1516,")={\\":1517,"|=\\":1518,"27":1519,"}\\!":1520,".}":1521,"XY":1522,"|^\\":1523,"\\,\\,":1524,")}}{\\":1525,"_+\\":1526,"cot":1527,"|<":1528,"}))\\":1529,"nolimits":1530,"_{,":1531,"Ġ9":1532,"\\{(":1533,"}<\\":1534,"Ġ},\\":1535,"48":1536,"]_{\\":1537,"~.\\":1538,"Ġ&=&":1539,")|_{":1540,"^{'":1541,"})_{\\":1542,",\\\\&\\":1543,"df":1544,")\\|^":1545,"Ġ&+":1546,"123":1547,"Ġ16":1548,"Ġ,\\\\":1549,"Ġ)}":1550,"ond":1551,"uparrow":1552,"$,":1553,"36":1554,"prec":1555,"breve":1556,"Left":1557,"Ġ<\\":1558,"dX":1559,"gg":1560,"Ġof":1561,"_*(":1562,"}([":1563,"eqq":1564,"19":1565,"Ġ),":1566,"*{":1567,"}/\\":1568,"})|":1569,"are":1570,"lat":1571,"eqref":1572,"56":1573,"]^{\\":1574,"gh":1575,"alle":1576,"IJ":1577,"(\\|":1578,"}|_{":1579,"smallmatrix":1580,"_-\\":1581,"diam":1582,"paralle":1583,"Ġ|^":1584,"parallel":1585,"}={":1586,"Leftrightarrow":1587,")^{|":1588,"}{{":1589,"wp":1590,"coloneqq":1591,"},{\\":1592,";\\\\":1593,"ir":1594,")/\\":1595,"))+\\":1596,"ki":1597,"{}_":1598,"^-_":1599,"Ġ(|":1600,"MN":1601,"inter":1602,"}=(\\":1603,"Ġ}^{\\":1604,"Ġ\\},":1605,"))\\,":1606,"arc":1607,"ie":1608,"dg":1609,"boldmath":1610,"Ġ}.\\":1611,"Ġ...":1612,"\\})":1613,"odot":1614,"Ġ-{":1615,"=|":1616,"Ġ),\\":1617,"^{(-":1618,"\\;\\":1619,"]+\\":1620,"flat":1621,"supset":1622,"jl":1623,"^{{\\":1624,")!}\\":1625,"bb":1626,"dd":1627,"ni":1628,"ze":1629,"Ġ\\\\-":1630,"'=\\":1631,"tu":1632,"[-\\":1633,"64":1634,"Ric":1635,"ox":1636,"))}\\":1637,"){":1638,"gcd":1639,"Ġ)=\\":1640,":\\,":1641,"},\\,":1642,");\\":1643,"}\\|^":1644,"-|\\":1645,"30":1646,"}~\\":1647,"\\|^{":1648,"an":1649,"np":1650,"-\\!":1651,")=&\\":1652,"dotsc":1653,"\\,(":1654,"]\\\\":1655,"}\\}":1656,"mathtt":1657,"kx":1658,"^-_{":1659,"bmod":1660,"pl":1661,"{\\|":1662,"dV":1663,"eff":1664,"overrightarrow":1665,"|,\\":1666,"Box":1667,"}_{{\\":1668,"squ":1669,"_{+}":1670,"!(":1671,"lbrack":1672,"xp":1673,"Ġ\\{(":1674,"otherwise":1675,"_{*}":1676,"dp":1677,"tion":1678,"))^{-":1679,"Ġ\\;=\\;":1680,",\\,\\,\\,":1681,"!}{":1682,"diamond":1683,"}}[":1684,"})}.\\":1685,"Ġ\\;.\\":1686,")\\}":1687,"xt":1688,"}}\\,\\":1689,"~,\\":1690,"Ġwith":1691,"))-\\":1692,"}+{\\":1693,"kn":1694,"||\\":1695,"&=(":1696,"Ġ}(\\":1697,")))":1698,"][":1699,"_+^":1700,"\\:":1701,"}\\}\\":1702,"varsigma":1703,"Ġ\\|_":1704,"]\\,":1705,"{}^":1706,"28":1707,")}^{\\":1708,"]^{-":1709,"^-\\":1710,"35":1711,"ct":1712,"Ġor":1713,"Ġ[(":1714,"^{{":1715,",~~":1716,"}''":1717,"]}{":1718,"}:\\":1719,"[{\\":1720,"}^*\\":1721,"square":1722,"Ġ\\},\\":1723,"Ġ&(":1724,"jj":1725,"|+|":1726,"^{*}\\":1727,"xrightarrow":1728,")={":1729,"\\\\-":1730,"Ġ\\,=\\,":1731,"iu":1732,"|>":1733,",+":1734,"Ġ;\\":1735,"mathr":1736,")<\\":1737,"kern":1738,"dq":1739,"Ġ\\\\&+":1740,"||_{":1741,")).":1742,"](\\":1743,")\\|_":1744,")=\\{":1745,"'}}":1746,"Id":1747,"hdots":1748,"26":1749,"\\}=\\":1750,"|{\\":1751,"Ġ\\;\\;\\":1752,"yy":1753,"Ġ^{(":1754,"+\\|":1755,"^+_{":1756,"tx":1757,"}}^{-":1758,")\\}.\\":1759,"_{-}":1760,"|\\,\\":1761,"dk":1762,"ih":1763,"_{\\{\\":1764,"))\\\\":1765,"mathring":1766,"40":1767,"=[":1768,"Du":1769,"ven":1770,"Ġ{{{\\":1771,"Biggr":1772,"_*\\":1773,":=\\{":1774,"boxtimes":1775,",{":1776,"Biggl":1777,"{}_{":1778,"gn":1779,"tit":1780,"size":1781,"iff":1782,"yz":1783,"),\\,":1784,"))}{\\":1785,"Ġ[-":1786,"'|":1787,"Ġ\\;,\\":1788,"}\\,\\,":1789,"'}^":1790,"fg":1791,"textit":1792,"xz":1793,"ĠRe":1794,"}\\,,":1795,"aq":1796,"])\\":1797,"cu":1798,"jmath":1799,"),\\\\&":1800,"sc":1801,"Ax":1802,"Ġ\\|^":1803,")=(-":1804,"triangleq":1805,"|}{\\":1806,"},&":1807,"texts":1808,"\\;.\\":1809,"prop":1810,")$":1811,"|^{-\\":1812,"^{+\\":1813,"}_{[":1814,"([\\":1815,")'":1816,"ym":1817,"{}{":1818,"}(|":1819,"})]":1820,"}\\|_":1821,"}}}.\\":1822,"varkappa":1823,"dB":1824,"Ġ\\,\\,\\,":1825,")}_\\":1826,"}\\;\\":1827,"Ġcon":1828,"lef":1829,",\\{":1830,"Ġ=:":1831,"Ġ-{\\":1832,"),&":1833,"^+,":1834,"}\\}.\\":1835,"Ġ\\;\\;\\;":1836,",+\\":1837,"44":1838,"}}|\\":1839,"}^*(":1840,"hd":1841,"Ġ&-":1842,"\\,|\\,":1843,"Ġ'":1844,"lk":1845,"[(\\":1846,"diag":1847,"=\\,\\":1848,"}-{\\":1849,",(\\":1850,"vol":1851,"Ġ\\\\(":1852,"dS":1853,"96":1854,"})&=":1855,"con":1856,"''_":1857,"+(-":1858,"Ġdiv":1859,"'.\\":1860,"}+{":1861,"|_\\":1862,"^{*}(":1863,"})}(":1864,"qx":1865,"^{|":1866,"}\\!\\":1867,"}]_{":1868,")]=":1869,"leftarrow":1870,"\\,{\\":1871,"scripts":1872,"Bbb":1873,"})=(":1874,"criptstyle":1875,"scriptscriptstyle":1876,"^*)\\":1877,"}}{|":1878,"ijkl":1879,"propto":1880,"^+}\\":1881,"}}}(":1882,"$}":1883,"}}^\\":1884,"iT":1885,"}\\{\\":1886,"^*-":1887,"*}\\{\\":1888,"}}}}":1889,")\\,,":1890,"where":1891,"Ġ]\\":1892,"Ġthe":1893,"45":1894,"+\\!":1895,"):\\":1896,"}\\,(":1897,"!\\!\\!\\!\\":1898,"^{\\,":1899,"Ġ\\\\=":1900,"'}(\\":1901,"&(":1902,"')=":1903,",...":1904,"Df":1905,"))_{":1906,"'})":1907,"ny":1908,"Ġdet":1909,"dm":1910,"Ġ+{\\":1911,"ib":1912,"nn":1913,"Ġ:\\":1914,"thin":1915,"')}":1916,"thinspace":1917,")[\\":1918,",&\\":1919,"]{\\":1920,"]-\\":1921,"Ġab":1922,"Ġ{}":1923,"'_\\":1924,"+}\\":1925,"hline":1926,"Ġ}^":1927,"}+(\\":1928,"xu":1929,"|+\\":1930,")_+":1931,"|)\\":1932,"<-":1933,"AA":1934,"iq":1935,"||^":1936,"\\,.":1937,"ies":1938,"_{[\\":1939,"#\\":1940,"bd":1941,"''\\":1942,"kr":1943,"nc":1944,"}{\\|":1945,"Ġ~=~":1946,"\\},\\\\":1947,"Ġ={\\":1948,")\\}\\":1949,"})},\\":1950,"ĠIm":1951,":\\:\\":1952,")!}{":1953,"},\\\\&":1954,")|=":1955,"').\\":1956,";.\\":1957,"SU":1958,"}~~":1959,")!(":1960,",}":1961,"|\\\\":1962,")+(\\":1963,"}].\\":1964,"tin":1965,"}}{(\\":1966,")].\\":1967,"]}{\\":1968,")&=(":1969,"\\}^{":1970,"lm":1971,"nq":1972,"*}=":1973,"=}\\":1974,"Ġ~~~~":1975,"Ġ~~~":1976,"Ġ\\\\=&":1977,"Ġexp":1978,"100":1979,"_+}":1980,"^*}\\":1981,"na":1982,"60":1983,"out":1984,"^{-(\\":1985,"$\\":1986,"&-\\":1987,"')=\\":1988,"}}).\\":1989,"}\\;\\;":1990,"texttt":1991,"te":1992,"Ġ}+\\":1993,"au":1994,"}*":1995,",\\;\\;":1996,"}}\\|":1997,"}{}^{":1998,"Ġ=\\,":1999,"Ġid":2000,")]^":2001,"}{}_{":2002,"Longleftrightarrow":2003,"^{*}_{":2004,"-}":2005,"TM":2006,"}'\\":2007,"dA":2008,"he":2009,"Longrightarrow":2010,"];":2011,"kk":2012,"|}{|":2013,"Ġ}+":2014,"})^\\":2015,"}}},\\":2016,"}-{":2017,"mk":2018,"43":2019,"Ġ({":2020,"px":2021,"def":2022,"'+\\":2023,")}{(\\":2024,"tiny":2025,"Tx":2026,")!}{(":2027,"'}{\\":2028,"Ġco":2029,",\\,\\,\\":2030,"]=[":2031,"_{<":2032,"},...,":2033,"impl":2034,"))|":2035,"^*_\\":2036,"Ġ||\\":2037,",}\\":2038,"ak":2039,"uu":2040,"dxdy":2041,"^{+}":2042,"}}(-":2043,"\\}\\\\":2044,"low":2045,"Ġ14":2046,"'-\\":2047,"intertext":2048,")&:=\\":2049,"Ġ\\>":2050,".\\\\\\":2051,"))(\\":2052,"],\\\\":2053,"}}{{\\":2054,"implies":2055,"km":2056,"Ġ=&\\":2057,"Ġeven":2058,"arctan":2059,"$}\\":2060,"50":2061,"Ġxy":2062,")}^{-":2063,"et":2064,")\\|_{\\":2065,"_{-}(":2066,"scriptstyle":2067,"Ġ}}{":2068,"}]=\\":2069,"\\!-\\!":2070,"enspace":2071,"37":2072,"\\}^":2073,"mathit":2074,"xq":2075,"kp":2076,"Ġ})":2077,"_{_{":2078,"Ġeff":2079,"Ġ|_{":2080,"Ġodd":2081,"^{*,":2082,"CD":2083,")\\|\\":2084,"},\\;":2085,")^*\\":2086,"^*+":2087,")/(":2088,")}[":2089,"zz":2090,"\\;,\\":2091,"99":2092,",|":2093,"Ġ}\\,":2094,"Ġ+{":2095,"}/{":2096,"kt":2097,"*}=\\":2098,"^*,\\":2099,"{$\\":2100,"Ġ)}\\":2101,"SO":2102,"}\\|_{\\":2103,"!}.\\":2104,":=(":2105,")}}.\\":2106,"jx":2107,"ka":2108,"^*=":2109,"\\|(":2110,"Au":2111,"rank":2112,"bigwedge":2113,"iA":2114,"Ġ)^{-":2115,"zq":2116,"Ġ-(\\":2117,"ĠdV":2118,"\\{-\\":2119,"ly":2120,"rad":2121,"xxx":2122,"'},":2123,"ms":2124,")})=":2125,")(-":2126,")}}(":2127,"_+,":2128,"ur":2129,")}|\\":2130,"}^{{\\":2131,"+[":2132,"ke":2133,"=\\|":2134,"Ġdw":2135,"Ti":2136,"cfrac":2137,"*}<":2138,"}((\\":2139,"}=&":2140,"}],":2141,"~,":2142,"}||":2143,"}})=":2144,"})).\\":2145,"!\\!\\!":2146,"BC":2147,"aa":2148,")\\;.\\":2149,"$}.\\":2150,")}).\\":2151,"}})^{":2152,"^{+}(":2153,"Ġthat":2154,"_*}":2155,"},~":2156,"llll":2157,"coth":2158,"}{}^":2159,"}):=\\":2160,"Ġ32":2161,"'),":2162,"]&":2163,"Ġ}_":2164,"Ġ}-":2165,"Ġ={":2166,"ĠdS":2167,"by":2168,"_{+}(":2169,"Ad":2170,"+\\,":2171,"nf":2172,"Ġ([":2173,"})&=\\":2174,"Ġ,\\\\\\":2175,"Ġ)(":2176,"^*_{\\":2177,"'|^":2178,"succ":2179,"bigsqcup":2180,"ome":2181,"Tilde":2182,"NR":2183,"tf":2184,")],\\":2185,"\\,=\\,":2186,"&=-\\":2187,"''_{":2188,"Ġas":2189,"^{(+":2190,"Ġ\\|_{\\":2191,"_{}":2192,")&:=":2193,"]},":2194,"))^{\\":2195,"''(\\":2196,"000":2197,"emph":2198,";\\,":2199,"\\}}(":2200,"dP":2201,"nb":2202,"57":2203,"AX":2204,"sgn":2205,"}_-":2206,"Ġ&&\\":2207,"')^{-":2208,"]}_{":2209,"dcases":2210,"dh":2211,"{\\{":2212,"_{_":2213,"})|\\":2214,"Ġ\\,.":2215,"tA":2216,"script":2217,")!\\":2218,"ae":2219,"ess":2220,"}_{\\{":2221,"Ġ=(\\":2222,"}),\\\\":2223,"})}{(":2224,"))&=":2225,"}[(":2226,")\\;,\\":2227,"bx":2228,"Ġ\\!\\":2229,"Ġ((\\":2230,"ute":2231,"))\\\\&=":2232,"02":2233,"42":2234,"!}{(":2235,"po":2236,"}'_":2237,"'))":2238,"jlim":2239,")|.\\":2240,"_*^":2241,"\\{-":2242,"arpo":2243,"]+[":2244,"[{":2245,"jn":2246,"tz":2247,"^{|\\":2248,"tabul":2249,"}{=}":2250,"^{+}_{":2251,"tabular":2252,"}_*":2253,"&=&":2254,"*}(-":2255,"}\\:":2256,")\\\\=&":2257,"acute":2258,"CS":2259,"Ġ}{(":2260,"Ġwhere":2261,"}|_{\\":2262,"})\\\\&":2263,"'),\\":2264,")\\!":2265,"^+(\\":2266,"'},\\":2267,",~\\":2268,"]}.\\":2269,"Ġdf":2270,")|}{":2271,"])=":2272,"dash":2273,")|}":2274,"res":2275,"ĠdB":2276,"{.":2277,"Ġ\\,\\,\\":2278,"}({":2279,"{{{":2280,"}\\;.\\":2281,"}^{*}\\":2282,"loc":2283,"},{":2284,"Ġad":2285,"Ġ&=(":2286,"ccccc":2287,"]=-":2288,"pp":2289,"}}{{":2290,"&:=":2291,"&:=\\":2292,",\\;\\":2293,"very":2294,"'}^{":2295,"]}^{":2296,")})^":2297,"vv":2298,"}+|":2299,")))\\":2300,"}^{+}\\":2301,"80":2302,"ru":2303,"}(\\{":2304,")-(\\":2305,";\\;\\;\\":2306,"rhd":2307,"\\\\&+\\":2308,"triangleright":2309,")\\\\&+\\":2310,"]_\\":2311,"cz":2312,"Ġsu":2313,"),\\;":2314,"''}":2315,"kf":2316,"nmid":2317,"}],\\":2318,"$.}\\":2319,"}){\\":2320,")}\\,\\":2321,"Ġsome":2322,"\\;\\;":2323,"})+(":2324,"supp":2325,"_-^":2326,"ikx":2327,"\\}}|":2328,"bigotimes":2329,"|\\\\&\\":2330,"Ġ)_{":2331,"67":2332,"ns":2333,"tv":2334,"|}.\\":2335,"|<\\":2336,"}}_\\":2337,"\\\\=&":2338,"}=(-":2339,"'}_{":2340,"]).\\":2341,"}...":2342,"}}},":2343,")}},\\":2344,"41":2345,"\\})\\":2346,"||_":2347,"^+)":2348,"_+(\\":2349,"_*(\\":2350,"}^{+}(":2351,"rtimes":2352,"}|=":2353,"CP":2354,"Ġ(|\\":2355,";\\;\\;\\;":2356,"_{+}\\":2357,"})\\\\&=":2358,"ju":2359,"arge":2360,"jm":2361,"}}&":2362,"\\\\&+":2363,"}=&\\":2364,"Ġ|{\\":2365,"textsf":2366,"Ġ&\\\\":2367,"bigvee":2368,"Ġevery":2369,"^*=\\":2370,"29":2371,"}](":2372,"Ġ13":2373,"scriptsize":2374,"=(-":2375,"|(\\":2376,"^{-}(":2377,"yx":2378,"Ġ\\\\-\\":2379,"land":2380,"}_{(\\":2381,"Ġ}.":2382,"}\\,{\\":2383,"Ġotherwise":2384,"el":2385,"NC":2386,"ai":2387,"},-":2388,"Ġ\\;,":2389,"}^{-}(":2390,"}~.\\":2391,"]},\\":2392,")}(-":2393,"Ġ\\|(":2394,"-[":2395,"dF":2396,"ev":2397,"}\\},\\":2398,"ĠdX":2399,"}-(\\":2400,"Var":2401,"Ġ\\}.":2402,"ĠRic":2403,"Sp":2404,"nz":2405,"Ġ&-\\":2406,"}|}\\":2407,";,\\":2408,"}'(\\":2409,")~.\\":2410,"~~~~~~~~~~~~~~~~":2411,"Ġ}-\\":2412,"ef":2413,"^{-}":2414,"..,":2415,":\\:":2416,"}\\;,\\":2417,"]]":2418,"me":2419,"qt":2420,"vmatrix":2421,"})}=":2422,")}&=\\":2423,"dxdt":2424,"],[":2425,"75":2426,"az":2427,"})},":2428,"\\|=":2429,"Ġ)+":2430,"Ġch":2431,"lt":2432,"ue":2433,"}^{}":2434,")=[":2435,"}|}":2436,"longmapsto":2437,"49":2438,"=\\{\\":2439,"Ġmod":2440,"BA":2441,"]&=":2442,"^*}(":2443,"ca":2444,"nj":2445,"rk":2446,"}{[":2447,"Ġdm":2448,"Ġ).":2449,"\\},\\{":2450,"+\\|\\":2451,"Ġdiag":2452,"'}=":2453,"|-\\":2454,"}\\},":2455,"Ġ|(":2456,"*}&(":2457,"'}.\\":2458,",|\\":2459,"TX":2460,"dT":2461,"sign":2462,"Ġ24":2463,")|_":2464,"_{-}\\":2465,"\\!\\!":2466,"})^*":2467,"},(":2468,")*":2469,"]\\\\&=":2470,"hphantom":2471,"Ġ=\\{":2472,"\\\\(":2473,")|_{\\":2474,")}),\\":2475,"nh":2476,"):=(":2477,"Ġconst":2478,"88":2479,"bq":2480,"Ġto":2481,"UV":2482,"cx":2483,"}{-":2484,"(\\|\\":2485,"Ġdp":2486,"Ġ)^{\\":2487,"iH":2488,"js":2489,"lr":2490,"Ġdg":2491,"itH":2492,"preceq":2493,"Ġ11":2494,"Ġ}_{\\":2495,"NS":2496,"}>\\":2497,")]=\\":2498,"_{+,":2499,"dY":2500,"asy":2501,"curl":2502,")}\\\\&\\":2503,"/(\\":2504,"dle":2505,"}*\\":2506,".\\\\":2507,"dist":2508,",\\,\\,\\,\\,\\,\\,\\,\\":2509,"55":2510,"^{-|":2511,"})\\,\\":2512,")_{(":2513,"\\}+\\":2514,"xv":2515,"Ġ!":2516,"_{(-":2517,"}}=-\\":2518,"ĠdA":2519,"_-,":2520,"ST":2521,"]})":2522,"{,":2523,"}}:=\\":2524,"})}=\\":2525,"bigtriangle":2526,"Ġany":2527,"{-}":2528,"const":2529,"ku":2530,"|~":2531,"thing":2532,"}}),\\":2533,"^{-{":2534,")>\\":2535,"vdash":2536,"}))=":2537,"ext":2538,")\\\\=&\\":2539,"middle":2540,"^-}":2541,"AC":2542,"\\}\\,":2543,"]^\\":2544,"cb":2545,"qr":2546,")\\},\\":2547,"dotsb":2548,"_{\\|":2549,"Ġdk":2550,")=|":2551,"\\{|":2552,"Ġ~.\\":2553,"+~":2554,"-(-":2555,"plus":2556,"tq":2557,"~}":2558,"Ġ&{\\":2559,")}:=\\":2560,")^+":2561,"})=-\\":2562,"span":2563,"Res":2564,"^{\\{":2565,"varno":2566,")+{\\":2567,"varnothing":2568,"\\}_":2569,"}\\,\\,\\":2570,"Ġdim":2571,")|=\\":2572,",\\\\(":2573,"'^{":2574,"*}_{":2575,"})/":2576,"^{\\#":2577,"Ġdis":2578,"'',":2579,">=\\":2580,"-\\|":2581,"}^+\\":2582,"~~~\\":2583,"av":2584,"mo":2585,"rx":2586,"xf":2587,"Ġ}^{(":2588,"Ġ\\!\\!":2589,"_{>":2590,"(\\{\\":2591,"}}[\\":2592,")^{-(":2593,"),\\\\&\\":2594,"90":2595,"Ġ{-":2596,"Ġ_{-":2597,"|=|":2598,"DF":2599,"]}(\\":2600,"Ġ})\\":2601,"*}||":2602,"dR":2603,"dn":2604,"ja":2605,"med":2606,"mkern":2607,"ner":2608,"|}(":2609,"Ġ&<":2610,"-\\,":2611,"Ġdq":2612,"dotsm":2613,"=~\\":2614,"mx":2615,"})&":2616,"^*.\\":2617,"72":2618,"]}=":2619,"}})=\\":2620,")}&":2621,"\\,|\\,\\":2622,"&=-":2623,"_{[-":2624,"sr":2625,"Ġ&+\\":2626,"}):=":2627,"^-,":2628,"boxplus":2629,"gx":2630,"pk":2631,"|-|":2632,"Ġ)}{":2633,"gen":2634,"Tf":2635,"YM":2636,"fo":2637,"sion":2638,"intercal":2639,"')^{":2640,"ks":2641,"lcl":2642,"*}{{\\":2643,"subar":2644,"atur":2645,"}]}":2646,"subarray":2647,"dE":2648,"db":2649,"gf":2650,"sx":2651,"}^{|":2652,"Ġ+(\\":2653,"}}\\\\&\\":2654,"),~":2655,"searrow":2656,"kd":2657,"|)^{":2658,"\\,{":2659,"ĠSO":2660,")\\\\&+":2661,"atural":2662,"';":2663,"circle":2664,"Ġ>\\":2665,")|\\,":2666,"pn":2667,"tbinom":2668,"}^{{":2669,"}^+(":2670,")-{\\":2671,")\\,.":2672,"*}(-\\":2673,"Vol":2674,"{\\|\\":2675,"}})^":2676,"^{++":2677,"tw":2678,")}&=":2679,"}}\\;":2680,"'')":2681,"})=-":2682,"^-(\\":2683,"}~,\\":2684,"Ġsuch":2685,"&\\\\":2686,"'}=\\":2687,"}^-(":2688,"overbrace":2689,")^{|\\":2690,"^-)":2691,"))^\\":2692,",~~~":2693,"jp":2694,"{}\\":2695,"}}]":2696,"doteq":2697,"ĠAx":2698,")&=-\\":2699,"supseteq":2700,"47":2701,"KL":2702,"ominus":2703,"}}}}\\":2704,")}&\\":2705,"))_":2706,"Ġ{}_":2707,")}{|\\":2708,":\\;":2709,"Ġ~~\\":2710,"li":2711,")}]":2712,"''+":2713,"CC":2714,"')(":2715,"52":2716,"Ġ...,":2717,"}}}=\\":2718,"}})(":2719,")],":2720,"})\\\\&\\":2721,"}^{+}":2722,"\\}|":2723,"natural":2724,"qz":2725,"Ġ/\\":2726,"tharpo":2727,")\\;\\":2728,"}}),":2729,"}_{-\\":2730,"Ġ[-\\":2731,"\\!+\\!":2732,"~~~.\\":2733,"Ker":2734,"TA":2735,"cy":2736,"hen":2737,"vu":2738,"|/":2739,"}):":2740,"^\\#":2741,"\\,(\\":2742,")|}{|":2743,"Ġ~,\\":2744,",...,\\":2745,"!}{\\":2746,"mb":2747,"qp":2748,"{[\\":2749,"Ġ))":2750,"Ġ18":2751,"ĠVol":2752,"...,\\":2753,"'/":2754,"ay":2755,"}}|^":2756,"Ġ15":2757,"Ġ\\,{\\":2758,")})=\\":2759,"#\\{":2760,">=":2761,"\\!\\!\\":2762,"\\\\=&\\":2763,"^*)^":2764,"}+\\|":2765,"ree":2766,")}},":2767,"asymp":2768,"tg":2769,"}}/":2770,"},\\,\\":2771,"ĠId":2772,"hook":2773,")~\\":2774,"]:":2775,"wt":2776,"Ġmax":2777,"}=[":2778,"}}{=}":2779,"128":2780,"}]_":2781,"_+)":2782,"((-":2783,"54":2784,"lj":2785,"}}}{(":2786,"|\\;":2787,"orner":2788,"'}_":2789,"=|\\":2790,"ux":2791,")}}{(":2792,"\\\\-\\":2793,"Ġ20":2794,"))&=\\":2795,"_-(\\":2796,"^{+}\\":2797,"kz":2798,"nr":2799,"varGamma":2800,"\\|=\\":2801,")](":2802,"},\\\\&\\":2803,")}\\,.\\":2804,"Ġ\\}}":2805,"}\\|^{":2806,")},\\\\":2807,"}}\\\\&":2808,"^+,\\":2809,"_{+}^{":2810,"]&\\":2811,"cq":2812,"^{*}(\\":2813,"\\{(\\":2814,"ĠSU":2815,"hookrightarrow":2816,"38":2817,"Co":2818,"Lu":2819,"endaligned":2820,"+\\,\\":2821,"Ġ}}{\\":2822,"Ġmin":2823,"}^{(-":2824,",\\,\\,\\,\\,":2825,")~,\\":2826,"]}}":2827,"{}_\\":2828,"}',":2829,"~{\\":2830,"ord":2831,"Ġdxdt":2832,"HS":2833,"reg":2834,"|&\\":2835,"~~~~\\":2836,"~~~,\\":2837,"&&\\":2838,"Hom":2839,"Tu":2840,"jb":2841,"kq":2842,"ls":2843,"^{}":2844,"}^{\\,":2845,"Ġvol":2846,"Ġsin":2847,"^+_{\\":2848,"iw":2849,"tL":2850,"~=~":2851,"}\\,.":2852,"112":2853,"66":2854,"gtr":2855,"str":2856,",\\;\\;\\;":2857,"}^{*}(":2858,"bigtriangleup":2859,"']":2860,"')-":2861,"[[":2862,"un":2863,"|},":2864,"|},\\":2865,"ale":2866,"),&\\":2867,"!)^":2868,"jr":2869,"zx":2870,"}}}=":2871,"....":2872,")]^{":2873,"ect":2874,"GL":2875,"sb":2876,"}(|\\":2877,"=\\!":2878,"}}&=\\":2879,"^{-}_{":2880,"}}\\|\\":2881,")}\\|":2882,"}|^{\\":2883,"}}({\\":2884,")\\\\&=(":2885,";\\;\\;\\;\\;\\;\\;\\;\\":2886,"dc":2887,"rbrack":2888,"Ġ)\\,":2889,"}\\}_{":2890,")}\\\\&=":2891,")}^\\":2892,"Ġ{}^":2893,")((":2894,"*}({\\":2895,")&=-":2896,"]}}(":2897,"rightharpo":2898,"iS":2899,"onu":2900,"{}_{\\":2901,"_{\\,":2902,"\\|.\\":2903,"onup":2904,"BR":2905,"_{*":2906,"III":2907,"')+":2908,"iX":2909,"tX":2910,")\\:":2911,"Ġdh":2912,"),(\\":2913,"Ġ|^{":2914,"...+":2915,"_-}":2916,"}^*_":2917,"note":2918,"^{*,\\":2919,"78":2920,"}}&=":2921,"Ġdd":2922,"Ġ,\\\\&":2923,"Ġ)+\\":2924,"_*,":2925,"'|\\":2926,"BS":2927,"kh":2928,"|+|\\":2929,"})),\\":2930,")}=-\\":2931,"abcd":2932,"pres":2933,"'}}\\":2934,"68":2935,"bt":2936,"so":2937,"|)^":2938,"Ġ)-":2939,"}{*{":2940,"Ġ\\\\{\\":2941,")||":2942,"_-)":2943,"JX":2944,"vw":2945,"enskip":2946,"af":2947,"bs":2948,"ky":2949,"xe":2950,"Ġat":2951,"*}<\\":2952,"=\\;\\":2953,"otnote":2954,")}:=":2955,"Ġit":2956,"odd":2957,"\\}}|\\":2958,"})\\\\&=\\":2959,"textsc":2960,"footnote":2961,"58":2962,"fF":2963,"mc":2964,"0000":2965,")),\\\\":2966,"1234":2967,"Ġ}\\;":2968,"}&=(":2969,"genfrac":2970,"]&=\\":2971,"kb":2972,"}},\\\\":2973,")}\\\\&":2974,"}^{-}\\":2975,"]=-\\":2976,"succeq":2977,")\\},":2978,"^{-{\\":2979,"rob":2980,"}||_{":2981,")}),":2982,"medskip":2983,"rightharpoonup":2984,"*(":2985,"mi":2986,"Ġma":2987,"Ġint":2988,"_{}(":2989,"(\\,":2990,"{\\,":2991,"Ġ,\\,":2992,"}:=\\{":2993,">_{":2994,"jf":2995,"vphantom":2996,"*}+":2997,"^{[\\":2998,"}}}(\\":2999,"}}&\\":3000,")}:":3001,"\\;,":3002,"SI":3003,"iD":3004,"iR":3005,"|.":3006,"})}(\\":3007,"ĠII":3008,"Ġ\\;\\;\\;\\;":3009,"=-(":3010,"^*}{":3011,"iB":3012,"zw":3013,"-\\!\\":3014,"hom":3015,"Ġ{|":3016,"'})\\":3017,"<+\\":3018,")}/":3019,"}||\\":3020,"new":3021,",~~\\":3022,";\\\\\\":3023,"AD":3024,"Li":3025,"\\}+":3026,"},[":3027,")})^{-":3028,"break":3029,"rd":3030,"}')":3031,"}))=\\":3032,"_+-":3033,"_+}\\":3034,"')}\\":3035,"PQ":3036,"]}=\\":3037,"hf":3038,"Ġln":3039,"Ġ}}}":3040,"Ġ\\,|\\,":3041,"cript":3042,"prescript":3043,"..\\":3044,"mt":3045,"120":3046,"}|.\\":3047,")|}\\":3048,"$},":3049,"dZ":3050,"hk":3051,"Ġ\\:\\":3052,"}{}{":3053,"})_\\":3054,")};":3055,"Ġsign":3056,"projlim":3057,"):=\\{":3058,"!},\\":3059,"'}^{(":3060,")'(":3061,"))=(":3062,"MA":3063,"TB":3064,"{}^{":3065,"*}+\\":3066,"}};":3067,"Ġ{(\\":3068,"''}{":3069,"^-}\\":3070,")}}=":3071,"]-[":3072,"$},\\":3073,"])=\\":3074,"sw":3075,"tot":3076,"Ġan":3077,"+}(":3078,"Af":3079,"\\,\\,\\":3080,"be":3081,"mj":3082,"{_":3083,"varprojlim":3084,"\\,,\\\\":3085,"~~~~~":3086,";\\;\\;\\;\\;\\;":3087,"'}+":3088,",[\\":3089,";-":3090,"Ġde":3091,"version":3092,"Ġ\\,(":3093,"}}{|\\":3094,")]_":3095,"Ġ...\\":3096,"*}.":3097,"}})}":3098,"})|^":3099,"))]":3100,"'''(":3101,")]_{":3102,"Ġdist":3103,"gtrsim":3104,"'\\,":3105,")}^{(":3106,"BH":3107,"jy":3108,"mathversion":3109,"Ġik":3110,"}=\\{\\":3111,"Ġ}|":3112,"_{-,":3113,"_{_{\\":3114,"}}\\\\\\":3115,"coprod":3116,"}\\,=\\,":3117,"'^{-":3118,"70":3119,"eda":3120,"||_{\\":3121,"aligneda":3122,"^*)=":3123,"Ġsym":3124,"ĠSp":3125,"$,}":3126,"alignedat":3127,"TV":3128,"]|":3129,"dl":3130,"mr":3131,"*}{{":3132,"tive":3133,"mult":3134,"|\\{":3135,"})\\\\\\":3136,"<|":3137,"dH":3138,"dM":3139,"dbinom":3140,"hg":3141,"iJ":3142,"|}}":3143,"}}~":3144,"}}:=":3145,"}^-\\":3146,"}\\\\=&\\":3147,"})=(\\":3148,"_*)":3149,"ABC":3150,"dL":3151,"jv":3152,"nP":3153,"neg":3154,"Ġ^{-\\":3155,"_{,\\":3156,"})-(":3157,")}_{(":3158,"varPhi":3159,"}_{|":3160,"Ġ[[":3161,"{(}\\":3162,"triangleleft":3163,"39":3164,"ml":3165,"}})^{-":3166,"}_{{":3167,"_+,\\":3168,"Ġ\\\\&+\\":3169,")&=&":3170,")})^{":3171,"=:":3172,"]\\,.\\":3173,"hx":3174,"pe":3175,"ĠAB":3176,"Ġ&=-\\":3177,"))}.\\":3178,"Dw":3179,"[|":3180,"large":3181,"*}_":3182,"race":3183,"Ġ\\,&":3184,"))|\\":3185,"}}^{[":3186,"}'_{":3187,"footnotesize":3188,"CM":3189,"\\#":3190,"})]\\":3191,"\\,|":3192,"\\,=\\,\\":3193,"^*+\\":3194,"Ġ|\\{":3195,"')|":3196,",..,":3197,"76":3198,"AP":3199,"gra":3200,"=\\{(":3201,"}}}^{":3202,"Ġ-|":3203,"^*-\\":3204,"ĠCh":3205,"Ġ[(\\":3206,"}\\\\=&":3207,"]}_":3208,"jh":3209,"}\\,(\\":3210,")}}}":3211,")}}=\\":3212,"BD":3213,"mq":3214,"ub":3215,"})^{-\\":3216,"Ġax":3217,"),\\,\\,":3218,"\\{{\\":3219,"real":3220,"}''(":3221,"}}\\,.\\":3222,"=[\\":3223,"iI":3224,"xw":3225,"|>\\":3226,"erms":3227,"lor":3228,"},&\\":3229,"ĠLi":3230,"-}\\":3231,"ea":3232,"gr":3233,"jt":3234,"xg":3235,"}{}_{\\":3236,"}{\\|\\":3237,"Ġ&=-":3238,"rcorner":3239,"}|_":3240,"}/(":3241,"59":3242,"ile":3243,"Ġda":3244,"allow":3245,"}(\\|":3246,"Ġ{}_{":3247,"Ġ}}{{":3248,"aleph":3249,"![":3250,"'}^{\\":3251,";{\\":3252,"PS":3253,"md":3254,"sa":3255,"Ġ+|":3256,"})}^{":3257,"&=|":3258,"Ġsgn":3259,"underbar":3260,")]^{-":3261,"stant":3262,"Ġ:\\,":3263,"|=|\\":3264,"))\\\\&":3265,".,":3266,"lrcorner":3267,"{.}\\":3268,"Ġ=(-":3269,"Ġuv":3270,"Ġ(\\{":3271,"sec":3272,"Ġ&\\;":3273,"''+\\":3274,"_{+}}":3275,")}=(":3276,"smile":3277,")~~":3278,"^{^{":3279,"}{(-":3280,"}=:":3281,"Ġnt":3282,"}]+":3283,";\\;\\;\\;\\;":3284,"!},":3285,"AY":3286,"Bu":3287,"})>":3288,"+\\!\\":3289,")}[\\":3290,"Ġ)}{\\":3291,"]\\!":3292,")|&\\":3293,"Ġ\\\\&-":3294,"LC":3295,"\\}\\,.\\":3296,"rf":3297,"uz":3298,"{{{\\":3299,"}!":3300,"}}}_{":3301,"})&\\":3302,"\\,}":3303,"Ġ[{\\":3304,"}}=-":3305,")}\\\\&=\\":3306,"-}(":3307,"46":3308,"TP":3309,"iF":3310,"tp":3311,"Ġ\\,\\,\\,\\,":3312,"}([\\":3313,"},-\\":3314,"Ġby":3315,"''=":3316,"smallsetminus":3317,"})\\,.\\":3318,"TE":3319,"\\}=\\{":3320,"sym":3321,"zf":3322,"=-{":3323,"}&=&":3324,"&&&":3325,"+}_{":3326,"BB":3327,"|}^":3328,"Ġ].\\":3329,"&=(\\":3330,"}|(":3331,")\\,=\\,":3332,"Dv":3333,"nT":3334,"sz":3335,"Ġ&\\,":3336,"Ġdeg":3337,"Ġ|_{\\":3338,")+(-":3339,"}^{-}":3340,"}^*(\\":3341,"@{\\":3342,"ltimes":3343,"}}<\\":3344,").\\\\\\":3345,")}\\;":3346,"Ġcm":3347,")\\,{\\":3348,")]+":3349,"...)":3350,",~~~~":3351,"/|":3352,"bz":3353,"nR":3354,"qq":3355,"xH":3356,"yu":3357,"}{}_":3358,"}{}^{\\":3359,"}}:":3360,"}}<":3361,"})),":3362,"ngth":3363,")}\\|_{":3364,"\\{|\\":3365,"Ġ_{{\\":3366,"^+_\\":3367,")]^{\\":3368,"nearrow":3369,"SS":3370,"aw":3371,"Ġ!}":3372,")^{[":3373,")^{(\\":3374,"}-|":3375,")(|":3376,"&=\\{":3377,"111":3378,"CF":3379,"rj":3380,"sd":3381,"}^{*":3382,"(-(":3383,")|^{\\":3384,")}\\,,\\":3385,",\\,\\,\\,\\,\\,":3386,"]}^":3387,"br":3388,"jq":3389,"rp":3390,"^{}_{":3391,"^{'}":3392,")\\,\\,":3393,")=-(":3394,"Ġ,&":3395,"))\\\\&=\\":3396,"05":3397,"98":3398,"\\&=":3399,"rn":3400,"ind":3401,"length":3402,"Ġre":3403,"Ġreg":3404,"})\\|_{":3405,"{(}":3406,")|=|":3407,"_{-}^{":3408,"/{\\":3409,":~":3410,"cn":3411,"qc":3412,"zt":3413,"{}^\\":3414,"Ġlog":3415,"^{''":3416,"}{=}\\":3417,"})}}":3418,")}>":3419,"lap":3420,"})\\;":3421,"_+^{-":3422,"}}=(":3423,":\\,\\":3424,"nv":3425,"pc":3426,"|).\\":3427,"injlim":3428,"}{-\\":3429,"})}.":3430,"varinjlim":3431,"}=\\|":3432,"|,|":3433,")'\\":3434,"Bar":3435,"MS":3436,"PD":3437,"je":3438,"kR":3439,"lu":3440,"lhd":3441,"sl":3442,"*}\\#":3443,"}))(":3444,"^{-}\\":3445,")}\\\\\\":3446,"Ġbc":3447,"Ġ36":3448,"|}{|\\":3449,".~":3450,"[\\,":3451,"]:=":3452,"kT":3453,"})}^":3454,"Ġij":3455,"125":3456,")|}{\\":3457,")||_{":3458,"}])":3459,"_+=":3460,"}[(\\":3461,"Ġ$(":3462,"'d":3463,"hu":3464,"sy":3465,"_{\\#":3466,"}^{[\\":3467,"side":3468,"},\\;\\":3469,")^{{":3470,"^*)=\\":3471,"ĠTM":3472,"Ġ\\{-":3473,")_*":3474,"\\}\\\\&=\\":3475,"dQ":3476,"nl":3477,"sho":3478,"ul":3479,")+{":3480,"ĠDu":3481,"Ġ\\;.":3482,")})(":3483,"]=(":3484,"}\\,\\,\\,":3485,"*}{}_":3486,"^{*}}":3487,"cccccc":3488,"$-":3489,"')+\\":3490,"Lip":3491,"aj":3492,"iY":3493,"|&=\\":3494,"Det":3495,"&=&\\":3496,"Ġcl":3497,"}),\\\\\\":3498,"jkl":3499,"}}\\,,\\":3500,":\\:\\:":3501,"03":3502,"77":3503,"kA":3504,"Ġ],\\":3505,"phys":3506,"});":3507,"intop":3508,"Ġ\\\\(\\":3509,"bound":3510,"}|}{":3511,"}||^":3512,"subsetneq":3513,"}^*_{":3514,"\\},\\\\\\":3515,")^*(":3516,"Ġ*\\":3517,"WZ":3518,"]),\\":3519,"gs":3520,"iP":3521,"ject":3522,"}~~\\":3523,"Ġ]=":3524,"}})^{\\":3525,"))}{|":3526,"_+^{\\":3527,"$,}\\":3528,"'}-":3529,":(":3530,"iN":3531,"kg":3532,"qa":3533,"ws":3534,"}\\;\\;\\":3535,"(\\,\\":3536,"}}>":3537,")|+|":3538,"\\\\&=-\\":3539,"Bbbk":3540,"+&":3541,"Pf":3542,"dK":3543,"iV":3544,"{-(":3545,"})}+\\":3546,"ĠAd":3547,"^*[":3548,":=(\\":3549,"{(-\\":3550,")_-":3551,"256":3552,"}}\\\\&=\\":3553,"))\\\\&\\":3554,"BM":3555,"iE":3556,"pd":3557,"rg":3558,"td":3559,"vi":3560,"vx":3561,"},~~":3562,")}{=}":3563,"_++":3564,"))\\\\\\":3565,"}}^{(\\":3566,"}},{\\":3567,"*}{}":3568,"^{**}":3569,"RS":3570,"\\&=\\":3571,"bp":3572,"even":3573,"mh":3574,"tb":3575,"}'}":3576,"^*).\\":3577,")|,\\":3578,"''-":3579,"_-}\\":3580,"}\\\\&+":3581,";}":3582,"SL":3583,"kv":3584,"_{*}\\":3585,"}})_{":3586,"}^*}":3587,")=:":3588,"},...,\\":3589,"}=|":3590,")^{*}":3591,"lined":3592,"^*),":3593,"\\|}":3594,"^-_{\\":3595,"):=-\\":3596,"multlined":3597,"')}{":3598,"'}_{\\":3599,"51":3600,"GS":3601,"TT":3602,"\\}^{\\":3603,"bn":3604,"hc":3605,"py":3606,"tB":3607,"Ġ\\}_{":3608,"}\\}}":3609,"|\\\\&":3610,"ĠDf":3611,"subject":3612,"}&:=\\":3613,"^*}^":3614,"pound":3615,"Ai":3616,"Dg":3617,"Tv":3618,"\\}_{\\":3619,"\\}).\\":3620,"_!":3621,"|}}\\":3622,"_{\\!":3623,"opt":3624,")\\\\=":3625,")}({\\":3626,"_-}{":3627,"_-,\\":3628,")}=-":3629,"allowbreak":3630,"pounds":3631,"dU":3632,"nH":3633,"}\\}=":3634,"_{\\{|":3635,"-\\{":3636,"Ġ\\\\=&\\":3637,"Ġ23":3638,"))).\\":3639,"*}{}\\":3640,"}^+_":3641,"65":3642,">_":3643,"AM":3644,"]\\\\&=\\":3645,"eB":3646,"ipa":3647,"qs":3648,"Ġ&:":3649,"ccl":3650,"^+=":3651,"^+.\\":3652,"^{*}_":3653,"}}+{\\":3654,"qn":3655,"}})-":3656,"})|_{":3657,"\\,,\\,":3658,"ĠAu":3659,"))_{\\":3660,")|,":3661,"\\,\\,\\,":3662,"longleftrightarrow":3663,"&*":3664,"&{\\":3665,"Rf":3666,"XX":3667,"cs":3668,"mf":3669,"rq":3670,"inv":3671,"}\\!\\!":3672,"Ġ&:=\\":3673,"),{\\":3674,"}+(-":3675,"pan":3676,"there":3677,"minipa":3678,"\\\\&-\\":3679,"noalign":3680,"minipage":3681,"53":3682,"\\}}.\\":3683,"]/":3684,"}}^*":3685,"}}}\\,":3686,"},~\\":3687,"124":3688,"Ġ_{(":3689,")\\,|\\,":3690,"}&(":3691,"')-\\":3692,"Ay":3693,"Br":3694,"qy":3695,"ri":3696,"uf":3697,"zy":3698,"Ġim":3699,"Ġ\\}=":3700,"^{~":3701,"^{'}(":3702,"}))^":3703,"Ġev":3704,"Ġ_{{":3705,"\\\\&=(":3706,"'\\\\":3707,"UU":3708,"]\\,,\\":3709,"ach":3710,"bv":3711,"grad":3712,"iL":3713,"jz":3714,"rT":3715,"Ġ}^\\":3716,"der":3717,"erm":3718,"}_{>":3719,"Ġtx":3720,"Ġ(\\|":3721,"}+|\\":3722,"Ġ|}":3723,"ĠCo":3724,")}((":3725,")_+\\":3726,"_{+}^":3727,"}&=-":3728,"ize":3729,"({{":3730,"Op":3731,"\\}-":3732,"]}|":3733,"kD":3734,"Ġnu":3735,"Ġ\\!\\!\\":3736,"*}^":3737,"}\\!\\!\\":3738,"})[\\":3739,"},\\,\\,":3740,"}.\\\\\\":3741,"Ġ\\,:\\,":3742,"}}{[":3743,"_{-}}":3744,"}]}\\":3745,",~~~\\":3746,"BF":3747,"Dx":3748,"]:=\\":3749,"iG":3750,"}}}^":3751,"})^{(":3752,"^*)(":3753,")}\\|\\":3754,"Ġ_{+":3755,"^+}{":3756,"'')\\":3757,"Ġ48":3758,"*}[{\\":3759,"})\\,,\\":3760,"mode":3761,";(":3762,";\\\\&":3763,">.\\":3764,"DE":3765,"Ind":3766,"Lx":3767,"\\;\\;\\":3768,"ise":3769,"sn":3770,"uw":3771,"Ġ=[":3772,"-\\,\\":3773,"),~~":3774,"Ġ|(\\":3775,"}](\\":3776,"Ġ~+~":3777,"}}\\\\&=":3778,"Av":3779,"Np":3780,"eu":3781,"kN":3782,"mz":3783,"_{_\\":3784,"}^{}\\":3785,"}_+\\":3786,")=\\{\\":3787,"Ġ{_":3788,"Ġ}~":3789,"^+)\\":3790,"Ġ|\\,":3791,"ite":3792,"*}\\|(":3793,"}=-{":3794,"arccos":3795,",+}(":3796,"Ġcos":3797,"sideset":3798,"!}(":3799,":|":3800,"CR":3801,"])}":3802,"bj":3803,"ben":3804,"drel":3805,"rz":3806,"yp":3807,"=\\|\\":3808,"}})+":3809,"Ġex":3810,"Ġpt":3811,"}}{\\|":3812,"}\\\\-":3813,")}}(\\":3814,"}/{\\":3815,"}&=-\\":3816,"}=-{\\":3817,".(":3818,"ee":3819,"gy":3820,"pu":3821,"tH":3822,"|}=\\":3823,"Ġ^*":3824,"alg":3825,"tic":3826,"Ġ&>":3827,"Ġ17":3828,"Ġst":3829,"xyz":3830,"}}}{{\\":3831,"}\\\\&+\\":3832,"}\\\\&=(":3833,"89":3834,"Pro":3835,"\\}(":3836,"kw":3837,"nF":3838,"}{}":3839,"}}_{(":3840,"Ġ+(-":3841,"ĠdR":3842,"},\\;\\;":3843,")}{{\\":3844,"}^{(+":3845,")\\,(":3846,"\\{\\|":3847,"}]^{":3848,"_+^\\":3849,"''_{\\":3850,"ĠOp":3851,"101":3852,"}}^{*}":3853,"}}={\\":3854,"ildrel":3855,"buildrel":3856,"}\\;,":3857,"Ġ~~~~~":3858,"Cov":3859,"!}=\\":3860,"NN":3861,"cf":3862,"hslash":3863,"ity":3864,"kB":3865,"ld":3866,"mspace":3867,"Ġdef":3868,"=\\!\\":3869,"Ġ&(\\":3870,"})[":3871,")}|^":3872,")=|\\":3873,"Ġ\\,+\\,":3874,":=-\\":3875,"com":3876,"}\\,{":3877,"}|+":3878,"''}\\":3879,")!}.\\":3880,"\\!-\\!\\":3881,"#(":3882,":-\\":3883,"Ext":3884,"RF":3885,"gu":3886,"uy":3887,"url":3888,"xb":3889,"_{*}(":3890,"Ġ=|":3891,"}^{~":3892,"}}}+":3893,"elli":3894,"Ġ{[":3895,"Ġmn":3896,"]\\;":3897,")|^{-":3898,"^+-":3899,"}]^":3900,"''-\\":3901,")}}^":3902,"}\\|(":3903,"*}&\\|":3904,"ilb":3905,"AZ":3906,"Ty":3907,"\\}-\\":3908,"\\})=\\":3909,"Ġ}({\\":3910,"ĠdP":3911,"overleftarrow":3912,"Ġpq":3913,"}}((":3914,"110":3915,"})={\\":3916,"'}^{-":3917,"Ae":3918,"DA":3919,"\\}}{":3920,"\\:\\":3921,"csc":3922,"|}\\,":3923,"Ġrank":3924,"Ġpr":3925,"my":3926,"sT":3927,"{)}":3928,"inite":3929,"Ġ&{":3930,"}}}+\\":3931,"Ġix":3932,"tric":3933,")(-\\":3934,"col":3935,"Ġ,\\;":3936,"Ġ)}(":3937,"Ġdxdy":3938,")&=(\\":3939,"*}||\\":3940,")\\;=\\;":3941,"92":3942,"RT":3943,"\\}}{\\":3944,"]\\\\&\\":3945,"iQ":3946,"qf":3947,"{~":3948,"|{":3949,",\\:":3950,"the":3951,".\\\\&\\":3952,"Ġ&|":3953,"\\,}\\":3954,")))=":3955,"^*)^{-":3956,"Ġ}}(":3957,"ĠYM":3958,"_+^{":3959,"_{+},":3960,"~~~~~~":3961,"],\\\\\\":3962,"^{+}}\\":3963,"=&(":3964,"arcsin":3965,"DH":3966,"SM":3967,"YZ":3968,"[|\\":3969,"nE":3970,"~&":3971,"mathelli":3972,"}};\\":3973,"}}}}}":3974,"psis":3975,"}_{,":3976,"\\\\=":3977,"Ġtot":3978,"Ġ)_":3979,")|+":3980,"Ġ}\\\\":3981,"short":3982,"mathellipsis":3983,".,\\":3984,":,":3985,"Jx":3986,"NP":3987,"TQ":3988,"jA":3989,"kX":3990,"when":3991,"{+}":3992,"Ġ\\!\\!\\!":3993,"_{~":3994,"}}]\\":3995,"varPsi":3996,"},(\\":3997,"Ġeach":3998,"^*)^{":3999,")-{":4000,"_{-}(\\":4001,"*}((":4002,"rrrr":4003,"tions":4004,"')\\,":4005,"*,":4006,"04":4007,"Ch":4008,"MC":4009,"dD":4010,"nA":4011,"wx":4012,"xs":4013,"Ġ&~":4014,"})}+":4015,"Ġdb":4016,"}_+(":4017,":=\\{\\":4018,"^{+}}":4019,"$},\\\\":4020,"-.":4021,"DB":4022,"\\})=":4023,"]/(":4024,"ble":4025,"iM":4026,"jd":4027,"nw":4028,"vt":4029,"yt":4030,"|_{(":4031,"âĢ":4032,"})})":4033,")}<\\":4034,"Ġterms":4035,"\\,:\\,":4036,")({\\":4037,"Ġ=\\;":4038,"Ġ)(\\":4039,"Ġ}\\,\\":4040,"^+=\\":4041,"^+)^":4042,"}]_{\\":4043,"}}_{{\\":4044,"_{++":4045,"}_{+}^{":4046,"'.":4047,"'s":4048,"97":4049,"LT":4050,"SP":4051,"cp":4052,"ww":4053,"_{}\\":4054,"}})}\\":4055,"ĠdZ":4056,"))&":4057,":=&\\":4058,"}|{\\":4059,"}|=\\":4060,"Ġ\\|_\\":4061,")]}":4062,"_--":4063,"}},\\\\\\":4064,"}^*)":4065,"};\\\\":4066,"'}+\\":4067,">,\\":4068,"NM":4069,"PT":4070,"aP":4071,"eth":4072,"ent":4073,"nX":4074,"vac":4075,"}...\\":4076,"Ġ\\})":4077,"^{\\,\\":4078,"ĠdF":4079,"Ġac":4080,"Ġ27":4081,"),[":4082,"),\\;\\;":4083,"Ġiz":4084,"Ġnk":4085,"'''":4086,"^{*}_{\\":4087,"$}\\\\":4088,"$.}":4089,"'^\\":4090,">-":4091,"@{}":4092,"Lf":4093,"frow":4094,"hv":4095,"pv":4096,"sg":4097,"val":4098,"xleftarrow":4099,"{}^{\\":4100,")\\}_{":4101,"})}_{":4102,"})}}\\":4103,"root":4104,"Ġ25":4105,"}=\\{(":4106,"Ġ|_":4107,")})_{":4108,"}',\\":4109,")|\\\\&\\":4110,")~=~":4111,"Ġ\\;\\;\\;\\;\\;":4112,"frown":4113,"+,":4114,"81":4115,"SR":4116,"Tw":4117,"dG":4118,"hh":4119,"tk":4120,"|)^{-":4121,"ard":4122,"Ġ-[":4123,"}))^{":4124,"}_{+}":4125,")+|":4126,"}+\\|\\":4127,"Ġwhen":4128,"_{(-\\":4129,"^-_\\":4130,"}$}":4131,"models":4132,"+)":4133,"Bx":4134,"CA":4135,"Jq":4136,"Nu":4137,"]\\\\\\":4138,"bk":4139,"lc":4140,"lp":4141,"red":4142,"|}=":4143,")\\}=":4144,"}})(\\":4145,"dast":4146,")=\\|":4147,"),~\\":4148,"})\\|":4149,"]\\,\\":4150,"}]-":4151,"}&&":4152,"Ġconstant":4153,"circledast":4154,")_{-":4155,"SD":4156,"SNR":4157,"TZ":4158,"ant":4159,"dN":4160,"xh":4161,"|}}{":4162,"raise":4163,"}-|\\":4164,"Ġcd":4165,"Ġres":4166,"\\|,":4167,"}\\,=\\,\\":4168,")|+|\\":4169,",\\\\-":4170,"_{+})":4171,")\\\\&-\\":4172,"}_+^":4173,"'}}{":4174,"))},":4175,"/{":4176,"63":4177,"DT":4178,"JK":4179,"ML":4180,"Mf":4181,"\\}\\\\&\\":4182,"qj":4183,"ug":4184,")\\}=\\":4185,"}}))":4186,"\\|^{\\":4187,"ĠHilb":4188,"}|^{-":4189,"Ġ\\{(\\":4190,")].":4191,"):=&\\":4192,"smallskip":4193,"}\\!-\\!":4194,"âĢĲ":4195,"'}-\\":4196,"){{\\":4197,"Az":4198,"XZ":4199,"]\\\\&":4200,"xa":4201,"Ġ\\;\\;\\;\\;\\;\\;":4202,"}}}_":4203,"^{-|\\":4204,"Ġ\\\\\\\\":4205,"\\{[":4206,"}|-":4207,"}|,\\":4208,"_+}{":4209,"^-=":4210,")})^{\\":4211,"}&:=":4212,"\\;=\\;":4213,"Ġ64":4214,"}}}{{":4215,"}^+(\\":4216,"arpoon":4217,"'&=":4218,"CH":4219,"Hess":4220,"Kf":4221,"NL":4222,"RL":4223,"ha":4224,"iC":4225,"idx":4226,"jV":4227,"kc":4228,"mL":4229,"orm":4230,"pf":4231,"ry":4232,"Ġ([\\":4233,"Ġ-(-":4234,"});\\":4235,")};\\":4236,"Ġexists":4237,"^*)-":4238,"Ġgh":4239,"\\|,\\":4240,")&=&\\":4241,"_{+}(\\":4242,"^{*},":4243,",&&":4244,")\\|_\\":4245,"+...+":4246,"85":4247,"NT":4248,"\\}^{(":4249,"jg":4250,"lq":4251,"nK":4252,"pw":4253,"pz":4254,"rh":4255,"sv":4256,"uph":4257,"{=":4258,"|[":4259,"~=~\\":4260,"}^{*}(\\":4261,"Ġ+\\|":4262,"Ġie":4263,"\\,[":4264,"Ġse":4265,"sep":4266,"ĠGL":4267,"}[-":4268,"{-}\\":4269,"134":4270,")\\\\&=-\\":4271,"):\\,":4272,"rule":4273,"upharpoon":4274,"'^{(":4275,"))}=":4276,"^*}{\\":4277,"iK":4278,"lx":4279,"~(":4280,".\\,":4281,"}}}.":4282,"}}+(":4283,"ĠdM":4284,"ĠdY":4285,"}=-(":4286,"),\\,\\":4287,"Ġgrad":4288,"Ġ.\\\\\\":4289,"})=(-":4290,"&&&&":4291,"Ġ\\#\\":4292,"{}{}{":4293,"'>":4294,"')^{\\":4295,"69":4296,"HP":4297,"RR":4298,"ag":4299,"xd":4300,"^{^{\\":4301,"_{\\;\\;":4302,"}})+\\":4303,")^{{\\":4304,"))|^":4305,"ĠHom":4306,"~~.\\":4307,")]-":4308,"}[|":4309,"_{+}-":4310,"=-{\\":4311,"Ġ&=\\{":4312,")}}{{\\":4313,"upharpoonright":4314,"!^":4315,"))},\\":4316,"200":4317,"84":4318,"JY":4319,"Mr":4320,"\\}},":4321,"ation":4322,"mall":4323,"tS":4324,"tc":4325,"xT":4326,"zv":4327,"}\\}=\\":4328,"}}}^{\\":4329,"+\\;":4330,"Ġun":4331,"}}\\!\\":4332,"eqn":4333,"Ġ{}^{\\":4334,"122":4335,"*}&[":4336,"}&{":4337,"}'=\\":4338,"^{+}_":4339,"^{+},":4340,"234":4341,"{[}":4342,"|-|\\":4343,",...\\":4344,"CB":4345,"][\\":4346,"free":4347,"lg":4348,"|}(\\":4349,"}}})":4350,")=[\\":4351,"ape":4352,"{((":4353,"}^{-(":4354,"^-,\\":4355,"^-)\\":4356,"]=[\\":4357,"boxed":4358,",-}(":4359,"}^+}":4360,"ccccccc":4361,"$}_{":4362,"-})":4363,"211":4364,"95":4365,";(\\":4366,"By":4367,"Cx":4368,"GM":4369,"KN":4370,"TD":4371,"Te":4372,"VP":4373,"aX":4374,"bi":4375,"bl":4376,"dC":4377,"iW":4378,"jc":4379,"kP":4380,"kij":4381,"|^{-(":4382,"Ġsupp":4383,")\\!\\":4384,"Ġ+[":4385,"Ġ\\\\+":4386,"imize":4387,"Ġnx":4388,"}}{(-":4389,")}{[":4390,")\\\\(":4391,")|^\\":4392,"}].":4393,"}]+\\":4394,"}]+[":4395,"cent":4396,"'',\\":4397,"Ġ30":4398,"disc":4399,"108":4400,")!!":4401,"}^*,":4402,"^{+}_{\\":4403,"^{'}_{":4404,"'))\\":4405,"({{\\":4406,"+}^{\\":4407,"Nf":4408,"Nx":4409,"YX":4410,"\\}\\,,\\":4411,"]^{(":4412,"];\\":4413,"aD":4414,"ah":4415,"jX":4416,"nL":4417,"sma":4418,"{,}\\":4419,"Ġ\\},\\\\":4420,"Ġ&,":4421,"})^*\\":4422,"leqq":4423,"))&\\":4424,"Ġ-\\,":4425,"}}({":4426,"_+=\\":4427,")]}\\":4428,"\\}\\\\\\":4429,")!}{\\":4430,"),\\\\(":4431,"\\\\&-":4432,")}+\\|":4433,"Ġ\\!+\\!":4434,"mber":4435,"'}}(":4436,",$":4437,"Con":4438,"PA":4439,"Tg":4440,"kC":4441,"rw":4442,"xF":4443,"|)^{\\":4444,"~.":4445,"Ġ'(":4446,"Ġbound":4447,"Ġ\\,\\,\\,\\,\\":4448,"(\\!":4449,")\\}.":4450,"Ġ\\,(\\":4451,"Ġ}[":4452,":=-":4453,")\\,=\\,\\":4454,"^++":4455,")]+\\":4456,"Ġ~{\\":4457,"})=\\{":4458,"):=(\\":4459,");\\\\":4460,"\\!\\!\\!\\":4461,"!\\,":4462,",*}":4463,"Ju":4464,"TS":4465,"]),":4466,"gl":4467,"mR":4468,"of":4469,"qb":4470,"vs":4471,"|^{(":4472,"Ġig":4473,"Ġ})=\\":4474,",\\;\\;\\":4475,"tisf":4476,"})<":4477,"Ġ}&":4478,"Ġjk":4479,":=\\,\\":4480,"}[{\\":4481,"})=&":4482,"Ġ~,~":4483,"}{||":4484,"}'}\\":4485,"))=(\\":4486,"}:=(":4487,"}_{-}":4488,"':":4489,":&":4490,"Aut":4491,"\\!\\!\\!":4492,"eV":4493,"jw":4494,"lcr":4495,"trace":4496,"yr":4497,"Ġ''":4498,"Ġare":4499,"erf":4500,"Ġ\\\\|":4501,"}_-\\":4502,"Ġ28":4503,"}+[":4504,"~~,\\":4505,"cov":4506,"Ġ)-\\":4507,"}]=-":4508,"^-.\\":4509,")},\\\\\\":4510,"Ġ\\\\&=(":4511,")|\\\\":4512,"}~=~":4513,"Ġ\\#\\{":4514,")...":4515,")}^*":4516,"Hg":4517,"\\}^{-":4518,"sA":4519,"}~~~":4520,"^{}_":4521,"}\\;\\;\\;":4522,"}{[\\":4523,"}}).":4524,"})}}{":4525,"see":4526,"Ġ_{(\\":4527,":=\\,":4528,"Ġ\\{|":4529,"}][":4530,")]_{\\":4531,"^-=\\":4532,"((-\\":4533,")})-":4534,"Ġ~,":4535,"\\\\&&":4536,"^{*}}\\":4537,"!)^{":4538,"').":4539,"jT":4540,"pF":4541,"tD":4542,"xM":4543,"yv":4544,"|),\\":4545,"Ġ+|\\":4546,")):":4547,"Ġsa":4548,"coh":4549,"}|,":4550,")|+\\":4551,")|<\\":4552,"_{-(":4553,"^+}(":4554,"*}&|":4555,"Ġ$|":4556,"}&-":4557,"}}=(\\":4558,")}={\\":4559,"))=-\\":4560,"144":4561,")=-{":4562,")\\;,":4563,"$}.":4564,"<(":4565,"BE":4566,"PB":4567,"Sym":4568,"]}+\\":4569,"iZ":4570,"mv":4571,"mit":4572,"tm":4573,"Ġ\\&":4574,"_{~\\":4575,"local":4576,"}}\\{":4577,"Ġnot":4578,"Ġyx":4579,"Ġcom":4580,"}|+|":4581,"Ġ)_{\\":4582,",\\,{\\":4583,"Ġ^{*}":4584,"'\\|^":4585,")})}":4586,"_-=\\":4587,"\\\\&&&":4588,"xxxx":4589,"))^*":4590,"Ġ;\\\\":4591,"$,}\\\\":4592,"]}}({":4593,"'[":4594,"Bh":4595,"TL":4596,"mg":4597,"^{=":4598,"^{'}\\":4599,")\\{":4600,"Ġ&\\{":4601,"},~~~":4602,"Ġ26":4603,"Ġext":4604,"ĠAX":4605,")|>":4606,"\\};\\":4607,"))\\,\\":4608,"_{+}}\\":4609,"132":4610,"^{++}":4611,"240":4612,")\\\\&-":4613,"Ġ:=\\,":4614,"}_+,\\":4615,")=&(":4616,"colsep":4617,"')}{\\":4618,"))}=\\":4619,",(-":4620,"AV":4621,"At":4622,"DN":4623,"cg":4624,"yH":4625,"|~\\":4626,"_{;":4627,"}\\}}\\":4628,",\\{\\":4629,"_{\\;":4630,"}^{|\\":4631,"}}}-\\":4632,"})'(":4633,"}}{=}\\":4634,"}|+\\":4635,"\\}:":4636,"192":4637,"Prod":4638,"={{":4639,"CL":4640,"FP":4641,"hD":4642,"pb":4643,"xB":4644,"|),":4645,"Ġho":4646,"Ġ],":4647,"Ġ&.\\":4648,"})].\\":4649,"^{-}_":4650,"}=[\\":4651,"ase":4652,"Ġ}|\\":4653,"Ġct":4654,"\\|}\\":4655,")}}.":4656,"_-)\\":4657,"}\\|_\\":4658,"}~,":4659,"}\\!+\\!":4660,"SINR":4661,"'}^\\":4662,"-~":4663,"94":4664,"GF":4665,"PV":4666,"\\>":4667,"dJ":4668,"nB":4669,"osc":4670,"pH":4671,"rv":4672,"um":4673,"Ġ)^\\":4674,"ero":4675,")}<":4676,")}+(":4677,"Ġ\\\\=\\":4678,"\\\\(\\":4679,"}^{\\#":4680,"arraycolsep":4681,"Ġ{|\\":4682,"^*|":4683,"\\|=\\|":4684,"}_{\\{-":4685,"Ġwe":4686,"ĠNS":4687,"_+.\\":4688,"^-}{":4689,"*}&|\\":4690,")}}}\\":4691,"_-+":4692,"}}={":4693,"}),(":4694,"=&-\\":4695,"}:\\,":4696,"Ġ&&&":4697,")}}{{":4698,"'&":4699,"BT":4700,"IV":4701,"])+":4702,"bel":4703,"fu":4704,"rN":4705,"^{}(":4706,")}~":4707,")}]\\":4708,"varOmega":4709,"))/":4710,"(-{":4711,")|-":4712,"}&-\\":4713,"001":4714,"mnp":4715,"|\\\\&=":4716,"!}}\\":4717,"'^{\\":4718,"+[\\":4719,"DP":4720,"GE":4721,"IR":4722,"Je":4723,"LL":4724,"TR":4725,"])^":4726,"],\\,":4727,"fd":4728,"iam":4729,"pA":4730,"xD":4731,"yl":4732,"Ġ}^{-":4733,"Ġ}}=":4734,"_{\\;\\;\\":4735,"}_{|\\":4736,"ĠdU":4737,")=+\\":4738,"),\\;\\;\\;":4739,"))+(":4740,"Ġ{(-":4741,"Ġ|=":4742,"})\\}":4743,"Ġ,{\\":4744,"(-{\\":4745,"_{-},":4746,"Ġ40":4747,"ren":4748,"*}&(\\":4749,"102":4750,")}}_{":4751,"_-=":4752,"_-^{-":4753,"ipx":4754,")}=(\\":4755,"\\\\&&\\":4756,"^{*})":4757,"([-":4758,"ence":4759,"}_{+}\\":4760,"etch":4761,"~~~~~~~~~~~~~~~~~~~~~~~~~~~~~~~~":4762,"$}(":4763,")''":4764,"*(\\":4765,".)\\":4766,"Aw":4767,"DD":4768,"End":4769,"FS":4770,"Nd":4771,"TH":4772,"UE":4773,"Xu":4774,"\\}},\\":4775,"tT":4776,"tdt":4777,"vp":4778,"|&":4779,")\\|^{":4780,"ĠdE":4781,"|\\!":4782,"}}\\;\\":4783,"\\,+\\,":4784,"Ġper":4785,"Ġbx":4786,"Ġ[{":4787,"Ġ\\|(\\":4788,")}{\\|":4789,"_{-})":4790,"|_{[":4791,"Ġ\\\\&&":4792,")})}\\":4793,"\\;.":4794,"))=-":4795,"tter":4796,"Ġ\\;\\;.\\":4797,"Ġ~~~\\":4798,"stretch":4799,"'}}{\\":4800,"011":4801,"74":4802,"Aa":4803,"FG":4804,"Large":4805,"SC":4806,"\\}\\\\&":4807,"]}+":4808,"aT":4809,"rll":4810,"vline":4811,"yf":4812,"Ġqu":4813,"Ġ\\:\\:\\:":4814,"}\\}.":4815,",\\|":4816,"}})}{":4817,"suit":4818,"})).":4819,")=:\\":4820,")=\\{(":4821,"\\,+\\,\\":4822,"))}(":4823,"^*)}":4824,"Ġ}}^{\\":4825,"\\|}^":4826,"}\\,|\\,":4827,")||^":4828,"}]^{-":4829,":\\!":4830,"*}|{\\":4831,"135":4832,")}(\\{":4833,"(||":4834,"old":4835,"IJK":4836,"'/\\":4837,")*\\":4838,",+}":4839,"61":4840,"AU":4841,"AdS":4842,"Dp":4843,"Me":4844,"Td":4845,"aA":4846,"ht":4847,"nN":4848,"{=}":4849,"|)}":4850,"Ġ}=-\\":4851,"Ġ\\;\\;\\;\\;\\":4852,"_{}^{":4853,"Ġ&|\\":4854,"Ġ&~\\":4855,"})&=(":4856,"|\\\\\\":4857,"}(\\{\\":4858,"Ġyz":4859,"[\\{":4860,"Ġsp":4861,"'(-":4862,"_{--":4863,")][":4864,")]}{":4865,")]\\\\":4866,"*}&{\\":4867,")}).":4868,"_*^{-":4869,")},&":4870,"166":4871,"}}-{\\":4872,"ABCD":4873,"ixed":4874,")^{(-":4875,"}]=[":4876,"$;}":4877,"'<":4878,"'|^{":4879,")*}":4880,"))\\,.\\":4881,",*}\\":4882,"-,":4883,"010":4884,"><":4885,"BV":4886,"DR":4887,"Ex":4888,"LM":4889,"]})\\":4890,"cv":4891,"hn":4892,"yw":4893,"zI":4894,"{}\\,":4895,"|}+":4896,"}!\\":4897,"Ġpar":4898,"_{+\\":4899,"}\\\\{\\":4900,"}{{{\\":4901,"})}-\\":4902,"Ġfg":4903,"Ġnp":4904,"Ġ&=(\\":4905,"ĠCe":4906,"ĠLu":4907,"comp":4908,"setlength":4909,"1212":4910,"}|<":4911,")|)":4912,")||\\":4913,"\\{\\,":4914,"\\{\\{":4915,")_{,":4916,"1111":4917,"Ġout":4918,")}={":4919,"~~~~~\\":4920,")&=\\{":4921,"*}|(":4922,"iii":4923,"Ġ=&\\,":4924,"Ġ\\!-\\!":4925,"!}}":4926,")[(":4927,"-)":4928,"212":4929,"SE":4930,"TN":4931,"\\;\\;\\;":4932,"\\}\\\\&=":4933,"]]\\":4934,"_>":4935,"_*}\\":4936,"ew":4937,"gA":4938,"gv":4939,"mN":4940,"pj":4941,"xL":4942,"Ġ\\:\\:":4943,",\\;\\;\\;\\":4944,"}^{'}(":4945,"}}))\\":4946,"}):\\":4947,"cdotp":4948,"ĠdH":4949,"Ġdc":4950,"},\\{":4951,"arraystretch":4952,"\\,;\\":4953,"Ġkx":4954,"Ġ}}{{\\":4955,":=&":4956,"\\||":4957,"\\|_*":4958,")-|":4959,"ĠDF":4960,"}|)":4961,"}\\\\(":4962,"_+}(":4963,")_{+":4964,")_{|":4965,"Ġ\\\\&-\\":4966,"^-)^":4967,"_-^{\\":4968,"_-^\\":4969,"_*^{":4970,"Ġ~(":4971,"\\|\\|":4972,"Ġind":4973,"}^-_{":4974,"ment":4975,"'}\\,":4976,">_{\\":4977,"CT":4978,"Hu":4979,"Pl":4980,"Ra":4981,"UT":4982,"\\}}}":4983,"aN":4984,"cor":4985,"eA":4986,"tU":4987,"Ġop":4988,"Ġ}}=\\":4989,"ĠDet":4990,"}}}-":4991,"}}}}{":4992,"})~":4993,"loop":4994,"}_{[\\":4995,"Ġdl":4996,"Ġ\\,,\\,":4997,"Ġiy":4998,"))}{(":4999,"))-(":5000,"^*),\\":5001,"&=[":5002,"Ġba":5003,"ĠCT":5004,"\\|(\\":5005,"}_{\\{\\":5006,"Ġwt":5007,"}\\,|":5008,"}|}{\\":5009,"]\\}\\":5010,"sing":5011,")})}{\\":5012,"\\},\\\\&":5013,"160":5014,"psmall":5015,"arrowvert":5016,"psmallmatrix":5017,"':=":5018,"'}|":5019,"AR":5020,"BL":5021,"KM":5022,"Nr":5023,"Yu":5024,"gd":5025,"nS":5026,"put":5027,"yq":5028,"|}|":5029,"Ġ}}.\\":5030,"Ġ}{|":5031,"Ġphys":5032,"_{}(\\":5033,"inde":5034,"}{@{}":5035,"Ġ=\\\\":5036,"}})-\\":5037,"}_{*}":5038,"},[\\":5039,"Ġ(\\,":5040,"}-(-":5041,"^*\\|^":5042,"Ġkj":5043,"Ġcp":5044,"ĠTx":5045,"\\{{":5046,")-(-":5047,"ĠRes":5048,"ĠSym":5049,"dxds":5050,")]}{\\":5051,"})^{*}":5052,"}')\\":5053,"!\\!\\!\\":5054,"\\!+\\!\\":5055,"BMO":5056,"-[\\":5057,"321":5058,"87":5059,"=_":5060,"=+\\":5061,"Ce":5062,"bg":5063,"iU":5064,"jR":5065,"qw":5066,"vf":5067,"{+}\\":5068,"Ġ}(-":5069,"Ġ\\!\\!\\!\\!\\":5070,"tag":5071,"such":5072,")})\\,":5073,")}]_":5074,"bigm":5075,"Ġ19":5076,"Ġia":5077,"\\,|\\":5078,"Ġ{}\\":5079,"ĠPf":5080,"{({\\":5081,"Ġ}\\,\\,":5082,"}])\\":5083,"''=\\":5084,"^-}(":5085,",-}":5086,"{{{{\\":5087,"}'=":5088,"):&=\\":5089,"})}{=}":5090,"}^+,":5091,"triction":5092,"'\\}":5093,"BG":5094,"^*}(\\":5095,"hs":5096,"mM":5097,"nC":5098,"nD":5099,"qT":5100,"tP":5101,"{)}\\":5102,")\\>":5103,")\\;\\;":5104,"}}~\\":5105,"})|^{":5106,"}{\\,":5107,"_\\#":5108,"ĠdL":5109,"}}\\|_{":5110,"}}\\;.\\":5111,")=\\\\":5112,"),\\;\\":5113,"ĠAv":5114,"))),\\":5115,"))]\\":5116,"Ġvac":5117,"Ġpo":5118,"ĠCl":5119,"Ġso":5120,"ijl":5121,"{(|":5122,":=\\{(":5123,",\\\\-\\":5124,"_{-}-":5125,"\\};":5126,")_*\\":5127,"Ġ^{+":5128,")}}+":5129,"_*,\\":5130,"_*)\\":5131,"}},&":5132,"{||":5133,"Ġ\\\\&=(\\":5134,"\\|\\\\&\\":5135,"}\\;.":5136,"})+(\\":5137,"&{":5138,"'_{(":5139,"@{":5140,"CN":5141,"Cl":5142,"Gr":5143,"Nz":5144,"WF":5145,"]/\\":5146,"non":5147,"we":5148,"xX":5149,"zu":5150,"Ġ)},\\":5151,"Ġ\\,\\,\\,\\":5152,"mul":5153,")}}^{":5154,")}}\\,":5155,"ĠdT":5156,"Ġdn":5157,"}_-(":5158,"ĠAe":5159,"Ġ{}^\\":5160,"^*))":5161,"ĠSL":5162,"}\\,,\\,":5163,"]\\;.\\":5164,",\\\\(\\":5165,"^{+}(\\":5166,"!\\!\\!\\!":5167,"}:=\\{\\":5168,"dvol":5169,"restriction":5170,"'\\|":5171,"'})=":5172,"626":5173,"AT":5174,"DL":5175,"Eu":5176,"KK":5177,"PR":5178,"Sf":5179,"\\}}=":5180,"bxz":5181,"zL":5182,"{+":5183,"|}+\\":5184,"Ġra":5185,"Ġ})=":5186,"Ġ'_":5187,"{\\#":5188,"Ġ=\\|":5189,"Ġ&\\|":5190,"Ġ&,&":5191,"}}|_{":5192,"label":5193,"}}\\!":5194,")))=\\":5195,"uplus":5196,"+(-\\":5197,")})+\\":5198,"}^*=":5199,"}^*.\\":5200,")&-":5201,"triangledown":5202,"Ġ\\{\\,":5203,"1728":5204,"_!{\\":5205,"Ġsatisf":5206,"!}\\,":5207,"';\\":5208,"'}}}":5209,"')=(":5210,"09":5211,":}":5212,"DC":5213,"LP":5214,"Ta":5215,"UL":5216,"XJ":5217,"]}^{\\":5218,"can":5219,"nQ":5220,"rb":5221,"rdr":5222,"|:":5223,"}\\:\\":5224,"ary":5225,")\\;\\;\\":5226,"_{\\|\\":5227,"-\\|\\":5228,"})'":5229,"ĠdK":5230,"null":5231,"Ġ{}^{":5232,"ĠCP":5233,"ĠTu":5234,"ĠDg":5235,"}||_{\\":5236,"Ġ&\\;\\;":5237,"}]}(":5238,"))\\;":5239,")&=(-":5240,"}{|{\\":5241,"_{+-":5242,"*}[(":5243,"Ġ]_{":5244,"Ġ]=\\":5245,"}\\;=\\;":5246,"\\}}-\\":5247,"})-(\\":5248,"_{{}_":5249,"567":5250,"cyc":5251,"&(\\":5252,"']\\":5253,"Be":5254,"EG":5255,"Na":5256,"PP":5257,"SH":5258,"ep":5259,"fv":5260,"kL":5261,"kip":5262,"tZ":5263,"xA":5264,"xP":5265,"{=}\\":5266,"|}^{":5267,"|&=":5268,"}!}":5269,"}!}\\":5270,"Ġ*}":5271,"Ġ)\\\\":5272,"Ġ}},\\":5273,"Ġthere":5274,"_{},":5275,"*}-(":5276,"}{{{":5277,"Ġ&\\\\\\":5278,"sure":5279,"})/\\":5280,")}-(":5281,")^-":5282,"},\\,\\,\\,":5283,"),-":5284,"}=:\\":5285,"adj":5286,"Ġcurl":5287,"Ġsing":5288,"})\\}\\":5289,"ĠPr":5290,"ĠKer":5291,"_+)\\":5292,"Ġ34":5293,"}}^{+":5294,"{|}":5295,")\\\\&=-":5296,"}~{\\":5297,",\\,\\,\\,\\,\\":5298,"}^{*}=\\":5299,"Ġ\\#(":5300,")|=|\\":5301,"key":5302,"most":5303,"smash":5304,"+_":5305,"86":5306,"LR":5307,"Ng":5308,"TY":5309,"ZZ":5310,"bh":5311,"lb":5312,"nM":5313,"rot":5314,"Ġ}},":5315,"almost":5316,"^{<":5317,"main":5318,"lement":5319,"{\\{\\":5320,")\\}\\\\":5321,"Ġ&.":5322,"})}_":5323,"})}\\,":5324,"}))\\\\":5325,"^{-},":5326,"),~~~":5327,"),\\,\\,\\,":5328,"Ġ||^":5329,"Ġmm":5330,"}|=(":5331,"_++\\":5332,")](\\":5333,"1000":5334,")})(\\":5335,")})-\\":5336,"{|{\\":5337,"}^*_{\\":5338,"^*}_{":5339,")^*.\\":5340,",\\,\\,\\,\\,\\,\\":5341,"180":5342,"else":5343,"'&=\\":5344,"'|^{\\":5345,"+)}":5346,",.":5347,"83":5348,"Div":5349,"FB":5350,"Ne":5351,"Rx":5352,"Sh":5353,"Vf":5354,"_<":5355,"_*}(":5356,"jik":5357,"mw":5358,"pB":5359,"tC":5360,"tY":5361,"tj":5362,"|)(":5363,"|/\\":5364,"|(|":5365,"Ġ\\}|":5366,"*}\\,":5367,"Ġ&[":5368,"})}\\\\":5369,")}}^{\\":5370,"}_{(-":5371,"},\\;\\;\\;":5372,"Ġ21":5373,"}+...+":5374,"^*.":5375,"Ġpa":5376,"\\|+\\|":5377,"Ġstr":5378,"})\\}.\\":5379,"ĠEf":5380,"Ġ=\\{\\":5381,"Ġ\\||":5382,"_{-},\\":5383,"]=&":5384,"222":5385,")\\;.":5386,")~,":5387,"Ġonly":5388,"]\\\\=&":5389,"'|_{":5390,"(+\\":5391,"-},":5392,"DM":5393,"Rm":5394,"]^{-\\":5395,"]}.":5396,"_*}{":5397,"fi":5398,"kM":5399,"tG":5400,"unc":5401,"{_{":5402,"eger":5403,"lem":5404,"_{\\!\\":5405,"}})_{\\":5406,"}}~.\\":5407,")){\\":5408,"Ġ{}&":5409,"^*;":5410,"Ġprob":5411,"Ġbe":5412,"}\\,[":5413,"Ġ_{-\\":5414,"]\\}":5415,"Ġ\\;{\\":5416,")\\,:\\,":5417,")^{-(\\":5418,"upp":5419,"}{(|":5420,"_-}(":5421,"iform":5422,"}'_{\\":5423,"never":5424,"}\\;{\\":5425,"}&=(\\":5426,"}=-(\\":5427,")^*=":5428,"henever":5429,"37166":5430,"resp":5431,"Ġnumber":5432,"shortintertext":5433,"62637166":5434,"'|_":5435,"+&\\":5436,":[":5437,"=:\\":5438,"BU":5439,"Cr":5440,"Pu":5441,"TC":5442,"]}}\\":5443,"]}^{(":5444,"]}{(":5445,"]}\\|":5446,"^!":5447,"dom":5448,"jL":5449,"ous":5450,"vspace":5451,")\\|=":5452,"Ġ-|\\":5453,")}||":5454,"Ġ\\\\{":5455,"Ġ\\\\\\\\\\":5456,"Ġ100":5457,"}=+\\":5458,"^{(-\\":5459,"}+...":5460,"Ġnon":5461,"true":5462,"Ġpro":5463,")}\\;.\\":5464,"}|(\\":5465,"}}(-\\":5466,"Ġ:=&":5467,"_{-}^{\\":5468,"_{-}=":5469,"\\}/":5470,"''}(":5471,"})=&\\":5472,"^--":5473,")}}+\\":5474,"_*-":5475,")}_{{\\":5476,"}}\\,,":5477,")^*(\\":5478,"arrowleft":5479,"^{*(":5480,"^{*\\":5481,"}_{-}\\":5482,"^{(+)}_{":5483,"multi":5484,"'}).\\":5485,"+{{":5486,"-)\\":5487,"79":5488,"<{\\":5489,"AW":5490,"BK":5491,"BN":5492,"DG":5493,"INR":5494,"Nt":5495,"``":5496,"card":5497,"fe":5498,"gN":5499,"|)+":5500,"mathrel":5501,"=\\\\":5502,"}))_{":5503,"}=\\\\":5504,"Ġ|^{\\":5505,"ĠBu":5506,"Ġha":5507,"}\\,_{":5508,"Ġ\\|^{":5509,")|}{|\\":5510,"};-":5511,"\\;{\\":5512,"):&=":5513,"]_<":5514,"*}-{":5515,"}^+_{":5516,"cccccccc":5517,"}^-_":5518,"}_{+},\\":5519,"|\\\\&=\\":5520,"Spec":5521,"*_":5522,",..":5523,"73":5524,"BI":5525,"Cap":5526,"Hat":5527,"La":5528,"bA":5529,"fh":5530,"fx":5531,"gt":5532,"jB":5533,"lh":5534,"tn":5535,"zA":5536,"{^":5537,"|))":5538,"|}-":5539,"Ġ]}":5540,"Ġarg":5541,"mathc":5542,"Ġ+_":5543,"varDelta":5544,"law":5545,"hor":5546,"^*]":5547,"^*)+\\":5548,"}=\\|\\":5549,"Ġker":5550,"Ġbd":5551,"ĠCon":5552,"\\|+\\":5553,"Ġqx":5554,"})\\|^":5555,"ĠDA":5556,")_{[":5557,"isH":5558,"))\\|_{":5559,")/(\\":5560,")}}-":5561,"Ġ~|~":5562,"}^*=\\":5563,"}),~":5564,"=-(\\":5565,"}'+":5566,"}~(":5567,"}&=&\\":5568,"\\\\&=&":5569,"^*}^{":5570,"oly":5571,"]{}":5572,";\\;\\;\\;\\;\\":5573,"}$\\":5574,"rrr":5575,"!}=":5576,"')_":5577,"'=(":5578,",_":5579,".{\\":5580,"012":5581,"Jv":5582,"MM":5583,"]}-":5584,"]).":5585,"xJ":5586,"zg":5587,"Ġle":5588,"man":5589,"fter":5590,"Ġ&\\\\&":5591,"}}}_{\\":5592,"}}:\\":5593,"Ġ+\\,":5594,"})}-":5595,"}))^{-":5596,")}}{|":5597,"^{-}}":5598,"}_*\\":5599,")^*}\\":5600,"),...,":5601,"Ġ{\\|":5602,"))>":5603,")}\\|_":5604,"Ġ|}\\":5605,"\\|+":5606,"orb":5607,"proj":5608,"ĠVar":5609,"121":5610,"ĠIII":5611,"Ġ)^{(":5612,")\\\\-":5613,")|}.\\":5614,")|&=\\":5615,"super":5616,")])":5617,"\\}\\}.\\":5618,"display":5619,"):=\\{\\":5620,")}})":5621,"_{+}^{\\":5622,"*}{}_{":5623,"*}|\\{":5624,"}:=(\\":5625,";\\;\\;\\;\\;\\;\\":5626,"}$}\\":5627,"288":5628,"(+":5629,"))}+":5630,",.\\":5631,"400":5632,"Ct":5633,"Sx":5634,"TG":5635,"UD":5636,"\\})+":5637,"]}_{\\":5638,"eh":5639,"jD":5640,"qA":5641,"qd":5642,"rlap":5643,"wr":5644,"|)}{":5645,"~,~":5646,"Ġ~~~~~~~~":5647,"Ġloc":5648,"^{~\\":5649,"}\\\\{":5650,"make":5651,"}}}}{\\":5652,"}))}":5653,"Ġ22":5654,"\\,=\\":5655,")):=\\":5656,"ĠCt":5657,"\\|_{(":5658,"ĠSt":5659,"}\\,,\\\\":5660,"Ġ_{|":5661,"}|)\\":5662,")|.":5663,"}}(|":5664,")^{\\!":5665,"^++\\":5666,"''}{\\":5667,")})}{":5668,"}^*,\\":5669,"_{+}+":5670,"_{[<\\":5671,"231":5672,"Ġ)\\;":5673,"*}-{\\":5674,"Ġthen":5675,"}_*(":5676,")~~~,\\":5677,"AF":5678,"EF":5679,"HH":5680,"Mu":5681,"Nm":5682,"Px":5683,"Ran":5684,"VV":5685,"XA":5686,"\\>\\":5687,"\\,\\,\\,\\,":5688,"])}\\":5689,"eo":5690,"pert":5691,"qk":5692,"qm":5693,"rA":5694,"sX":5695,"tF":5696,"xI":5697,"{}+":5698,"{}&":5699,"Ġ\\}=\\":5700,"}\\{(":5701,"ight":5702,".\\\\&":5703,"}^{'}":5704,"}}...":5705,"}))+":5706,"})]=":5707,")},\\\\&":5708,")^*}":5709,"Ġ256":5710,"\\,,\\,\\":5711,"\\,,\\\\\\":5712,"^*|^":5713,"^*:=\\":5714,"^*)-\\":5715,")-[":5716,"}|_\\":5717,"_{-}^":5718,"^+}^{\\":5719,").}\\":5720,")}))":5721,"):=-":5722,"*}[[":5723,")|\\\\&":5724,"+||":5725,"Ġ]^":5726,")}+\\|\\":5727,"Ġ\\;\\;\\;\\":5728,"^{++}_{":5729,"makebox":5730,"':=\\":5731,"')]":5732,"))\\,,\\":5733,"Ca":5734,"JM":5735,"KR":5736,"MP":5737,"QP":5738,"Qu":5739,"Sub":5740,"TF":5741,"aE":5742,"bcd":5743,"dj":5744,"hp":5745,"qv":5746,"sds":5747,"tN":5748,"{}~":5749,"_{=":5750,"_{}}":5751,"}\\},\\\\":5752,"(\\!\\":5753,"}})}{\\":5754,"}})_":5755,"}}}\\|":5756,"})}^{\\":5757,"})}}{\\":5758,"lob":5759,"lllll":5760,"\\\\\\\\":5761,"Ġ29":5762,"}^{\\,\\":5763,"Ġ\\,-\\,":5764,"\\,-\\,":5765,"))}^":5766,"))),":5767,"^*)+":5768,"[\\,\\":5769,":=[":5770,"ĠDv":5771,"ĠEnd":5772,"Ġ\\{-\\":5773,"^+)=":5774,"]+[\\":5775,"normalsize":5776,"{[}\\":5777,"izx":5778,"constant":5779,"]_<^":5780,"!}.":5781,"$}}":5782,")~~~.\\":5783,"62":5784,"<-\\":5785,"Cf":5786,"Kr":5787,"MR":5788,"PU":5789,"TU":5790,"after":5791,"lf":5792,"lds":5793,"mV":5794,"tV":5795,"yb":5796,"|)}\\":5797,"~|~":5798,"{\\#\\":5799,"Ġ=[\\":5800,"}}-(":5801,"}))-\\":5802,"vartriangle":5803,"lack":5804,"\\\\*":5805,"^{({\\":5806,")}\\|^":5807,";\\,\\":5808,")([":5809,"case":5810,"})\\|\\":5811,"rcll":5812,"}|}{|":5813,"Ġ)}^{":5814,"]\\;,\\":5815,")|(":5816,")|&=":5817,"_{-}^{-":5818,"_+)^":5819,"Ġ45":5820,")]\\,":5821,"*}&-":5822,"shape":5823,"}_+}":5824,"Ġord":5825,"{}{}":5826,"Ġ={}&":5827,"^{(+)}_":5828,"strut":5829,"'\\}\\":5830,"')(\\":5831,"')^\\":5832,"))^{-\\":5833,"+...":5834,"07":5835,"Bf":5836,"Eq":5837,"MG":5838,"MH":5839,"Mt":5840,"Span":5841,"\\}=-":5842,"]}}{":5843,"bm":5844,"corner":5845,"high":5846,"kin":5847,"os":5848,"pM":5849,"sI":5850,"sj":5851,"{}{\\":5852,"|}.":5853,"Ġ\\}_":5854,"}\\!\\!\\!":5855,",\\\\|":5856,")\\}}":5857,"*}\\{(":5858,"}^{'":5859,"}}})\\":5860,"}}||":5861,"}))}\\":5862,"}))+\\":5863,")}].\\":5864,"Ġap":5865,"^*\\\\":5866,"Ġ|-":5867,"Ġ|.\\":5868,"Ġ}}^{":5869,"}}{-":5870,"ĠXY":5871,"Ġ=\\,\\":5872,"Ġ)}}":5873,")\\,,\\\\":5874,"upper":5875,"_{-}}\\":5876,"|_{{\\":5877,"Ġ\\\\&<":5878,"rea":5879,"rec":5880,"Ġ_{\\{":5881,"Ġ\\\\&=-\\":5882,"{{}={":5883,"ility":5884,"}}+{":5885,"}&=\\{":5886,"}^+}\\":5887,"Ġ72":5888,"^{'}_":5889,"Ġorder":5890,"]}{[":5891,"hfil":5892,"iformly":5893,"!(\\":5894,"&\\,":5895,"+}\\,":5896,".}(":5897,";[":5898,">^{":5899,"BP":5900,"Bt":5901,"HT":5902,"Ke":5903,"Ku":5904,"Nw":5905,"QR":5906,"\\_":5907,"]|^":5908,"]}|\\":5909,"bw":5910,"fin":5911,"kV":5912,"mH":5913,"nti":5914,"rJ":5915,"{*}{":5916,"|)\\,":5917,"Ġvar":5918,"Ġrad":5919,"*}_{\\":5920,"Ġ=~&":5921,")\\:\\":5922,"^{-}(\\":5923,"Ġ\\\\+\\":5924,"}_{=":5925,"Ġuu":5926,"}=(-\\":5927,"\\,;":5928,"Ġbu":5929,"Ġsol":5930,"Ġset":5931,"})\\|_":5932,"Ġ\\;|\\;":5933,")|<":5934,"upshape":5935,"}\\\\-\\":5936,"*}((\\":5937,"})={":5938,")!^":5939,")!},\\":5940,"_{+}=":5941,"~~~~~~~":5942,"^{*}=\\":5943,"\\\\&=-":5944,")^*,":5945,"})\\,,":5946,"}_{-}(":5947,")}/{":5948,"6263716633":5949,"')_{":5950,"')},\\":5951,"*_{":5952,",,\\":5953,":{\\":5954,"BPS":5955,"DW":5956,"FA":5957,"PL":5958,"SG":5959,"\\#\\":5960,"]^+":5961,"],\\\\&":5962,"bX":5963,"black":5964,"cw":5965,"gB":5966,"hm":5967,"jN":5968,"kS":5969,"mT":5970,"ple":5971,"xQ":5972,"Ġroot":5973,"_{}^":5974,"*}^{":5975,"^{}\\":5976,"Ġ=-(":5977,"}^{^{\\":5978,"}})\\,":5979,"}),\\\\&":5980,")}_{-":5981,"},{{\\":5982,"}(\\|\\":5983,"}}\\}\\":5984,"Ġ\\,=":5985,"app":5986,"ĠAy":5987,"Ġ&=(-":5988,"Ġ|{":5989,"Ġ||_{":5990,"ĠCN":5991,"Ġrs":5992,"\\|&\\":5993,"Ġsta":5994,"})\\;.\\":5995,"}||_":5996,")\\,|":5997,")\\,(\\":5998,"}}(|\\":5999,"^+)^{":6000,"''+(":6001,"}[[":6002,")&=[":6003,"_-^{":6004,"dydx":6005,"_*+\\":6006,"_*)(":6007,"Ġ~.":6008,"Ġ~-~":6009,"}},{":6010,"')|\\":6011,"):={\\":6012,"\\},\\\\&\\":6013,"};{\\":6014,"\\;=\\;\\":6015,"^{+})":6016,"}}-{":6017,"^*}-":6018,"^*}}":6019,")^*=\\":6020,"})}{(\\":6021,")\\;=\\;\\":6022,"}\\\\&-":6023,"}\\\\&-\\":6024,"Ġ\\;\\;,\\":6025,")~{\\":6026,")~=~\\":6027,"nkn":6028,"199":6029,"!\\!\\!\\!\\!\\!\\!\\!\\":6030,"Ġcont":6031,"âĢĲ\\":6032,"center":6033,"!.\\":6034,"&>":6035,",_{":6036,"--":6037,"-_":6038,"-}^{\\":6039,"512":6040,">_\\":6041,"MT":6042,"NW":6043,"Nc":6044,"OMA":6045,"]}\\,":6046,"dI":6047,"kF":6048,"mer":6049,"og":6050,"pg":6051,"qi":6052,"uh":6053,"wv":6054,"xdx":6055,"zm":6056,"~(\\":6057,"~+~":6058,"Ġta":6059,"_{<\\":6060,"Ġ&,\\":6061,"sitive":6062,"})}_{\\":6063,"}),\\,":6064,"})<\\":6065,"Ġxz":6066,"}^{\\;":6067,"}=|\\":6068,"ĠAi":6069,"))}}":6070,"Ġgx":6071,"Ġ|[":6072,"ĠTf":6073,"ĠPx":6074,"ĠHess":6075,"Ġ_{+}":6076,"]\\}.\\":6077,"\\{\\|\\":6078,"_+-\\":6079,"_+}{\\":6080,"_+^{(":6081,"\\|_{{\\":6082,"''.\\":6083,").(":6084,"Ġdxds":6085,"Ġ^{(\\":6086,"'_*":6087,"brane":6088,")})+":6089,"_*+":6090,"{||\\":6091,"]={":6092,"]={\\":6093,"}^*)\\":6094,"_{+},\\":6095,"Ġ[\\![":6096,"Ġ\\\\&=-":6097,"^{*}+":6098,"145":6099,"dudv":6100,"}}}{(\\":6101,"_{*})":6102,"^{{'":6103,"))\\\\=&":6104,"truecm":6105,"&+":6106,"&+\\":6107,"'t":6108,"'}]":6109,"'\\|_{":6110,"'|}":6111,"216":6112,";-\\":6113,"=({\\":6114,"=(-\\":6115,"CX":6116,"FD":6117,"MF":6118,"MO":6119,"Mat":6120,"NF":6121,"PNC":6122,"SW":6123,"TW":6124,"Tz":6125,"VW":6126,"Xf":6127,"\\}),\\":6128,"aQ":6129,"dddot":6130,"hB":6131,"jQ":6132,"jY":6133,"nV":6134,"pL":6135,"sph":6136,"ua":6137,"vy":6138,"ye":6139,"zF":6140,"|)=\\":6141,"|}}{\\":6142,"Ġ)},":6143,"Ġ}=-":6144,"Ġ=|\\":6145,"}}~,\\":6146,"}))-":6147,"+\\{":6148,"nge":6149,"},|":6150,"abs":6151,").\\\\":6152,"Ġgf":6153,"Ġsc":6154,"Ġ[|":6155,"Ġ[\\,":6156,"}-\\{":6157,"Ġ\\;(":6158,"gau":6159,"''_\\":6160,"))\\}":6161,"Ġ_*":6162,")]-\\":6163,"^-+\\":6164,")})^{(":6165,")!\\,":6166,"):=&":6167,")\\\\&=(\\":6168,"}}+{{":6169,")=-{\\":6170,"^*}.\\":6171,")),\\\\\\":6172,"Ġ*_":6173,"}_+,":6174,"Ġdvol":6175,")$}.\\":6176,"conv":6177,"pos":6178,"\\}+\\{":6179,"@{\\,}":6180,"_{\\#}^":6181,"ular":6182,"Ġsech":6183,"'})(":6184,")'=":6185,"++":6186,"-{{":6187,".&":6188,".+\\":6189,">(":6190,">}":6191,"?\\":6192,"DU":6193,"Hf":6194,"LS":6195,"VR":6196,"VU":6197,"WP":6198,"XB":6199,"]!":6200,"]|\\":6201,"aB":6202,"aV":6203,"gw":6204,"kI":6205,"nI":6206,"ud":6207,"xG":6208,"{]}^{":6209,"|})":6210,"Ġequ":6211,"Ġ})^{":6212,"Ġ\\>\\":6213,"inst":6214,"mand":6215,",\\;\\;\\;\\;":6216,"}(-(":6217,"}}|^{":6218,"})(-":6219,"})]_{":6220,"^{\\;":6221,"^{--":6222,"mathbin":6223,"},..,":6224,"\\\\$":6225,"rom":6226,"),-\\":6227,"^{(_":6228,"Ġno":6229,"ĠAf":6230,"Ġpoint":6231,")}\\!":6232,"Ġcy":6233,")|-|":6234,"}[|\\":6235,"}.}\\":6236,"{-{\\":6237,"_-.\\":6238,"_*.\\":6239,")!},":6240,"}&{\\":6241,")}=&\\":6242,"^{*}-":6243,"236":6244,"klm":6245,"}}\\,(":6246,")=-(\\":6247,"^*}+":6248,"|\\,|":6249,")\\|.\\":6250,"clic":6251,"XYZ":6252,"480":6253,":\\:\\:\\:\\":6254,"~,~~~":6255,"two":6256,"!}(\\":6257,"'):=\\":6258,")~~\\":6259,".}}":6260,";&":6261,">,":6262,"CE":6263,"Diam":6264,"Lv":6265,"SY":6266,"\\,\\,\\,\\,\\":6267,"]+(":6268,"]]=":6269,"dic":6270,"hX":6271,"ick":6272,"kG":6273,"nJ":6274,"pX":6275,"tM":6276,"Ġsum":6277,"Ġ'}":6278,"}\\}_":6279,"}^{~\\":6280,"Ġ&,\\\\":6281,"}))\\,":6282,"})],\\":6283,"Ġ\\\\|\\":6284,"Ġfunc":6285,"}}\\:":6286,"}={{":6287,"Ġ\\,|":6288,"Ġ\\,,\\\\":6289,"Ġne":6290,"ĠAC":6291,"ĠAP":6292,"Ġcx":6293,"Ġren":6294,"\\|^\\":6295,"})\\!":6296,"ĠLB":6297,"}^{({\\":6298,"Ġ)&=":6299,"dxd":6300,")|>\\":6301,"}}([":6302,"^+-\\":6303,"\\|_{{":6304,")]=[":6305,"\\}\\;":6306,"\\}\\}":6307,"\\,\\|":6308,")}}-\\":6309,")!(\\":6310,"tors":6311,"}}_{[":6312,"}}=\\|":6313,"\\|\\,":6314,"}/(\\":6315,"Ġ]^{":6316,"mnpq":6317,"}}}{{{":6318,"Ġ\\!=\\!":6319,"Ġ:=\\{":6320,")=&-\\":6321,"{}{=}":6322,"lower":6323,"^{(+)}":6324,"bigtriangledown":6325,"command":6326,"#\\{\\":6327,"$}_":6328,"',\\\\":6329,"864":6330,"93":6331,":-":6332,"Bv":6333,"EM":6334,"Fix":6335,"GB":6336,"JT":6337,"Lt":6338,"NX":6339,"RG":6340,"Sa":6341,"\\}}_":6342,"gH":6343,"gk":6344,"gp":6345,"glob":6346,"hb":6347,"jK":6348,"mA":6349,"sB":6350,"scal":6351,"tQ":6352,"~[":6353,"Ġtimes":6354,"Ġ!}\\":6355,"_{/":6356,"}\\})":6357,"}}}|":6358,"err":6359,"}){":6360,"})))\\":6361,"}{\\#":6362,"lass":6363,"Ġ\\\\*":6364,"}_{}":6365,")^+\\":6366,"bos":6367,"Ġaa":6368,"Ġ\\,[":6369,"^*)^\\":6370,")((\\":6371,"Ġcn":6372,")+[":6373,")+|\\":6374,"}\\,|\\":6375,":=\\:":6376,"Ġ))\\":6377,"Ġ\\|{\\":6378,"^+(-":6379,"\\}&\\":6380,",\\,(":6381,"}]\\\\":6382,"Ġ\\\\&(":6383,"Ġ\\\\&>":6384,"Ġ43":6385,")]^\\":6386,"^-+":6387,")})^\\":6388,"_*=\\":6389,")!}(":6390,"Ġ}{}^{\\":6391,"iodic":6392,"ikl":6393,"}'.\\":6394,"^{*}=":6395,")}+{\\":6396,"^*},\\":6397,"}<+\\":6398,"}\\\\&=-\\":6399,"Ġ96":6400,"avg":6401,"Ġinteger":6402,"newcommand":6403,"raisebox":6404,"$;":6405,"'\\,\\":6406,"(.,":6407,"06":6408,"456":6409,"AQ":6410,"Ar":6411,"As":6412,"Dt":6413,"GH":6414,"HG":6415,"KS":6416,"Ns":6417,"aI":6418,"gz":6419,"hA":6420,"ither":6421,"jE":6422,"jH":6423,"kH":6424,"mB":6425,"ov":6426,"pQ":6427,"rR":6428,"xR":6429,"xU":6430,"Ġlim":6431,"Ġ'\\":6432,"_{_{(":6433,"ine":6434,"inu":6435,"matter":6436,"}{=":6437,"}{{(":6438,"des":6439,"})))":6440,"}))}{":6441,"})}{|":6442,"})]_":6443,"^{-}_{\\":6444,"}{\\}}{":6445,"}_{_{":6446,"Ġfixed":6447,"\\\\|":6448,"Ġ(\\|\\":6449,")))^{":6450,"))|_{":6451,"&\\,\\":6452,"^*:":6453,")}\\}\\":6454,"Ġkl":6455,"Ġ|,":6456,"Ġcr":6457,"ĠCr":6458,"\\|)":6459,")-|\\":6460,"ĠPro":6461,"biggm":6462,"Ġ,\\;\\;":6463,"textmd":6464,"}|=|":6465,"dtdx":6466,"\\}|\\":6467,"}{((":6468,"renewcommand":6469,"_-)^":6470,"_-^{(":6471,"_*=":6472,"168":6473,")&&":6474,"\\},&":6475,"]=\\{":6476,"}}+\\|":6477,"Ġ60":6478,"Ġ}}.":6479,"250":6480,"}_{+}(":6481,"^{(-)}_{":6482,"}~~.\\":6483,"{\\{}{\\}}{":6484,"^\\#(":6485,"ADM":6486,"displaybreak":6487,"$}^{":6488,"$})":6489,"&~":6490,"&.\\":6491,"&\\\\\\":6492,"'}{(":6493,"'}}(\\":6494,"'}),\\":6495,"/|\\":6496,"Bmatrix":6497,"Cs":6498,"ER":6499,"Ef":6500,"HK":6501,"Hor":6502,"IN":6503,"PC":6504,"\\/":6505,"\\}(\\":6506,"\\}}(\\":6507,"\\}}=\\":6508,"jP":6509,"oo":6510,"qe":6511,"sH":6512,"terms":6513,"xm":6514,"ying":6515,"zh":6516,"zs":6517,"|}{(":6518,"Ġ\\/":6519,"Ġ\\}\\\\":6520,"}\\}}(":6521,")\\,\\,\\":6522,"}}^*\\":6523,"}^*}\\":6524,"varLambda":6525,"}_{~":6526,"Ġdo":6527,"|\\;\\":6528,"),|":6529,"Ġel":6530,"Ġiu":6531,"}+[\\":6532,"))'":6533,"Ġ&=|":6534,"Ġhas":6535,"ĠSINR":6536,"Ġ,(":6537,"~~}":6538,"~~{\\":6539,"}\\,^{":6540,"Ġ_{,":6541,"}|>":6542,"}|-|":6543,")|&":6544,",\\\\|\\":6545,"}^{-},":6546,"}]}{":6547,"}]}{\\":6548,"\\}\\}\\":6549,"\\}\\,\\":6550,"^-)=":6551,"^-).\\":6552,"(((":6553,"_{++}":6554,"],[\\":6555,"Ġ]+":6556,"Ġ].":6557,"}~.":6558,"bulk":6559,"\\!}\\":6560,"^*})":6561,"}^{+}_{":6562,",&&\\":6563,")}\\,,":6564,")<+\\":6565,"Ġtrue":6566,"})\\\\&+":6567,"_{*,":6568,"soft":6569,"MSE":6570,"euc":6571,"gauge":6572,"$}}\\":6573,"'m":6574,"'}.":6575,"'=-":6576,"+}^{":6577,",}\\\\":6578,":|\\":6579,"BX":6580,"DV":6581,"DX":6582,"EH":6583,"IK":6584,"NE":6585,"Nk":6586,"RP":6587,"Supp":6588,"Tor":6589,"[(-":6590,"\\}),":6591,"]^*":6592,"_(":6593,"aS":6594,"cre":6595,"eb":6596,"gb":6597,"nY":6598,"off":6599,"zT":6600,"igarrow":6601,"_{\\{-":6602,"rightsqu":6603,"=\\,\\,":6604,")})\\\\":6605,"^{-})":6606,"Ġ\\\\\\{":6607,"|\\|":6608,")=(-\\":6609,"Ġfinite":6610,")=\\\\&\\":6611,"Ġty":6612,")^{+":6613,"Ġip":6614,"asing":6615,"^*\\,":6616,"ton":6617,"Ġvec":6618,"[\\|\\":6619,"Ġ}_\\":6620,"}}{=":6621,"Ġca":6622,"Ġrj":6623,"ĠLf":6624,"Ġme":6625,"1213":6626,"}\\,+\\,":6627,"&=\\{(":6628,")\\\\=\\":6629,")}(|":6630,"minimize":6631,"}\\\\=":6632,"Ġ|\\;":6633,"\\}\\;.\\":6634,")}})\\":6635,"}}^{}":6636,")!!}{":6637,"}},\\;":6638,"'}|\\":6639,"Ġ}{{\\":6640,"}),(\\":6641,"}'-":6642,"\\}})":6643,"^*}}\\":6644,"}^{*}_{":6645,"Ġ~~{\\":6646,"emma":6647,"|,|\\":6648,"}*(":6649,"]=[[":6650,"^{\\#}(":6651,"alent":6652,"Ġ}(-{\\":6653,"rightsquigarrow":6654,"'|+":6655,")'_":6656,"720":6657,"91":6658,":(\\":6659,"AH":6660,"Area":6661,"Diag":6662,"EA":6663,"Iu":6664,"Law":6665,"OS":6666,"SN":6667,"XV":6668,"]~.\\":6669,"aH":6670,"bL":6671,"bT":6672,"ddagger":6673,"vA":6674,"Ġph":6675,"Ġ)^*":6676,"}{^":6677,"denti":6678,"Ġ+&":6679,"})]=\\":6680,"}_{<":6681,"est":6682,")=((":6683,")=&-":6684,"numer":6685,"hich":6686,"ability":6687,"}.\\\\":6688,"ĠeA":6689,"Ġ\\,)":6690,"Ġiq":6691,"}+{{":6692,"))[":6693,"))^{(":6694,"Ġ{-\\":6695,")}\\}_{":6696,"Ġzero":6697,")}{-\\":6698,"prin":6699,"prot":6700,"}\\,}^{-":6701,":=\\;":6702,"Ġ)/":6703,"Ġ)|":6704,"(-(\\":6705,"Ġ\\{{\\":6706,"_{-}+":6707,"^+}{\\":6708,"Ġ^{{":6709,"^-}^{\\":6710,"*}&-\\":6711,"105":6712,"1010":6713,"{-{":6714,")}_{[":6715,"}},~":6716,")!}}":6717,"{|(":6718,"char":6719,"^{*}}(":6720,"Ġ]_":6721,"})_{*}":6722,"ian":6723,"yyy":6724,"~,~~~~":6725,"llllll":6726,"576":6727,"}_*(\\":6728,"}|=|\\":6729,"circlearrowleft":6730,"CFT":6731,"\\!\\!\\!/":6732,"Diamond":6733,"%\\":6734,"'|}{":6735,"+}(\\":6736,",,":6737,",-(":6738,":~\\":6739,"Cc":6740,"ED":6741,"FT":6742,"Hx":6743,"JA":6744,"JB":6745,"ND":6746,"Nn":6747,"Qf":6748,"Xg":6749,"YY":6750,"\\!\\!\\!\\!\\":6751,"])+\\":6752,"_=":6753,"aF":6754,"ctu":6755,"fix":6756,"hy":6757,"mK":6758,"qV":6759,"rst":6760,"tE":6761,"wb":6762,"xn":6763,"{>":6764,"{~~":6765,"|})\\":6766,"|)|":6767,"|}|\\":6768,"|&=|":6769,"}~~~,\\":6770,"~-":6771,"Ġsup":6772,"Ġ}}(\\":6773,"Ġ)}(\\":6774,"^{>":6775,"ndafter":6776,"rac":6777,"(\\{(":6778,")\\{\\":6779,"*}\\#\\":6780,"}^{'}_{":6781,"}},\\\\&":6782,"}))^{\\":6783,"Ġ\\\\\\|":6784,"}_{~\\":6785,"|\\}":6786,"},~~\\":6787,"roman":6788,")=\\,\\":6789,"),\\,\\,\\,\\,":6790,")))\\\\":6791,"expa":6792,"^*)^{\\":6793,")}\\{":6794,")}\\}":6795,"Ġ&=[":6796,"[\\|":6797,"ĠCS":6798,"Ġspan":6799,"Ġqp":6800,"Ġhe":6801,"ĠVu":6802,"}-\\|":6803,"}^{(-\\":6804,"ĠJe":6805,"_{-(\\":6806,"\\}}^{":6807,"}]]":6808,"}]},\\":6809,")_*(":6810,"equivalent":6811,"Ġ37":6812,"^-}^{":6813,"_*\\|^":6814,")!!}{(":6815,"}&(\\":6816,"Ġ}{|\\":6817,"}}=(-":6818,"}),&":6819,"1313":6820,"221":6821,"})}&\\":6822,")&-\\":6823,"2323":6824,"245":6825,"}~=~\\":6826,"1432":6827,"Ġ\\{\\{":6828,")\\\\&+(":6829,"}}\\,{\\":6830,"Ġ\\:.\\":6831,"^*},":6832,"Ġ54":6833,")}-{\\":6834,"}_{+}^":6835,"}_{+}}\\":6836,"$,}\\;\\;":6837,"}''(\\":6838,"))\\\\=&\\":6839,"Ġ~~~~\\":6840,"Ġcov":6841,")...(":6842,"Ġpositive":6843,"uppercase":6844,"numeral":6845,"protect":6846,"romannumeral":6847,"expandafter":6848,"')}(":6849,"')}.\\":6850,"(&":6851,"))}}\\":6852,")$,":6853,",*}_{":6854,",....":6855,".&\\":6856,";~~":6857,"=((":6858,"BW":6859,"DS":6860,"EP":6861,"Mas":6862,"WW":6863,"XU":6864,"kU":6865,"pT":6866,"qR":6867,"qX":6868,"qrr":6869,"uni":6870,"vrule":6871,"wy":6872,"xk":6873,"yg":6874,"{{(":6875,"}~~~.\\":6876,"Ġ}}_{":6877,")\\}^":6878,")\\}}\\":6879,"}})}.\\":6880,"}}}\\,\\":6881,"}})^\\":6882,"}}_{\\{":6883,"})((":6884,"})|}":6885,"Ġxu":6886,"|\\!\\":6887,"}_+(\\":6888,"},&&":6889,"}}\\{\\":6890,"}}\\,\\,":6891,"abq":6892,"),~~\\":6893,"Ġ\\,:=\\,":6894,")^{*}\\":6895,"&\\;":6896,"^*)}{":6897,")}\\;\\":6898,"ĠCD":6899,"\\|}_":6900,"ĠBC":6901,"Ġmc":6902,"pre":6903,"cite":6904,"}||^{":6905,"}|}{|\\":6906,"ĠKu":6907,")|&=|":6908,"_{((":6909,"_{-}=\\":6910,"_{-}}{\\":6911,"Ġ35":6912,")})_":6913,"')).\\":6914,"'):=":6915,"}^*-":6916,"_{+}=\\":6917,")}=\\|":6918,"^{*})\\":6919,"235":6920,"longleftarrow":6921,")\\\\&>":6922,"Ġ&&\\\\":6923,")>(":6924,"}^{+},":6925,"^{**}(":6926,"}^{*})^{":6927,"spin":6928,"}\\!=\\!":6929,"^{(-)}_":6930,"}''\\":6931,"Ġcosh":6932,"Ġ\\,\\,\\,\\,\\,":6933,"&*\\\\":6934,"Ġfunction":6935,"inuous":6936,"!}\\,\\":6937,"')&=":6938,"')}_{":6939,"'})}":6940,"71":6941,";~":6942,"AS":6943,"CK":6944,"Dh":6945,"DTE":6946,"Gen":6947,"IL":6948,"Md":6949,"[]{":6950,"\\})+\\":6951,"])-":6952,"]:\\":6953,"]\\,,":6954,"aR":6955,"jS":6956,"ter":6957,"|}-\\":6958,"|)}{\\":6959,"Ġ\\:\\:\\":6960,"}\\,\\,\\,\\":6961,",\\;\\;\\;\\;\\":6962,"Ġ=:\\":6963,"lefteqn":6964,"}^{'}\\":6965,"}})\\\\":6966,")}>\\":6967,"Ġxe":6968,"llcorner":6969,"}}\\}":6970,"}}\\}.\\":6971,"}}\\;,\\":6972,")=\\,":6973,")=\\|\\":6974,"sqsubset":6975,"ĠtX":6976,"),&&":6977,"Ġib":6978,"\\,:\\,\\":6979,"ĠAA":6980,"))].\\":6981,"Ġ{{{":6982,")}\\}.\\":6983,"Ġkt":6984,"Ġ&=:":6985,"Ġ}:=\\":6986,"&=(-":6987,"ĠCf":6988,"\\|}_{":6989,"Ġsx":6990,"ĠRm":6991,"Ġ\\;+\\;":6992,")\\,[":6993,"^+|":6994,"\\}&=\\":6995,"Ġ^{+}\\":6996,"...<":6997,"}}^{{":6998,"}&\\\\":6999,"}\\|=":7000,"}\\|.\\":7001,"Ġone":7002,"_{[-\\":7003,"}'-\\":7004,"Ġ](":7005,"Ġ120":7006,"}:=\\{(":7007,"kly":7008,")\\\\&<":7009,"iiint":7010,"Ġinde":7011,"^*}=":7012,"Ġ50":7013,"Ġ52":7014,"Ġ56":7015,"Ġ&&&&":7016,")^{(|":7017,"}>=\\":7018,"360":7019,"ield":7020,"^{(-)}":7021,",~~{\\":7022,"cur":7023,"Ġ~~~~~~":7024,"head":7025,"\\}|.\\":7026,"384":7027,"grav":7028,"eakly":7029,"$.":7030,")...\\":7031,"213":7032,">+\\":7033,"Arg":7034,"Fl":7035,"HL":7036,"LG":7037,"Nq":7038,"UW":7039,"We":7040,"cV":7041,"eH":7042,"fX":7043,"iij":7044,"mD":7045,"mE":7046,"nU":7047,"pV":7048,"qM":7049,"rP":7050,"rX":7051,"spt":7052,"uq":7053,"va":7054,"xC":7055,"yL":7056,"zP":7057,"zp":7058,"|}^{\\":7059,"~}\\":7060,"Ġ}}}\\":7061,"}{}\\":7062,",\\\\\\\\":7063,"{\\\\":7064,"}},\\,":7065,"})}|":7066,"})({\\":7067,"^{-+}_{":7068,"Ġ\\\\(-":7069,"Ġay":7070,"sqcap":7071,"Ġ\\,{":7072,"),\\,(":7073,"}+...\\":7074,"}+||\\":7075,"Ġ{=}":7076,"&\\!\\!":7077,"^*)}{\\":7078,"^*\\|_":7079,"Ġgra":7080,"ĠcJ":7081,"\\|)\\":7082,"orem":7083,"sech":7084,"ĠBx":7085,"ĠPl":7086,"ĠVLC":7087,"ĠInd":7088,")|:":7089,")|_\\":7090,"minS":7091,"^+).\\":7092,"^+|^":7093,"\\}>":7094,"}^{-}_{":7095,"}]-\\":7096,"}]_\\":7097,"'').\\":7098,")]+[":7099,"^-)-":7100,")}))\\":7101,"}^*_\\":7102,"};\\\\\\":7103,"}'+\\":7104,")&\\\\":7105,"+||\\":7106,"})+{\\":7107,"}}-{{":7108,"ensure":7109,"}^{+}=":7110,"pqr":7111,"^{**}\\":7112,"Ġ}}^\\":7113,"}^{*}}(":7114,"}>=":7115,"ective":7116,"}_+^{":7117,"XYU":7118,"supsetneq":7119,"Ġprobability":7120,"dentity":7121,"cture":7122,"ensuremath":7123,"!)":7124,"$}=":7125,"&:=\\{":7126,"'+(":7127,"))}+\\":7128,"-))":7129,"08":7130,"432":7131,"<\\,":7132,"={{\\":7133,">-\\":7134,"Ag":7135,"Ap":7136,"Cm":7137,"Fr":7138,"HJ":7139,"Int":7140,"JS":7141,"KI":7142,"KP":7143,"LN":7144,"RHS":7145,"Sq":7146,"Trace":7147,"Uf":7148,"XH":7149,"YB":7150,"[-(":7151,"])-\\":7152,"]].\\":7153,"^!(":7154,"fw":7155,"ition":7156,"jC":7157,"ove":7158,"sN":7159,"tK":7160,"wd":7161,"xr":7162,"{}(":7163,"{.}":7164,"|)=":7165,"|)}{|":7166,"Ġ..":7167,"Ġ\\}}\\":7168,"*}~":7169,"^{},":7170,"{\\{}":7171,"_{\\,\\":7172,"mathord":7173,"*}\\#\\{":7174,"Ġ&+(":7175,"}}/\\":7176,"}}]=":7177,"}}}{|":7178,"}}+|":7179,"Ġ(}":7180,"})_{(":7181,"}))}{\\":7182,"})}\\|":7183,"})~.\\":7184,"}^-(\\":7185,")}*":7186,")}|^{":7187,"Ġfd":7188,")):=":7189,")))(\\":7190,"Ġvv":7191,")({":7192,"}}{}":7193,"&={\\":7194,"\\|^{-":7195,"geqq":7196,"ĠST":7197,"ĠMf":7198,"Ġ-\\!":7199,"Ġ=\\;\\":7200,"ĠNC":7201,"126":7202,"textsuper":7203,"'(|":7204,"Ġ\\;(\\":7205,")}({":7206,"Ġ&\\|\\":7207,"updownarrow":7208,"Ġ}\\|":7209,"^+),":7210,"}]=(":7211,"_+}(\\":7212,"117":7213,"\\}\\{":7214,"1024":7215,"}}^{*}\\":7216,"]=&\\":7217,"}}_{{":7218,"Ġ}{(\\":7219,"}}=&\\":7220,"~~~~&":7221,"};\\\\&":7222,"\\;(":7223,"*}|(\\":7224,"],\\;":7225,"136":7226,"}}=\\{":7227,"ilt":7228,"*}{}^{\\":7229,")\\\\&=&":7230,")\\\\&=(-":7231,"}&=(-":7232,"}}+(\\":7233,"=&-":7234,"=&(\\":7235,"}:=-\\":7236,"}_{-}(\\":7237,"diamondsuit":7238,"}~~,\\":7239,"Ġuniformly":7240,"index":7241,"3214":7242,"mathclap":7243,"textsuperscript":7244,"')}}":7245,"']=":7246,")}^{(\\":7247,"+)\\":7248,"+}_":7249,"+~\\":7250,"DI":7251,"Dk":7252,"EQ":7253,"ES":7254,"GG":7255,"Ht":7256,"Hv":7257,"KT":7258,"Su":7259,"Xe":7260,"ZF":7261,"\\,\\,\\,\\":7262,"])(":7263,"aZ":7264,"cT":7265,"hw":7266,"hape":7267,"kji":7268,"rB":7269,"ssi":7270,"scr":7271,"tW":7272,"vb":7273,"wu":7274,"wz":7275,"{<":7276,"||^{":7277,"|-(":7278,"||=":7279,"Ġ}).\\":7280,"Ġ)}.\\":7281,"inimize":7282,"tab":7283,",\\\\{\\":7284,"thick":7285,"art":7286,"}}}}.\\":7287,"}}].\\":7288,"}}](":7289,"})~\\":7290,"})],":7291,"}))=(":7292,"ĠdN":7293,"ĠdQ":7294,"xim":7295,"hol":7296,"},~~~~":7297,"Ġfree":7298,"Ġfrom":7299,"\\\\{\\":7300,"\\\\|\\":7301,"Ġaf":7302,"time":7303,"),}\\":7304,"Ġ\\,=\\,\\":7305,"Ġiv":7306,"tree":7307,"))<":7308,"Ġ{^\\":7309,"^*)(\\":7310,"^*||":7311,"ĠCc":7312,"ĠTX":7313,"ĠsT":7314,"Ġslow":7315,"Ġqr":7316,"ĠProb":7317,"ĠSM":7318,"ĠStr":7319,"Ġ[[\\":7320,"Ġ-\\|":7321,"Ġ_{-}":7322,"}|}.\\":7323,"}|&\\":7324,"Ġ\\;:\\;":7325,")}(-\\":7326,"}}{\\|\\":7327,"_{-}}{":7328,"!\\,\\":7329,"_+)}^":7330,")_-\\":7331,"Ġ_*}":7332,"^-}^":7333,"Ġ:&=":7334,"}}^{-\\":7335,"}\\,\\|":7336,"):=[":7337,")}=&":7338,",-,":7339,"};\\,":7340,")&(":7341,")&+\\":7342,"([(":7343,"142":7344,"||_\\":7345,"):(":7346,"argmin":7347,"}^-}":7348,"ieA":7349,"_{*}}":7350,"\\::\\:":7351,"_{\\{\\{":7352,"}=&~\\":7353,"circled":7354,".~\\,\\":7355,"Ġ\\!\\!\\!\\!":7356,"Ġboundary":7357,"centerdot":7358,"creasing":7359,"curve":7360,"!}+\\":7361,"$}}_":7362,"&$":7363,"&,\\\\":7364,"'^*":7365,"'=-\\":7366,".(\\":7367,".~\\":7368,"312":7369,"315":7370,":.\\":7371,"Ab":7372,"EE":7373,"FE":7374,"Ff":7375,"GT":7376,"If":7377,"JI":7378,"MQ":7379,"Mx":7380,"NK":7381,"PW":7382,"Po":7383,"Prob":7384,"RA":7385,"Vu":7386,"\\}=-\\":7387,"\\})-":7388,"]_+":7389,"]~,\\":7390,"_,":7391,"cF":7392,"cline":7393,"finite":7394,"gV":7395,"iab":7396,"jZ":7397,"rH":7398,"uc":7399,"xK":7400,"xc":7401,"{/":7402,"{^\\":7403,"{}=":7404,"}....":7405,"Ġar":7406,"_{;\\":7407,"ran":7408,"}{}^\\":7409,"{\\!\\!":7410,"rightrightarrow":7411,"}}'":7412,"}}}\\\\":7413,"}}}},\\":7414,"})]^{":7415,"}_{_":7416,"}_{,\\":7417,"Ġdiff":7418,"host":7419,"\\\\{":7420,"}^{\\;\\;":7421,"}=&(":7422,"linear":7423,"\\,)":7424,"ĠAut":7425,")}\\;,\\":7426,"Ġka":7427,"Ġ&=&\\":7428,")(|\\":7429,":={\\":7430,"Ġbs":7431,"ĠCF":7432,"Ġred":7433,"\\|{\\":7434,"Ġsy":7435,"Ġsti":7436,"ĠPV":7437,"Ġmea":7438,"Ġ,~":7439,"}\\,+\\,\\":7440,"dsdt":7441,"&=\\|":7442,"Ġ_{+}\\":7443,"ĠGeV":7444,"Ġ):=\\":7445,")|-\\":7446,")||_":7447,"Ġ:=(":7448,"Ġ+\\!":7449,"^+}(\\":7450,"}^{-{\\":7451,"}])=":7452,"}]\\,":7453,"'')^":7454,"))\\|":7455,"))\\;.\\":7456,")][\\":7457,")]\\\\&=":7458,")]-[":7459,"Ġ^{*}\\":7460,"Ġ(-)^{":7461,"^-|^":7462,"_*^{\\":7463,")!!\\":7464,"]=(\\":7465,"):=(-":7466,"\\;,\\\\":7467,")}=\\{":7468,"}')^":7469,"*}[(\\":7470,"^{+},\\":7471,"*}{}^":7472,"2314":7473,"2341":7474,"\\}}+\\":7475,"||(":7476,"\\!{\\":7477,"\\!=\\!":7478,")\\,\\,\\,":7479,"}:(":7480,"}^{+},\\":7481,"act":7482,"}^+.\\":7483,"}^{*})":7484,"}^{*}=":7485,"347":7486,");(":7487,"}$,":7488,"_{*}^":7489,"{}{^\\":7490,"):\\:":7491,"4321":7492,"SIR":7493,"ĠCoeff":7494,"twohead":7495,"rightrightarrows":7496,"!^{":7497,"&,\\":7498,"')/":7499,"'\\|_":7500,")'+":7501,"4123":7502,"4132":7503,"Bi":7504,"CZ":7505,"DY":7506,"Dz":7507,"FN":7508,"HC":7509,"IS":7510,"Jd":7511,"Lie":7512,"PI":7513,"SB":7514,"UA":7515,"Vec":7516,"\\})\\\\":7517,"])_{":7518,"]],":7519,"_!(":7520,"aU":7521,"aY":7522,"fbox":7523,"ici":7524,"lv":7525,"mes":7526,"sD":7527,"sP":7528,"sat":7529,"sol":7530,"ution":7531,"Ġla":7532,"Ġ')":7533,"Ġ)=-":7534,"Ġess":7535,"Ġsubject":7536,"Ġ\\},\\\\\\":7537,"*}%\\":7538,"^{}_{\\":7539,"^{''}":7540,"}\\#":7541,"}\\})=\\":7542,",\\!":7543,",\\|\\":7544,"Ġ=~":7545,"=\\,&":7546,"-\\;":7547,"muta":7548,")},\\,":7549,")}:\\":7550,"varlimsup":7551,"picture":7552,"|\\:":7553,"},}\\":7554,"},|\\":7555,"},\\,\\,\\":7556,"}^{\\{":7557,"Ġtf":7558,")^{*":7559,"\\,+\\":7560,"))~":7561,"Ġval":7562,"}=\\,\\":7563,"Ġcs":7564,"Ġcu":7565,"ĠCH":7566,"ĠCR":7567,"Ġsh":7568,"ĠExt":7569,"127":7570,"ĠUV":7571,"Ġ+\\|\\":7572,"Ġ}\\;\\":7573,"^+}^":7574,"Ġ<+\\":7575,")_{|\\":7576,"}[{":7577,"_-}^{":7578,"',-":7579,"_*)^":7580,":\\!\\":7581,"}},{{\\":7582,"'))=":7583,"})^{+":7584,"):={":7585,"Ġother":7586,")}=(-":7587,"\\},\\,":7588,"),\\\\(\\":7589,"ikj":7590,"1342":7591,"}~+~":7592,"}:={\\":7593,",&{\\":7594,"Ġ\\,\\,,\\":7595,"}^+,\\":7596,"&&\\\\":7597,"}^{*},":7598,"smallfrown":7599,"'=(\\":7600,"3412":7601,"3421":7602,"}\\\\&=-":7603,"}\\\\&=(\\":7604,"}$}.\\":7605,"^{'}+":7606,"560":7607,"),\\\\&(":7608,"{}{=}\\":7609,"dxdydz":7610,"Ġadj":7611,"Ġ_{-}\\":7612,"medspace":7613,"trianglelefteq":7614,"\\}-\\{":7615,"Ġhave":7616,"Ġstiff":7617,"'})=\\":7618,"(.":7619,"))}-":7620,".$\\":7621,"300":7622,"<|\\":7623,"=+":7624,"Aq":7625,"FF":7626,"GA":7627,"HV":7628,"Ho":7629,"IA":7630,"Jy":7631,"KZ":7632,"LX":7633,"Lk":7634,"MK":7635,"NB":7636,"Nv":7637,"Qx":7638,"RO":7639,"Ts":7640,"Uv":7641,"Ux":7642,"\\}^\\":7643,"\\})}":7644,"]\\|":7645,"cD":7646,"diff":7647,"nG":7648,"nZ":7649,"pR":7650,"pU":7651,"qU":7652,"rI":7653,"sG":7654,"sL":7655,"wa":7656,"|)+\\":7657,"~\\|":7658,"Ġ_+":7659,"Ġ}}-":7660,"Ġ}\\,,\\":7661,"*}:":7662,"*}.\\":7663,"^{},\\":7664,"^{{(":7665,"^{*}{\\":7666,"}\\{|":7667,"}{]}{":7668,")\\;\\;\\;":7669,")\\!\\!":7670,"Ġ&~~":7671,"}}|_{\\":7672,"Ġ+}":7673,"sura":7674,"Ġ-(-\\":7675,"}))(\\":7676,"})|_{\\":7677,"})}\\\\&\\":7678,"})&:=":7679,"+\\\\":7680,"+\\;\\":7681,")}/\\":7682,")}],":7683,"Ġxq":7684,"},..":7685,"},\\:":7686,"},\\\\{\\":7687,"Ġtv":7688,"Ġtop":7689,"),[\\":7690,"ĠAz":7691,"))))":7692,")))-":7693,"Ġgr":7694,")}\\|_{\\":7695,"Ġkm":7696,"Ġ};":7697,"ĠCM":7698,"\\|[":7699,"})\\;,\\":7700,"ĠHP":7701,"ĠDR":7702,"cont":7703,"}|)^{":7704,"}|+|\\":7705,"Ġ\\;\\,":7706,"Ġ\\;=\\;\\":7707,")\\\\-\\":7708,"Ġ&\\,\\":7709,")+\\\\&":7710,")^{-{":7711,")}{\\|\\":7712,"^+]":7713,"}]_+":7714,"}]=-\\":7715,"'')=":7716,"Ġlarge":7717,")]=-":7718,"Ġ$[":7719,")/{":7720,")})^*":7721,"_-)}":7722,"dyn":7723,":\\;\\":7724,")}_{=":7725,"{|}\\":7726,"_{+}-\\":7727,"_{+}^{(":7728,"2143":7729,"\\\\&+(":7730,"*}\\|(\\":7731,"^{*}.\\":7732,"Ġ]_{\\":7733,"}~,~":7734,"\\},~":7735,"140":7736,"\\!:\\!":7737,"}}}{|\\":7738,"))=\\{":7739,"arrowright":7740,"}:=&\\":7741,"pqi":7742,")\\|=\\":7743,"ijkt":7744,"smallint":7745,"{[}{]}{":7746,"}_+.\\":7747,")}\\\\=&\\":7748,"^{'}}}\\":7749,"]\\\\=&\\":7750,"960":7751,")_+^{":7752,"))\\\\&=(":7753,"CPF":7754,"\\|=\\|\\":7755,"univ":7756,"complement":7757,"#(\\":7758,"&:=(":7759,"'}[":7760,"'})^":7761,"*{$\\":7762,"-}_{\\":7763,".}}\\":7764,":\\|":7765,">\\,":7766,"AE":7767,"CY":7768,"Cd":7769,"FX":7770,"Fv":7771,"GP":7772,"LF":7773,"Mp":7774,"OC":7775,"PX":7776,"PZ":7777,"Pa":7778,"RX":7779,"SV":7780,"ZX":7781,"\\}}^":7782,"ace":7783,"gK":7784,"ial":7785,"jF":7786,"kE":7787,"nW":7788,"pdx":7789,"rV":7790,"rig":7791,"sto":7792,"tJ":7793,"uk":7794,"whenever":7795,"xE":7796,"yh":7797,"yk":7798,"yeq":7799,"zb":7800,"{,}":7801,"|)-":7802,"Ġeq":7803,"Ġ^+":7804,"Ġ)}=":7805,"Ġ)=-\\":7806,"Ġ}\\,.\\":7807,"ality":7808,"*}^{\\":7809,"ink":7810,"endbmatrix":7811,"}\\}\\\\":7812,"}{_":7813,"}{@{\\,}":7814,"Ġ=(-\\":7815,"*}\\{{\\":7816,"ded":7817,"})|.\\":7818,")}]_{":7819,")}~.\\":7820,"^{\\{\\":7821,"Ġxyz":7822,"Ġ\\\\.":7823,"}_{*":7824,"}_{}\\":7825,"ĠdC":7826,"}}\\|^":7827,"Ġae":7828,"Ġav":7829,"Ġ240":7830,"Ġtrace":7831,"Ġterm":7832,"}={{\\":7833,"Ġed":7834,"^{({":7835,"\\,)\\":7836,")))^":7837,"Ġ{^":7838,"Ġ{{(":7839,"Ġ{}^*":7840,"^*({\\":7841,"Ġvu":7842,"Ġps":7843,"Ġ|}{":7844,"Ġce":7845,"\\|.":7846,")}{{":7847,"ĠBNC":7848,"})\\},\\":7849,"ĠPD":7850,"ĠSNR":7851,"ĠDS":7852,"ĠDiag":7853,"prim":7854,"Ġ.\\\\":7855,"1223":7856,"Ġ,\\,\\,":7857,"itshape":7858,"}\\,:\\,":7859,"}|},\\":7860,"'({\\":7861,"Ġ)]":7862,",\\,|\\":7863,"_+)=":7864,")_{(\\":7865,"'')=\\":7866,"Ġdxd":7867,"))\\|^":7868,"Ġ31":7869,"})=[":7870,"_-+\\":7871,"_*[":7872,"Ġ~&":7873,"Ġ~^{":7874,"}|\\,":7875,"}^*)^":7876,"}^*)^{":7877,"*}&\\{":7878,"]}:":7879,"\\;|\\;":7880,")&:=\\{":7881,"Ġ/(":7882,"147":7883,"})_{,":7884,"^{[-":7885,")^*,\\":7886,"}^{+}}":7887,",\\\\&(":7888,",\\\\&[":7889,"}^+)":7890,"}^{[{\\":7891,"}^-,":7892,"\\,\\,.\\":7893,",+}\\":7894,"post":7895,"\\,{,}\\":7896,"Cont":7897,";\\;\\;\\;\\;\\;\\;\\;\\;\\;\\;\\;\\;\\;\\;\\;\\":7898,"total":7899,"]\\!]}":7900,"WZW":7901,"ĠCov":7902,"urlyeq":7903,"@{}}{\\":7904,"Ġsatisfies":7905,"blacktriangleright":7906,"twoheadrightarrow":7907,"'$":7908,"'}_\\":7909,"')})":7910,"'}=(":7911,"*{\\":7912,",~~~~\\":7913,"<...<":7914,"AG":7915,"BY":7916,"Bz":7917,"EN":7918,"EX":7919,"Gal":7920,"GUT":7921,"HF":7922,"Hh":7923,"Qv":7924,"Ru":7925,"Tc":7926,"Uparrow":7927,"\\-":7928,"\\;\\;\\;\\":7929,"\\;\\;\\;\\;":7930,"])\\\\":7931,"bF":7932,"bP":7933,"cN":7934,"gL":7935,"jG":7936,"lz":7937,"mC":7938,"pC":7939,"qN":7940,"sF":7941,"tI":7942,"vd":7943,"xl":7944,"zJ":7945,"zdz":7946,"Ġinf":7947,"Ġ),\\\\":7948,"Ġ}}_":7949,"Ġ}}\\,":7950,"igen":7951,"^{,":7952,"raint":7953,"les":7954,")\\\\{":7955,")\\},\\\\":7956,"_{\\:":7957,"}(^{\\":7958,"=\\{(\\":7959,"}}>\\":7960,"}}}}{{\\":7961,"Ġ((-":7962,"})]^":7963,"Ġxp":7964,"Ġ01":7965,"}_{{{":7966,"ĠdG":7967,"|\\}}":7968,")=<":7969,"Ġ\\,_":7970,"Ġ\\,&=\\":7971,"),\\;\\;\\":7972,"limit":7973,"ĠiT":7974,"Ġic":7975,"\\,-":7976,"))<\\":7977,"))-(\\":7978,"^*{\\":7979,"^*)}\\":7980,"^*&=":7981,"^*(-":7982,"^*_{(":7983,"Ġkr":7984,"Ġ}:":7985,"Ġ}[\\":7986,"&=-(":7987,"Ġcase":7988,"ĠCC":7989,"\\|<\\":7990,"\\|}{\\|":7991,")}{}_{":7992,"pair":7993,"pact":7994,"ĠLL":7995,"ĠRF":7996,"Ġ-\\,\\":7997,"Ġ=\\!":7998,"Ġ=\\|\\":7999,"Ġ)&":8000,")||_{\\":8001,"_{-}^{(":8002,"^+}}":8003,"idy":8004,"}]).\\":8005,"'''\\":8006,"Ġ38":8007,"Ġ49":8008,")]\\\\&+":8009,"Ġ$-":8010,"_-}{\\":8011,")!\\,(":8012,"')|^":8013,"')&=\\":8014,"_{+}}{":8015,"_{+})\\":8016,"Ġ\\\\&=:":8017,"\\;,\\;":8018,"220":8019,"\\|\\\\":8020,"^{*}_\\":8021,"^{*})^{":8022,"xxt":8023,"246":8024,"146":8025,"}&\\|":8026,"^*}}{":8027,"ABR":8028,"})\\\\&=(":8029,")),(":8030,"}^+)^":8031,")~.":8032,"}^{*},\\":8033,"3456":8034,"Ġtriv":8035,"Ġ90":8036,"MNP":8037,"}:\\;":8038,")$.}\\":8039,"^*}\\,":8040,"poch":8041,")\\!-\\!":8042,"{.}{":8043,")*(":8044,"}\\,\\,\\,\\,\\,":8045,"Ġsinh":8046,"ĠChar":8047,")~~,\\":8048,"+&+&":8049,"Ġcontinuous":8050,"Hoch":8051,"!|":8052,"!=\\":8053,"!}+":8054,"$}\\\\\\":8055,"')\\\\":8056,"'}},":8057,"({-":8058,"){{":8059,",}(":8060,"-}_":8061,".-":8062,".-\\":8063,"210":8064,":\\\\":8065,":&\\":8066,">}\\":8067,"AN":8068,"Ak":8069,"Cu":8070,"EL":8071,"Err":8072,"FR":8073,"Gx":8074,"Inc":8075,"JL":8076,"Lh":8077,"Ls":8078,"Ny":8079,"Ps":8080,"Spl":8081,"]<":8082,"]>":8083,"]|_{":8084,"]}}.\\":8085,"]})=\\":8086,"aL":8087,"aff":8088,"cA":8089,"cZ":8090,"eQ":8091,"ius":8092,"kY":8093,"sJ":8094,"term":8095,"Ġal":8096,"Ġ}),":8097,"Ġ}}+\\":8098,"Ġ)\\,.\\":8099,"Ġ!}{":8100,"Ġlocal":8101,"Ġalmost":8102,"Ġ\\,\\,\\,\\,\\,\\,":8103,"ined":8104,"^{}_\\":8105,"}\\}_{\\":8106,"}\\;\\;\\;\\":8107,"mag":8108,"}}~~":8109,"}})]":8110,"Ġ({{\\":8111,"})'\\":8112,"}))}^{":8113,")}]=\\":8114,")}*\\":8115,"^{\\,(":8116,"biguplus":8117,"}_{-(":8118,"}_!\\":8119,"nul":8120,"},\\;\\;\\":8121,"\\\\+":8122,"}-[":8123,"^*&":8124,"Ġvw":8125,"Ġkz":8126,"&=|\\":8127,"Ġcond":8128,":=|":8129,"ĠBD":8130,"\\{-(":8131,"ĠLx":8132,"ĠLemma":8133,"ĠRf":8134,"}_{\\!":8135,"Ġmo":8136,"Ġmp":8137,"ĠSx":8138,"ĠDT":8139,"ĠDX":8140,"{(|\\":8141,"&=\\{\\":8142,"}|.":8143,"}|-\\":8144,"Ġ){\\":8145,"Ġ}\\\\\\":8146,"^+)=\\":8147,"\\}<\\":8148,"}]}.\\":8149,"}]\\\\&=":8150,"_+)}":8151,"''},":8152,"}[-\\":8153,"'_-":8154,"^-),\\":8155,"+(|":8156,"....\\":8157,")})_{\\":8158,"_-).\\":8159,"}}^{+\\":8160,"Ġ~=~\\":8161,"')'":8162,"}|\\\\":8163,"*}&\\|\\":8164,"ion":8165,"\\},\\;":8166,")}=\\|\\":8167,"}'_\\":8168,"onal":8169,"},\\\\(":8170,"Ġ&=\\|":8171,"248":8172,"||}\\":8173,"Ġ;\\,":8174,"}}}{{{\\":8175,"pqj":8176,"}\\\\&<":8177,"}\\\\&+(":8178,",\\,\\,\\,\\,\\,\\,":8179,"}^{*}}":8180,");\\\\&":8181,")[-":8182,"}\\\\&=(-":8183,"Ġ=-{\\":8184,"}]=[\\":8185,"Ġ70":8186,"^{'}(\\":8187,"anti":8188,"]\\,.":8189,"^{\\#}":8190,"BRST":8191,"graph":8192,"boson":8193,"surable":8194,"'_+":8195,"'=\\{":8196,"))}(\\":8197,")'=\\":8198,",<":8199,",*}(":8200,"-),":8201,"Frob":8202,"Gf":8203,"IC":8204,"IP":8205,"Ieq":8206,"JN":8207,"KG":8208,"Ki":8209,"MB":8210,"Mh":8211,"QX":8212,"RN":8213,"SK":8214,"St":8215,"Ve":8216,"Zf":8217,"\\}=(":8218,"]'":8219,"]}-\\":8220,"]}\\\\":8221,"])&=\\":8222,"];\\\\":8223,"]~~~.\\":8224,"bE":8225,"eL":8226,"ical":8227,"iik":8228,"kQ":8229,"lmn":8230,"mic":8231,"ql":8232,"tR":8233,"wB":8234,"|).":8235,"|)^\\":8236,"||}":8237,"~,\\\\":8238,"Ġsim":8239,"Ġ})(":8240,"Ġ)\\\\&=":8241,"Ġ)\\\\&":8242,"Ġarc":8243,"Ġ\\}^":8244,"_{{{":8245,"}\\\\\\\\":8246,"rat":8247,"lead":8248,"(\\!\\!\\":8249,"ighbo":8250,")\\\\\\\\":8251,"}}_*":8252,"}}],\\":8253,"})})\\":8254,"})^*(":8255,")}],\\":8256,")},\\\\&\\":8257,"varia":8258,"Ġxa":8259,"Ġxf":8260,"Ġxt":8261,"Ġ\\\\\\,":8262,"\\\\+\\":8263,"Ġaq":8264,"ĠiS":8265,"Ġnq":8266,"\\,[\\":8267,")))(":8268,"Ġ{+}":8269,"Ġ|^{-":8270,"Ġ}]":8271,"ĠCn":8272,")}{=}\\":8273,"Ġss":8274,"})\\}_{":8275,"}+\\{":8276,"Ġ,{":8277,"cond":8278,"colu":8279,"Ġwx":8280,"&=\\;":8281,":=\\;\\":8282,"Ġ\\|.\\":8283,")|}=\\":8284,"^+_{-":8285,",\\,-":8286,"}]&=\\":8287,"_+'(":8288,"''|":8289,"}).\\\\\\":8290,"}}^{}\\":8291,"{|(\\":8292,"')_\\":8293,"})^{*}\\":8294,"Ġosc":8295,")}=[":8296,"~~~~~~\\":8297,"\\;,\\;\\;":8298,"=-[":8299,"^{+}-":8300,"^{+})^{":8301,"(||\\":8302,",\\\\\\\\\\":8303,"}\\;(":8304,"xyy":8305,"\\}}+":8306,"tte":8307,"ttt":8308,"^*}=\\":8309,"ents":8310,"mme":8311,")}\\,{\\":8312,");\\\\\\":8313,"Ġ=-{":8314,"Ġ)={\\":8315,"_+\\,":8316,"ggg":8317,",+}^":8318,")_+,":8319,",\\;\\;\\,":8320,"9999":8321,"rest":8322,"cyclic":8323,"_{**}^":8324,")}\\\\&+\\":8325,"grade":8326,"allowdisplaybreak":8327,"Ġperiodic":8328,"column":8329,"allowdisplaybreaks":8330,"!-\\!":8331,"!\\,(":8332,"+)-":8333,"-}_{":8334,"-||":8335,"Ah":8336,"Ey":8337,"FH":8338,"GD":8339,"IX":8340,"Ii":8341,"Ja":8342,"LU":8343,"Ln":8344,"NOMA":8345,"Pe":8346,"Py":8347,"SA":8348,"\\;\\;\\;\\;\\":8349,"]))":8350,"]}^\\":8351,"^(":8352,"bD":8353,"cI":8354,"dig":8355,"hr":8356,"jI":8357,"jU":8358,"mF":8359,"qQ":8360,"qg":8361,"qh":8362,"udx":8363,"unt":8364,"vD":8365,"yT":8366,"zero":8367,"{}}":8368,"{!}{":8369,"|,\\\\":8370,"~,~~":8371,"Âł":8372,"Ġ',":8373,"Ġ)=(":8374,"Ġ)}}\\":8375,"Ġtanh":8376,"Ġequivalent":8377,"Ġ\\:=\\:":8378,"*}{(":8379,"ini":8380,",\\#":8381,"(\\#":8382,"{\\,\\":8383,"Ġ=}":8384,")\\#":8385,"Ġ&{}":8386,"Ġ(*":8387,"Ġ-[\\":8388,"}))&=\\":8389,"}))\\\\&=":8390,"})|=":8391,"}),\\\\&\\":8392,"los":8393,")}}\\\\":8394,")}_-":8395,")}](":8396,"^{-}}\\":8397,")=({\\":8398,"bare":8399,"roup":8400,"Ġau":8401,"Ġts":8402,"}=({\\":8403,"Ġeither":8404,"Ġ\\,}":8405,"\\,,&":8406,"\\,,\\\\&":8407,")))^{-":8408,"Ġ{}^{(":8409,"exf":8410,"&\\|":8411,"^*:=":8412,"[\\![":8413,"Ġ||(":8414,"ĠCA":8415,"ĠCx":8416,"Ġrdr":8417,"\\|-\\|":8418,")}{}":8419,"ĠTT":8420,"order":8421,"ĠBA":8422,"Ġht":8423,"ĠPu":8424,"ĠMN":8425,"Ġju":8426,"Ġwhenever":8427,"}\\,)":8428,"}\\,-\\,":8429,"ĠGr":8430,")\\\\*":8431,")}([":8432,")\\,=\\":8433,"*}([":8434,"*}({":8435,"}]^{\\":8436,"}]&=":8437,"isx":8438,"))\\}.\\":8439,"Ġ42":8440,"_*];":8441,"Ġ~:~":8442,"}&,":8443,"}&+\\":8444,"}&&&":8445,"):=|":8446,"_{+}^{-":8447,",-}\\":8448,"iky":8449,"1323":8450,"\\|\\,\\":8451,"}'}{\\":8452,"^{+}=":8453,"))=&":8454,"Ġ128":8455,"\\!=\\!\\":8456,"}}\\,{":8457,"}:~":8458,"Ġinv":8459,"})\\\\=&":8460,")>=":8461,"}^{+}(\\":8462,")}}{{{":8463,"}^{*}.\\":8464,"}$.}\\":8465,"Ġ}^{}":8466,"=~&":8467,"abcde":8468,"}_{+,":8469,"}_{+}.\\":8470,"\\,\\,,\\":8471,"^{'}}":8472,"))\\,,":8473,"_{*}^{":8474,"4096":8475,"ĠReac":8476,"|}{\\|":8477,"textsl":8478,"tinct":8479,"Ġ~~~,\\":8480,"lllllll":8481,")\\!=\\!\\":8482,"])=[":8483,"\\,{.}\\":8484,"1122":8485,"APP":8486,")~~.\\":8487,"Ġdegree":8488,"Ġ\\!\\!\\!/":8489,"Ġresp":8490,"Ġneighbo":8491,"ximize":8492,"digamma":8493,"$&$":8494,"&~~":8495,"'_{-":8496,"'\\\\\\":8497,"'||":8498,"'))(":8499,"(}\\":8500,"))}_{":8501,")~~~":8502,")),\\\\&":8503,"*,\\":8504,"+}_{\\":8505,",~~~~~~~~":8506,".)":8507,".+":8508,".},\\":8509,"82":8510,">^":8511,"AI":8512,"BZ":8513,"CV":8514,"Exp":8515,"FC":8516,"Fx":8517,"HQ":8518,"JO":8519,"Kn":8520,"Lw":8521,"Mc":8522,"Mant":8523,"NV":8524,"PY":8525,"QA":8526,"QL":8527,"RE":8528,"Ri":8529,"Rt":8530,"\\}\\,,":8531,"]}},\\":8532,"]~~~,\\":8533,"aM":8534,"bQ":8535,"cll":8536,"jM":8537,"lB":8538,"pP":8539,"tdW":8540,"uG":8541,"vcent":8542,"xV":8543,"ya":8544,"zr":8545,"{?":8546,"{}=\\":8547,"Ġright":8548,"Ġ)}=\\":8549,"Ġ}}+":8550,"*}*":8551,"*},\\":8552,"inx":8553,"}\\#\\":8554,"mass":8555,"Ġ=\\\\&":8556,"amalg":8557,")\\}+":8558,"_{\\,\\,":8559,"*}\\:\\":8560,"}}}^{(":8561,"Ġ+\\\\":8562,"Ġ+{{":8563,"Ġ(+":8564,"})}^\\":8565,"}))_":8566,"})/(":8567,"})&:=\\":8568,"lose":8569,"}{\\,}":8570,"}_{*,":8571,"Ġdiam":8572,"hift":8573,"Ġux":8574,"),{":8575,"}=&-\\":8576,"Ġir":8577,"))}^{":8578,"))}\\,":8579,"Ġ{^{":8580,"Ġ{}_{\\":8581,"Ġ{-}":8582,"&\\{":8583,"Ġ|,\\":8584,"Ġzx":8585,"Ġzy":8586,"Ġcol":8587,"Ġru":8588,"\\|}{\\":8589,"ĠLv":8590,"ĠSP":8591,"ijij":8592,"Ġ,}":8593,"ĠExp":8594,"1256":8595,"Ġ,\\;\\":8596,"Ġ_{[\\":8597,"}^\\#":8598,"}|}}":8599,"}|>\\":8600,"Ġ):=":8601,")|},\\":8602,"_{-+":8603,"\\}&":8604,"\\}]":8605,"}^{-{":8606,"Ġ\\\\&+(":8607,"))\\}\\":8608,")],\\\\":8609,"stab":8610,"_*{\\":8611,")!}=":8612,")!}\\,":8613,")!!}":8614,")!!}\\":8615,"')_{\\":8616,"'))=\\":8617,"}\\|}\\":8618,"}\\|=\\":8619,"Ġ}{}^{":8620,"}}={{":8621,"}'}(":8622,"217":8623,")|\\,\\":8624,"crit":8625,"*}{[":8626,")&+":8627,"_{||":8628,"Ġ]^{-":8629,"}^{+,":8630,"olv":8631,")}\\,.":8632,")}^{[":8633,"Ġ~~.\\":8634,"^+\\\\":8635,"{}{'}\\":8636,")]=[\\":8637,"\\}\\\\=&\\":8638,"504":8639,"^{(+)}\\":8640,",\\,\\,\\,\\,\\,\\,\\,\\,\\,\\,\\,\\,\\,\\,\\,\\":8641,"\\}\\,.":8642,"PQR":8643,"iJKL":8644,"Ġ{[}":8645,"Ġprime":8646,"ĠTutte":8647,"$;}\\\\":8648,"Pois":8649,"vcentcolon":8650,"!/":8651,"!,\\":8652,"!)^{-":8653,"${\\":8654,"$}}_{":8655,"&<":8656,"')+(":8657,"(*":8658,"(}":8659,")'(\\":8660,"+,\\":8661,"-}^{":8662,".}=\\":8663,">+":8664,"AJ":8665,"And":8666,"ET":8667,"Ei":8668,"FDF":8669,"Irr":8670,"Kx":8671,"LE":8672,"LI":8673,"PG":8674,"Per":8675,"RD":8676,"Sg":8677,"Str":8678,"Tb":8679,"Tn":8680,"[.":8681,"[-{":8682,"\\}}_{":8683,"\\,\\,\\,\\,\\,":8684,"]~":8685,"]],\\":8686,"]})^\\":8687,"]\\\\&+":8688,"]]=[[":8689,"aC":8690,"ang":8691,"gD":8692,"ied":8693,"ldot":8694,"mG":8695,"mP":8696,"mX":8697,"rZ":8698,"sct":8699,"vh":8700,"vz":8701,"xS":8702,"za":8703,"{}}\\":8704,"Ġ}),\\":8705,"Ġinter":8706,"Ġ\\}\\,":8707,"}\\}+":8708,"}\\})\\":8709,"ram":8710,",\\:\\":8711,",\\;\\;\\;\\;\\;":8712,"{\\!\\":8713,"}((-":8714,"}^{}(":8715,"}^{}_{":8716,"}}}}(":8717,"}}_+":8718,"}}}}}\\":8719,"erspace":8720,"})](":8721,"})}\\\\&=\\":8722,"})~,\\":8723,"+\\:":8724,"lock":8725,")}~\\":8726,"Ġ\\\\=~&":8727,"ldelimit":8728,"|\\{\\":8729,"},~~~\\":8730,"}(\\,":8731,"\\\\\\\\\\":8732,"ror":8733,"rong":8734,"Ġem":8735,"Ġemp":8736,"Ġelement":8737,"Ġnr":8738,"Ġns":8739,"));\\":8740,"^*)_{":8741,"^*))\\":8742,"Ġgen":8743,"Ġpx":8744,"}}{}^{":8745,"}}{}^{\\":8746,"&=&-":8747,"Ġcb":8748,"Ġcz":8749,"\\|<":8750,"orr":8751,"orphi":8752,")+[\\":8753,"ĠRT":8754,"ĠSf":8755,"ĠMU":8756,"Ġ,\\;\\;\\;":8757,"dsdy":8758,"Ġ\\|[":8759,")\\,+\\,\\":8760,")\\,:=\\,\\":8761,"since":8762,"ĠKK":8763,")|;":8764,")|}{(":8765,"_{-{\\":8766,"_{--}":8767,"Ġ}\\\\&":8768,"\\}$":8769,"ĠYu":8770,"}]}_{":8771,"''|^":8772,"))\\|_":8773,")]&=\\":8774,"118":8775,"Ġ>=":8776,"Ġ:_":8777,"Ġ.}\\":8778,")}}|":8779,")})&=\\":8780,"_-)=":8781,"_-(-":8782,"}}^{'}":8783,")!]^":8784,"}\\|(\\":8785,"}|\\\\&\\":8786,"Ġ_{\\;\\;":8787,"_{+}+\\":8788,"_{++}\\":8789,"_{++}(":8790,"}),[":8791,"\\},\\{\\":8792,",-)}":8793,"1324":8794,"itA":8795,"\\\\&<":8796,"one":8797,"({-\\":8798,"^{[{\\":8799,"}:|":8800,"320":8801,"env":8802,"*}-(\\":8803,"2048":8804,"|\\,.\\":8805,"Ġ{{{{\\":8806,"Ġ=&-\\":8807,",\\,\\,\\,\\,\\,\\,\\,":8808,"345":8809,"})\\,=\\,":8810,"189":8811,"rclrcl":8812,"izy":8813,"Ġ},{{\\":8814,"Ġ\\#\\{\\":8815,"}\\!+\\!\\":8816,"^{'}}\\":8817,"Ġ&+&":8818,"^{(-)}\\":8819,"}''+":8820,"Ġconv":8821,")_+^{\\":8822,"*}<{\\":8823,"\\\\=&-\\":8824,"^{++}(":8825,"Ġmatter":8826,"qcH":8827,"&*&":8828,"]/[":8829,"Ġbounded":8830,"|\\!|":8831,"Ġbulk":8832,"pochs":8833,"nulldelimit":8834,"ldotp":8835,"nulldelimiterspace":8836,"!{":8837,"$}_{\\":8838,"&,":8839,"'{\\":8840,"'[\\":8841,"(^":8842,"*[":8843,"-}=":8844,"-}_{+":8845,"/[":8846,"3124":8847,":&=\\":8848,"Bw":8849,"BNC":8850,"Cn":8851,"Di":8852,"EU":8853,"ECS":8854,"Fu":8855,"GW":8856,"IY":8857,"Ij":8858,"KF":8859,"Kh":8860,"Kv":8861,"Lg":8862,"Lz":8863,"Mg":8864,"Mz":8865,"NQ":8866,"NY":8867,"Se":8868,"Tp":8869,"VC":8870,"Yv":8871,"\\})^":8872,"\\})}\\":8873,"\\})|":8874,"])}{":8875,"]_{(":8876,"]-(":8877,"]<\\":8878,"]}(-":8879,"])\\\\&=":8880,"]})^{-":8881,"bR":8882,"cQ":8883,"cS":8884,"ghost":8885,"oslash":8886,"rQ":8887,"sM":8888,"tdx":8889,"ulo":8890,"ugh":8891,"vg":8892,"{^{\\":8893,"|}\\,\\":8894,"~:~":8895,"Ġsub":8896,"Ġ!\\":8897,"_{*}(\\":8898,"}\\>":8899,"}\\{(\\":8900,"}\\,\\,\\,\\,":8901,"Ġ={}":8902,"Ġ=\\{(":8903,"}^{~~":8904,"}}*":8905,"}})}(":8906,"}}}},":8907,"}}^*(":8908,"})}}.\\":8909,"})}\\,\\":8910,"})>\\":8911,"});\\\\":8912,")}}^{-":8913,")}|_{":8914,")}|=":8915,")})\\\\&=\\":8916,"bigstar":8917,"Ġxx":8918,"Ġ\\\\{}":8919,"Ġfix":8920,"Ġaff":8921,"aps":8922,"Ġ(\\{\\":8923,"\\,}(\\":8924,"\\,;\\,":8925,"\\,-\\,\\":8926,"ĠAY":8927,"^*&=\\":8928,"^*,\\\\":8929,"Ġgl":8930,"Ġgv":8931,"Ġze":8932,":=[\\":8933,"Ġbb":8934,"Ġrot":8935,"\\|>":8936,"\\|-\\":8937,"Ġste":8938,"ĠFA":8939,"Ġqt":8940,"Ġqz":8941,"Ġhx":8942,"ĠHHJ":8943,"ĠSH":8944,"Ġ,|":8945,"Ġji":8946,"Ġwhich":8947,"Ġ,\\\\&\\":8948,"}\\,)\\":8949,"ĠGal":8950,"}|~":8951,")\\,,\\,":8952,"}}((\\":8953,"ĠQP":8954,"omial":8955,"ĠJX":8956,"_{-{":8957,"\\}_\\":8958,"*}(|":8959,"ish":8960,"\\|_{(\\":8961,"''}(\\":8962,"Ġ39":8963,")]|":8964,")]}.\\":8965,"^-)}":8966,"^-)^{":8967,"rela":8968,"*}&{":8969,"+((":8970,"+({\\":8971,"Ġ:_{":8972,"103":8973,"Ġ$}":8974,"Ġ${\\":8975,")}}}{":8976,")})'(":8977,"_--\\":8978,"dyd":8979,"}}(\\{":8980,"}}_{|":8981,"_{+,\\":8982,"167":8983,"Ġ\\,\\}":8984,"^{+}+":8985,"^{*},\\":8986,"Ġ]-":8987,"Ġ]\\,":8988,"xyx":8989,"({}^{":8990,"}:|\\":8991,"Ġ\\:,":8992,")^*)":8993,"})\\\\*":8994,"})}{{\\":8995,"mmse":8996,"Ġ*\\,":8997,")}}{(\\":8998,"Ġ\\,\\,=\\,\\,":8999,"Ġ=&(":9000,")\\|=\\|":9001,")~,~":9002,"ecau":9003,"}_+)":9004,"}_+^{\\":9005,")}\\\\=&":9006,"}_{+}}":9007,"_{*},":9008,"tional":9009,"\\:.\\":9010,"\\}=\\{\\":9011,"}\\,\\,.\\":9012,"auge":9013,"^{\\#}_":9014,"Ġreal":9015,")_*(\\":9016,"WZNW":9017,"Ġspin":9018,"Ġstring":9019,",....,":9020,"ĠConf":9021,"higher":9022,"oved":9023,"Ġelse":9024,"leadsto":9025,"ecause":9026,"!,":9027,"!}}{\\":9028,"#}":9029,"$\\\\":9030,"&|":9031,"&\\\\&":9032,"'}}=":9033,",(-\\":9034,"-}(\\":9035,"/\\|":9036,"013":9037,"324":9038,":}\\":9039,"Bg":9040,"CI":9041,"For":9042,"HD":9043,"JJ":9044,"JZ":9045,"KB":9046,"Kd":9047,"LD":9048,"LK":9049,"LHS":9050,"Move":9051,"OP":9052,"Qb":9053,"Rc":9054,"Rg":9055,"Stab":9056,"[{(":9057,"_*}(\\":9058,"bI":9059,"cX":9060,"eE":9061,"hG":9062,"pend":9063,"pol":9064,"rF":9065,"uA":9066,"wg":9067,"yc":9068,"{}-":9069,"|)}(":9070,"|{{\\":9071,"|)^{-\\":9072,"}~~~~":9073,"Ġleft":9074,"Ġver":9075,"Ġlin":9076,"Ġ'}\\":9077,"Ġ)^{-\\":9078,"Ġlength":9079,"Ġ\\}_{\\":9080,"Ġ\\}}(":9081,"*})":9082,"*},":9083,"*}&=":9084,"^{}(\\":9085,"}\\}=\\{":9086,"}{}+":9087,"{\\#\\{":9088,"_{\\{(":9089,"=\\!\\!":9090,"Ġ&;":9091,"Ġ&(-":9092,"}})|":9093,"}}]_{":9094,"-\\#":9095,"Ġ+\\{":9096,"})^+":9097,"})_+":9098,"})!(":9099,")}}\\,\\":9100,"ĠxP":9101,"Ġxg":9102,"},~~~~~":9103,"number":9104,"Ġup":9105,"},\\|":9106,"}}\\},\\":9107,"\\\\(-":9108,"aboved":9109,")=\\\\&":9110,"),|\\":9111,"),(-":9112,"^{(*":9113,"Ġ\\,;":9114,"ĠiA":9115,"Ġil":9116,"Ġ(\\#":9117,"))[\\":9118,"))|^{":9119,"))|}":9120,"))+(\\":9121,"))&=(":9122,"}-[\\":9123,"^*/":9124,"^*[\\":9125,"^*\\{":9126,"^*)_":9127,"Ġgeo":9128,"Ġpf":9129,")}\\{\\":9130,")}\\,(":9131,")}\\|_\\":9132,"Ġkp":9133,")([\\":9134,"Ġrk":9135,"Ġrel":9136,"Ġrev":9137,"\\|).\\":9138,"ĠFP":9139,"ĠBMO":9140,")-[\\":9141,"}_{\\;":9142,"ĠSD":9143,"ĠDY":9144,"Ġ,-":9145,"rcr":9146,"ĠEnt":9147,"{({":9148,"1243":9149,"}\\,,\\\\\\":9150,"}\\,:=\\,\\":9151,":=\\|":9152,"}|<\\":9153,"Ġ)]\\":9154,"]\\},\\":9155,"Ġ\\;,\\;":9156,"ĠKf":9157,"ĠKt":9158,")|}=":9159,"Ġ\\{[":9160,"fore":9161,"ĠWZ":9162,"_{-})\\":9163,"_{-}}(":9164,"^+)}":9165,"}^{-}(\\":9166,"}]/":9167,"_+)(":9168,"ispla":9169,"equation":9170,"Ġlm":9171,"Ġ_-":9172,"-((":9173,"}.(":9174,"yskip":9175,"^-|":9176,"(({\\":9177,"'\\;":9178,")}}}.\\":9179,"_-]":9180,"_-}(\\":9181,"_-)(":9182,"_*^{(":9183,")!.\\":9184,")!)^":9185,")!}+\\":9186,"}{||\\":9187,"'):":9188,"_{+}}{\\":9189,"_{+-}":9190,"ikr":9191,"224":9192,"itx":9193,"\\|\\|\\":9194,"}'}{":9195,"*}[-":9196,"^{+}+\\":9197,"(|{\\":9198,"^{*})=":9199,"Ġ]}\\":9200,"})+(-":9201,"1423":9202,"):~":9203,"}:(\\":9204,"))^+":9205,"})-{\\":9206,"Ġ\\:,\\":9207,"^*}^{\\":9208,"Ġ53":9209,"Ġ80":9210,"}:=[":9211,",&.\\":9212,")\\|+\\":9213,")&\\,\\":9214,"ccccccccc":9215,";\\;\\;\\;\\;\\;\\;":9216,"})\\,.":9217,")}||\\":9218,"|<|":9219,"197":9220,"198":9221,"irst":9222,"cted":9223,",+,":9224,"}~~~\\":9225,"Ġ~~~.\\":9226,"uep":9227,",\\,\\,\\,\\,\\,\\,\\,\\,\\,\\":9228,"}}/{\\":9229,"below":9230,"}^{*,":9231,"Ġ\\!\\!\\!\\":9232,"Ġcompact":9233,"corr":9234,"Ġsatisfying":9235,"multicolumn":9236,"EqLeft":9237,"scalar":9238,"igenval":9239,"raints":9240,"Ġ\\,&=\\,":9241,"MoveEqLeft":9242,"abovedispla":9243,"abovedisplayskip":9244,"!*}\\":9245,"'-(":9246,"'}}.\\":9247,"'|=":9248,"'}^{(\\":9249,"))}_":9250,")})=(":9251,"+),":9252,".}=":9253,"356":9254,"729":9255,":,\\":9256,">{\\":9257,"CG":9258,"Ds":9259,"EB":9260,"FV":9261,"Jf":9262,"Ly":9263,"OFD":9264,"Sk":9265,"UB":9266,"Ue":9267,"VM":9268,"Xy":9269,"\\*":9270,"\\}}}\\":9271,"]$":9272,"]\\|_{":9273,"ber":9274,"cG":9275,"crcl":9276,"class":9277,"eF":9278,"ek":9279,"fT":9280,"gm":9281,"ith":9282,"llap":9283,"mI":9284,"perator":9285,"qB":9286,"qP":9287,"rM":9288,"ral":9289,"rlll":9290,"sV":9291,"snr":9292,"uj":9293,"wf":9294,"{}-\\":9295,"{)}^":9296,"|)-\\":9297,"|)|\\":9298,"~^{":9299,"Ġ?":9300,"Ġbo":9301,"Ġ}}}{":9302,"Ġ')\\":9303,"Ġ})^{\\":9304,"Ġ}^{+\\":9305,"Ġimplies":9306,"Ġ``":9307,"_{}^{\\":9308,"_{}=\\":9309,"*}=-\\":9310,"^{;\\":9311,"^{{-":9312,"mat":9313,"}{<":9314,")\\}+\\":9315,")\\|\\\\":9316,"_{\\{|\\":9317,"*}\\:":9318,"}^{}_":9319,"}}$":9320,"}}})^{":9321,"}}}),\\":9322,"}}]^":9323,"})!":9324,"})]}":9325,"})|}{":9326,")}_+":9327,")}]=":9328,"Ġ\\\\$":9329,"Ġ\\\\-(":9330,"Ġdi":9331,"atq":9332,"Ġund":9333,"},\\;\\;\\;\\":9334,"ĠtH":9335,"),...,\\":9336,"}=&-":9337,"^{((":9338,"Ġ\\,-":9339,"ĠiM":9340,"}+(-\\":9341,"Ġny":9342,"ĠArg":9343,"));":9344,"))/(":9345,"Ġ{_{":9346,"&\\!":9347,"^*\\|_{":9348,"ĠgN":9349,"Ġvdx":9350,"Ġ}:=":9351,"}}{{{":9352,"ĠCB":9353,"\\|&=\\":9354,")}{(-":9355,"ĠTS":9356,"ĠXg":9357,"\\{||":9358,"ĠhX":9359,"Ġhigh":9360,"ĠLog":9361,"}_{\\,":9362,"ĠPa":9363,"ĠSpan":9364,"ĠDD":9365,"ĠDU":9366,"coll":9367,"ĠIV":9368,"}\\,[\\":9369,"}\\,|\\,\\":9370,"Ġ_{|\\":9371,"'((":9372,"Ġ\\;:=\\;":9373,"ĠKL":9374,"_{(+":9375,"ĠJu":9376,"^+.":9377,"}\\\\=\\":9378,"\\};\\\\":9379,"_+)=\\":9380,"'')+":9381,"Ġ33":9382,")]\\\\&=\\":9383,"-(-\\":9384,"displayskip":9385,"^-[":9386,"^-}{\\":9387,"^-_{-":9388,"*}&[\\":9389,"104":9390,"'\\|\\":9391,"...}":9392,"Ġ.,":9393,"',{\\":9394,"_*([":9395,")!}=\\":9396,"}&:":9397,"}&&\\":9398,"}{|(":9399,")},&\\":9400,"})^{[":9401,"}}}&=\\":9402,"}}_{(\\":9403,"}}=:":9404,"],&":9405,",-}^":9406,"itt":9407,"}'^{(":9408,"^{+}.\\":9409,"dzd":9410,"^{*}}=":9411,"243":9412,"}\\;=\\;\\":9413,"\\!(":9414,"dual":9415,"\\,,\\;":9416,")}+{":9417,",...,(":9418,"Ġ&&&\\":9419,"|\\,|\\":9420,"1536":9421,"&&&\\\\":9422,"kjl":9423,"Ġdudv":9424,"^{'},":9425,"365":9426,"!}{[":9427,"))\\\\=":9428,"heart":9429,"375":9430,"^{(+)}(":9431,"}\\:.\\":9432,")\\!+\\!":9433,")\\!=\\!":9434,"elf":9435,"~~~~~~~~~~~~~~~~~~~~~~~~":9436,"]\\\\&=(":9437,"Ġdistinct":9438,"shoperator":9439,"ĠAdj":9440,"vided":9441,"DET":9442,"}^{(+)}":9443,"smashoperator":9444,"@{}}":9445,"Ġstat":9446,"spher":9447,"})]_+\\":9448,"Ġtype":9449,"{!}{=}":9450,"belowdisplayskip":9451,"OFDMA":9452,"heartsuit":9453,"![\\":9454,"&:":9455,"'})^{":9456,"')=-\\":9457,"'{}^":9458,"+}[":9459,"+...\\":9460,",*}(\\":9461,"-})\\":9462,".{":9463,"/\\{":9464,"0123":9465,"3142":9466,"<(\\":9467,">&":9468,"Ann":9469,"Alg":9470,"BQ":9471,"Bc":9472,"Bs":9473,"FK":9474,"HM":9475,"Ib":9476,"It":9477,"Ji":9478,"Jac":9479,"KE":9480,"LW":9481,"ME":9482,"Ma":9483,"Map":9484,"NA":9485,"NU":9486,"RW":9487,"Rw":9488,"Sv":9489,"Tm":9490,"XF":9491,"XT":9492,"[[\\":9493,"\\}^{[":9494,"]}}{\\":9495,"])}{\\":9496,"]}_{(":9497,"])}^{":9498,"]]+[":9499,"aW":9500,"acd":9501,"bas":9502,"because":9503,"cK":9504,"hT":9505,"hyp":9506,"jmn":9507,"kJ":9508,"lij":9509,"mS":9510,"rD":9511,"sU":9512,"uF":9513,"wT":9514,"yR":9515,"{}^*":9516,"{]}":9517,"{}&\\":9518,"|;":9519,"|)\\\\":9520,"|}^{|":9521,"~|~\\":9522,"Ġnd":9523,"Ġam":9524,"Ġsi":9525,"Ġ....":9526,",\\\\{":9527,"then":9528,"arm":9529,"Ġ=+\\":9530,")\\}^{":9531,"}}_{-":9532,"}}}[":9533,"}},\\,\\":9534,"}}[(":9535,"sition":9536,"Ġ(-(":9537,"ern":9538,"Ġ-{{":9539,"})$":9540,"})}[":9541,"})...":9542,"}))).\\":9543,"}^*}{":9544,")}}^{(":9545,")}}^{(\\":9546,"bigskip":9547,"|\\}.\\":9548,"Ġ144":9549,")=_":9550,"Ġ\\,;\\,":9551,"\\,+":9552,"\\,^":9553,"^*]\\":9554,"^*=(":9555,")}\\},\\":9556,"Ġ}~~":9557,"Ġcur":9558,"ĠCat":9559,"\\|}{":9560,"\\|:=\\":9561,")}{}^{\\":9562,"Ġsm":9563,"Ġsn":9564,"Ġscal":9565,"orel":9566,"ĠBR":9567,"Ġhence":9568,"Ġmb":9569,"ĠScal":9570,"ĠDom":9571,"Ġ,...,":9572,"~~,~~":9573,"Ġjn":9574,"coef":9575,"}\\,'_{":9576,"]\\},":9577,")\\\\(\\":9578,")\\\\{\\":9579,"Ġ\\|,\\":9580,")\\,|\\":9581,")|{\\":9582,")|},":9583,"^+)+":9584,"^+)+\\":9585,"Ġ<(":9586,"\\}~.\\":9587,"}^{-},\\":9588,"Ġ|\\{\\":9589,"ĠYX":9590,"_+),":9591,"Ġ\\\\&(\\":9592,"Ġ\\\\&&&":9593,")]=(":9594,")]\\\\&":9595,"113":9596,"Ġ^{'}":9597,"\\,\\|\\":9598,")(\\|":9599,")})}.\\":9600,"_-),\\":9601,"_*)=":9602,")}_{(\\":9603,"}}^{{\\":9604,"Ġ~(\\":9605,")!}.":9606,"}&+":9607,"})=\\{\\":9608,"_{+}}(":9609,"}),\\;":9610,"}}=[":9611,"),\\\\&=\\":9612,"225":9613,"}'}(\\":9614,"dzdt":9615,"^*\\!":9616,"00000":9617,"^{*})=\\":9618,"Ġ)\\,\\":9619,",\\\\\\{":9620,",\\\\\\|":9621,"2413":9622,"}}^{\\,":9623,"):_":9624,")\\\\&(":9625,"}}\\,.":9626,"Ġ\\:{\\":9627,"Ġ51":9628,"}&=\\{\\":9629,"|\\,,\\":9630,")}-(\\":9631,"}\\\\\\\\\\":9632,"Ġ\\,\\,{\\":9633,"Ġ=&~":9634,"]+{\\":9635,")\\|,\\":9636,"Ġ\\;\\;,\\;\\;":9637,";\\;\\;\\;\\;\\;\\;\\;":9638,"_{{}^\\":9639,"izH":9640,"LoS":9641,"Log":9642,")}{||\\":9643,"dir":9644,"Ġ\\#(\\":9645,"^{'})":9646,"){}_{":9647,"304":9648,"conf":9649,"}=&~[":9650,"4213":9651,")\\\\=&(":9652,"Spin":9653,"Ġcha":9654,"curly":9655,",\\,\\,\\,\\,\\,\\,\\,\\,\\,":9656,"}}/{":9657,"grave":9658,"_{\\#}\\":9659,"}\\!\\!\\!\\":9660,"Ġ&{}=":9661,"shortparallel":9662,"DBI":9663,"FPdim":9664,"indent":9665,"elsewhere":9666,"Ġsolution":9667,"thicksim":9668,"{/}\\":9669,"variant":9670,"!_":9671,"!)\\":9672,"!\\{":9673,"$},\\\\\\":9674,"'}},\\":9675,"')},":9676,"'],":9677,"')\\\\&":9678,"'})}\\":9679,"'})^{-":9680,"(=":9681,"))\\\\&+\\":9682,"+}^\\":9683,"-{(":9684,".}{\\":9685,".}(\\":9686,"4231":9687,"768":9688,":_{":9689,"<_{":9690,">|":9691,"BCD":9692,"DK":9693,"Dd":9694,"Dis":9695,"EV":9696,"Gw":9697,"GeV":9698,"HB":9699,"JW":9700,"Kj":9701,"LB":9702,"LJ":9703,"MU":9704,"Ml":9705,"Mn":9706,"OB":9707,"Ry":9708,"SX":9709,"Tot":9710,"UF":9711,"WB":9712,"Xv":9713,"YA":9714,"])^{":9715,"]|_":9716,"][(":9717,"]])":9718,"_*}{\\":9719,"bH":9720,"cL":9721,"fV":9722,"fY":9723,"fa":9724,"kW":9725,"lip":9726,"mQ":9727,"mU":9728,"mY":9729,"pE":9730,"qD":9731,"qL":9732,"rK":9733,"rY":9734,"tra":9735,"vc":9736,"zd":9737,"|}[":9738,"Ġmu":9739,"Ġsq":9740,"Ġloop":9741,"_{*}{\\":9742,"*}}":9743,"}\\{{\\":9744,"}\\}>":9745,"}\\!\\!\\!\\!\\":9746,"}\\;\\;\\;\\;":9747,"ark":9748,"{\\;":9749,"Ġ=-(\\":9750,"phc":9751,")\\})":9752,"tical":9753,"}})=(":9754,"}}})^{\\":9755,"}}}\\\\&\\":9756,"Ġ+(-\\":9757,"surd":9758,"})}^{-":9759,"})(-\\":9760,")}$":9761,"part":9762,"bigcirc":9763,"varliminf":9764,"lation":9765,"lassi":9766,"}_{}^":9767,"}_{~~":9768,"},~~~~\\":9769,"}(\\#":9770,"},\\,\\,\\,\\,":9771,"\\\\=\\":9772,"\\\\\\|":9773,"ĠtA":9774,"Ġtn":9775,"Ġ\\,:":9776,"ĠAR":9777,"ĠAU":9778,"ĠAw":9779,"))}{(\\":9780,"^*>":9781,"Ġgp":9782,"Ġgauge":9783,"Ġye":9784,";\\{":9785,"&={":9786,"Ġrx":9787,"Ġrec":9788,"\\|{":9789,"\\|_{-":9790,")}{-":9791,"ĠTV":9792,"ĠThe":9793,"ĠBV":9794,"Ġqy":9795,")+||":9796,"})\\;\\":9797,"ĠLT":9798,"ĠRD":9799,"ĠDh":9800,"ijm":9801,"Ġ,}\\":9802,"Ġ,-\\":9803,"ĠMe":9804,"cok":9805,"Ġwb":9806,"Ġweakly":9807,"ĠIS":9808,"}\\,;\\":9809,"dsd":9810,"&=\\|\\":9811,"Ġ_{,\\":9812,"}|^{-\\":9813,"Ġ))^":9814,"Ġ)}^{\\":9815,"Ġ)&=\\":9816,"Ġ\\|{":9817,")\\,|\\,\\":9818,"(-,":9819,")|)\\":9820,")|}}\\":9821,"_{-,\\":9822,"Ġ<_":9823,"}\\\\(\\":9824,"\\}<":9825,"\\}:\\":9826,"*}([\\":9827,"}]_{+}":9828,"lnot":9829,")_{{\\":9830,")_{+}":9831,"''}=":9832,")_!\\":9833,"Ġdxdv":9834,"))\\|_{\\":9835,")]_\\":9836,")],\\\\\\":9837,"}.{\\":9838,"Ġ^{*}_{":9839,"\\}\\;,\\":9840,"plan":9841,"Ġ(-)^":9842,"^-))":9843,"Ġ:\\;":9844,"\\}.\\\\\\":9845,"((|":9846,"Ġ$|\\":9847,"Ġ$\\,":9848,"Ġ$\\{":9849,"Ġ$,}":9850,")(\\{":9851,")&={\\":9852,"_*)+\\":9853,"'}|^":9854,"):=[\\":9855,",-,+":9856,"};(\\":9857,"}(-{\\":9858,"}')_{":9859,"})}:=\\":9860,"*}\\|[":9861,"*}{_":9862,"^{*}}{":9863,"247":9864,"2431":9865,"}\\;\\,":9866,"}~{":9867,"149":9868,"^*}_":9869,"^*}^{-":9870,"})\\\\=&\\":9871,"})}{|\\":9872,"Ġ55":9873,"}^{+}}\\":9874,"}^{+}=\\":9875,";\\;\\;(\\":9876,"Ġ\\,\\,.\\":9877,"=&\\{":9878,")\\|(":9879,"&&\\\\&":9880,"Ġdual":9881,"336":9882,"]-[\\":9883,"={}&\\":9884,"})||_{":9885,"640":9886,"]\\,=\\,":9887,"Ġorb":9888,"}''}^{":9889,")={}&\\":9890,"|>|":9891,",{}^\\":9892,"leftharpo":9893,"ijklm":9894,"dashv":9895,"{.}{\\":9896,"form":9897,"unlhd":9898,"Ġtotal":9899,"Ġresc":9900,"Cone":9901,"Ġedge":9902,"Ġequivalently":9903,"Ġstep":9904,"!{\\":9905,"!-\\!\\":9906,"$(":9907,"&~~~":9908,"'&\\":9909,"',\\,":9910,"'}\\,\\":9911,"'}),":9912,"'),\\\\":9913,"'}}=\\":9914,"'_{{\\":9915,")',":9916,")''(":9917,"))}}{":9918,")}^*\\":9919,"+_{":9920,"+},":9921,"+)}\\":9922,"+{{\\":9923,",_{\\":9924,",{}":9925,"-}-":9926,".}^{":9927,"0101":9928,"=||":9929,">/":9930,"Bn":9931,"Ck":9932,"Da":9933,"Fg":9934,"HE":9935,"HX":9936,"In":9937,"KC":9938,"Kg":9939,"Lp":9940,"QT":9941,"Qg":9942,"RC":9943,"Reg":9944,"Rad":9945,"SQ":9946,"Tq":9947,"UC":9948,"WA":9949,"[:,":9950,"](-":9951,"]}^{-":9952,"]&=(":9953,"]\\\\&+\\":9954,"cP":9955,"cR":9956,"fB":9957,"fb":9958,"fk":9959,"fs":9960,"gX":9961,"hM":9962,"idots":9963,"nsubseteq":9964,"pth":9965,"qK":9966,"rE":9967,"uP":9968,"uY":9969,"vT":9970,"yA":9971,"yG":9972,"yV":9973,"{]}\\":9974,"|}_{":9975,"|+(":9976,"|=(":9977,"~{":9978,"Ġ*}(":9979,"Ġoperator":9980,"Ġ}^{(\\":9981,"Ġlow":9982,"Ġmulti":9983,"Ġ\\*":9984,"Ġ\\}+":9985,"Ġ\\}).\\":9986,"*}~\\":9987,"tain":9988,"that":9989,"}}'(":9990,"}}^+":9991,"Ġ-}":9992,"})*\\":9993,"})}\\\\&=":9994,"loze":9995,")}}(-":9996,")}|}":9997,")}_+(":9998,"^{-}-":9999}